<unk>	0
<s>	0
</s>	0
,	-2.51908
▁"	-2.66014
":	-3.34967
."	-3.49922
▁	-3.60607
input	-4.04232
output	-4.0425
{	-4.04288
▁}	-4.04288
▁the	-4.27651
s	-4.46628
▁in	-4.67718
'	-4.73739
▁to	-4.74241
▁of	-4.80849
▁die	-4.8697
▁and	-4.86985
▁a	-4.88046
▁und	-4.99787
▁that	-5.08728
.	-5.28129
▁der	-5.30002
▁ist	-5.40231
▁I	-5.40477
▁is	-5.41312
▁you	-5.42856
▁it	-5.4825
▁das	-5.50894
▁zu	-5.51725
▁we	-5.56829
▁ich	-5.68223
-	-5.68539
▁wir	-5.68589
▁was	-5.75486
:	-5.75585
▁es	-5.76719
And	-5.83082
▁this	-5.853
en	-5.85884
t	-5.88611
n	-5.88916
▁ein	-5.91132
▁sie	-5.92428
▁von	-5.9897
▁--	-5.9918
▁nicht	-6.00688
▁an	-6.03109
▁eine	-6.03763
▁dass	-6.04201
▁so	-6.08352
▁\"	-6.08501
?"	-6.14892
▁den	-6.15808
e	-6.19495
▁for	-6.20268
▁Sie	-6.2094
▁mit	-6.21692
▁are	-6.25836
Und	-6.26134
▁auf	-6.27486
▁have	-6.27677
▁they	-6.31681
▁on	-6.32669
▁with	-6.36899
▁wie	-6.40259
▁sich	-6.40375
re	-6.41783
▁can	-6.42017
So	-6.4258
▁sind	-6.45756
▁be	-6.46848
▁what	-6.49439
▁für	-6.50456
▁haben	-6.51383
▁about	-6.51434
▁all	-6.5383
Ich	-6.56046
▁man	-6.56493
I	-6.57598
▁war	-6.60507
▁at	-6.66324
m	-6.67084
▁not	-6.68471
▁als	-6.69303
▁do	-6.69699
▁um	-6.70982
▁as	-6.71677
▁there	-6.76956
er	-6.77715
▁one	-6.79509
▁diese	-6.79924
▁people	-6.80888
▁like	-6.81846
▁dem	-6.82766
▁from	-6.8284
▁im	-6.82844
▁my	-6.83587
Das	-6.86275
.\""	-6.8677
▁uns	-6.89886
▁also	-6.91177
▁wenn	-6.92055
▁einen	-6.93013
▁aus	-6.93332
▁but	-6.93834
It	-6.94238
Es	-6.94569
d	-6.95381
▁our	-6.97734
▁just	-6.98882
Wir	-6.99253
▁können	-6.99256
▁or	-6.99743
▁werden	-7.0091
▁über	-7.01947
▁oder	-7.03396
ing	-7.03532
▁er	-7.04145
▁hat	-7.04855
▁out	-7.06077
▁these	-7.06121
▁very	-7.06297
▁if	-7.07078
▁des	-7.0798
▁me	-7.08043
But	-7.08741
We	-7.10068
▁know	-7.11394
The	-7.12066
▁by	-7.12598
\"	-7.13047
▁auch	-7.14031
▁einer	-7.14391
▁going	-7.14411
▁aber	-7.1448
▁up	-7.14541
▁them	-7.14598
",	-7.14669
Sie	-7.1501
▁einem	-7.16048
▁kann	-7.16848
▁he	-7.17063
▁when	-7.18237
▁more	-7.20106
ve	-7.21174
▁because	-7.21242
▁think	-7.22771
▁nur	-7.2288
r	-7.23252
▁had	-7.23406
▁wird	-7.23635
▁sehr	-7.24383
▁see	-7.24504
▁which	-7.27158
▁your	-7.28088
▁how	-7.28219
▁who	-7.28265
▁their	-7.28719
▁Menschen	-7.29759
▁–	-7.3022
▁were	-7.30665
▁will	-7.30774
▁hier	-7.31067
▁really	-7.31166
Die	-7.31285
Aber	-7.31455
▁get	-7.3198
▁would	-7.32116
▁mich	-7.3223
▁gibt	-7.3353
▁sein	-7.37963
▁dann	-7.38099
▁us	-7.39157
▁world	-7.40425
▁time	-7.41368
?	-7.41535
ed	-7.41792
▁here	-7.42408
In	-7.42447
▁has	-7.43274
▁nach	-7.44179
▁etwas	-7.452
▁noch	-7.45942
▁♫	-7.45976
▁into	-7.48039
▁some	-7.48966
▁sehen	-7.49894
▁habe	-7.50345
▁way	-7.50533
▁actually	-7.51477
▁don	-7.51606
▁dieser	-7.51677
This	-7.5221
▁then	-7.52321
▁mir	-7.52619
▁vor	-7.52681
es	-7.53415
▁Welt	-7.55984
▁years	-7.56001
▁things	-7.56632
▁where	-7.56795
You	-7.56918
▁mehr	-7.58477
▁now	-7.58532
▁other	-7.58843
▁go	-7.59138
▁want	-7.60207
▁S	-7.62065
▁could	-7.63026
▁bei	-7.63123
Now	-7.63445
▁make	-7.63604
▁alle	-7.65171
▁been	-7.66149
;	-7.66616
▁wurde	-7.70966
▁am	-7.72761
▁said	-7.72786
▁durch	-7.72837
Wenn	-7.73933
▁Ihnen	-7.75898
They	-7.76231
▁something	-7.76375
▁zum	-7.77068
▁machen	-7.77291
▁two	-7.78417
▁right	-7.78608
▁wirklich	-7.79144
▁than	-7.79368
▁T	-7.7967
▁no	-7.80067
▁much	-7.80308
▁meine	-7.81411
▁immer	-7.81833
▁those	-7.8261
▁first	-7.8289
ll	-7.83486
▁thing	-7.85506
▁little	-7.85591
▁over	-7.8564
▁tun	-7.86105
▁weil	-7.86198
▁got	-7.86988
▁back	-7.87034
▁look	-7.8772
▁unsere	-7.88727
▁his	-7.89597
▁say	-7.90645
▁viel	-7.91407
▁da	-7.91598
▁hatte	-7.92527
▁work	-7.92869
▁Zeit	-7.93277
▁life	-7.93851
▁ihre	-7.94008
▁keine	-7.95149
▁only	-7.95656
▁need	-7.9651
▁dieses	-7.97201
Also	-7.97383
▁Leben	-7.97622
▁she	-7.98315
▁most	-7.98653
▁diesem	-7.98817
▁her	-7.99085
▁müssen	-8.00537
▁kind	-8.00678
▁Leute	-8.01304
▁viele	-8.01917
ly	-8.02299
▁wo	-8.0239
▁take	-8.02407
▁even	-8.02527
▁new	-8.02683
?\""	-8.03356
▁wissen	-8.0372
▁many	-8.04402
▁lot	-8.04438
▁Dinge	-8.04979
▁zwei	-8.05184
That	-8.05306
▁einfach	-8.05321
y	-8.05402
▁sagte	-8.05584
▁sagen	-8.05597
▁waren	-8.05624
▁Jahren	-8.06137
▁diesen	-8.07027
▁bin	-8.07342
▁Ich	-8.07703
▁Art	-8.07811
▁andere	-8.08239
Er	-8.0853
▁good	-8.08925
▁around	-8.09347
▁did	-8.09614
▁different	-8.11728
TED	-8.11991
▁Talk	-8.11997
▁jetzt	-8.12203
▁ihr	-8.12303
▁anderen	-8.12832
Was	-8.12942
▁down	-8.13774
in	-8.13853
What	-8.14421
ranscript	-8.15617
ubtitles	-8.15792
▁through	-8.15833
▁eines	-8.16638
▁zur	-8.174
▁würde	-8.17594
There	-8.20262
▁du	-8.20361
▁same	-8.204
▁selbst	-8.20474
▁alles	-8.20752
▁damit	-8.21309
▁come	-8.21853
▁every	-8.21985
▁use	-8.22092
▁bis	-8.22456
▁Und	-8.23729
▁Jahre	-8.24641
▁geht	-8.25147
▁being	-8.25319
▁doing	-8.26782
l	-8.26987
▁put	-8.27735
▁three	-8.28037
▁gut	-8.29655
▁muss	-8.30411
▁-	-8.30855
▁day	-8.31993
▁wieder	-8.32316
Well	-8.32678
Der	-8.33804
If	-8.34091
▁10	-8.34131
▁well	-8.34142
He	-8.34212
A	-8.34656
▁schon	-8.35294
▁talk	-8.35837
▁called	-8.36101
▁human	-8.36401
▁mein	-8.37572
▁percent	-8.38029
▁any	-8.38031
▁made	-8.4015
▁ihnen	-8.40272
▁möchte	-8.40316
▁vielleicht	-8.40451
▁find	-8.41332
▁denn	-8.41476
▁Das	-8.42146
▁why	-8.42265
▁Geschichte	-8.42528
▁tell	-8.42938
▁Kinder	-8.43674
▁davon	-8.44323
▁fact	-8.4449
st	-8.45005
Wie	-8.45125
▁change	-8.45276
▁year	-8.46789
a	-8.47262
Man	-8.47417
▁ganz	-8.47619
▁should	-8.48163
▁Es	-8.48183
▁ob	-8.48264
"	-8.48431
▁idea	-8.48514
▁great	-8.4869
▁heute	-8.48859
▁own	-8.4892
Nun	-8.49243
S	-8.50405
▁today	-8.50516
▁drei	-8.50902
▁hatten	-8.51101
▁didn	-8.51501
▁ihn	-8.5243
▁einige	-8.52476
▁last	-8.52622
▁könnte	-8.52898
al	-8.53125
te	-8.53533
▁seine	-8.53574
▁started	-8.54003
▁let	-8.54233
Diese	-8.54531
▁20	-8.54968
▁Jahr	-8.54996
▁after	-8.55588
▁dort	-8.55603
▁thought	-8.56077
▁zurück	-8.56173
▁big	-8.56213
▁might	-8.56332
▁course	-8.56551
▁wollen	-8.56631
▁ab	-8.56797
▁darüber	-8.57392
▁paar	-8.57534
▁better	-8.57567
▁give	-8.5764
▁before	-8.58066
▁still	-8.58217
▁went	-8.58271
▁important	-8.58577
▁genau	-8.59103
▁wurden	-8.59354
▁meiner	-8.59387
▁gehen	-8.59653
▁problem	-8.60056
▁nun	-8.60086
▁another	-8.60638
▁off	-8.60852
▁brain	-8.61198
▁werde	-8.61679
Hier	-8.61807
▁part	-8.61988
▁story	-8.62211
▁never	-8.62481
▁tatsächlich	-8.63342
▁system	-8.63349
▁start	-8.63739
▁neue	-8.64328
▁unserer	-8.64428
▁show	-8.6461
▁able	-8.64879
▁sondern	-8.66334
▁ago	-8.6655
▁next	-8.66573
▁unter	-8.66732
▁Problem	-8.66863
▁him	-8.66904
▁Beispiel	-8.67029
▁weiter	-8.67054
▁gab	-8.67081
▁water	-8.67221
▁Teil	-8.67754
▁together	-8.67893
▁bit	-8.68294
▁dazu	-8.68661
▁vom	-8.68834
▁"\"	-8.68896
▁place	-8.68915
k	-8.68989
▁wäre	-8.69056
▁Wir	-8.69373
▁long	-8.69536
▁does	-8.69712
▁few	-8.6992
▁came	-8.70112
▁dies	-8.71521
▁again	-8.72246
ung	-8.72672
▁technology	-8.72773
▁sogar	-8.72849
▁denke	-8.72853
▁finden	-8.72882
▁macht	-8.73123
▁kein	-8.73154
▁A	-8.7361
▁denken	-8.73868
▁kommen	-8.74047
▁each	-8.74141
▁mean	-8.74208
▁between	-8.74349
▁zwischen	-8.74612
▁used	-8.75061
▁end	-8.75075
▁Tag	-8.76176
c	-8.76325
de	-8.76511
▁love	-8.76526
▁weiß	-8.76539
▁gemacht	-8.7684
▁found	-8.77048
▁question	-8.77087
▁Ihre	-8.77145
▁denen	-8.77159
▁einmal	-8.77168
▁gerade	-8.77234
▁its	-8.77498
Dies	-8.77546
▁real	-8.77585
g	-8.77781
▁zusammen	-8.77913
▁data	-8.77983
▁Internet	-8.78298
▁Frage	-8.78376
Als	-8.78441
o	-8.78839
▁too	-8.79302
▁glaube	-8.79465
▁Wasser	-8.79587
▁geben	-8.79741
▁Arbeit	-8.79973
▁ohne	-8.80059
▁kommt	-8.80133
▁women	-8.80194
▁example	-8.8021
▁It	-8.80356
▁live	-8.80597
▁looking	-8.80613
When	-8.8089
▁New	-8.80952
▁point	-8.81351
▁Frauen	-8.81553
▁unser	-8.81735
▁ihren	-8.82034
▁zeigen	-8.82049
▁done	-8.82801
▁sort	-8.82814
▁understand	-8.82825
▁dafür	-8.83298
Ein	-8.8371
▁doesn	-8.83732
▁passiert	-8.84107
▁würden	-8.84646
▁Land	-8.84852
▁nie	-8.85206
▁konnte	-8.85282
▁ersten	-8.85385
▁TED	-8.85433
▁ganze	-8.85514
▁sieht	-8.86131
▁call	-8.86286
▁wanted	-8.86897
▁verstehen	-8.87067
▁million	-8.87509
▁whole	-8.87811
▁warum	-8.88061
▁jeder	-8.88281
ten	-8.88316
▁daran	-8.88615
▁während	-8.88685
▁school	-8.88706
▁four	-8.88853
▁ever	-8.89131
den	-8.89149
▁Die	-8.89268
▁Prozent	-8.8927
▁working	-8.89313
f	-8.89553
▁Millionen	-8.89573
▁believe	-8.89579
und	-8.89873
▁etwa	-8.90462
▁help	-8.90468
▁In	-8.9051
▁trying	-8.90522
▁erste	-8.90607
▁person	-8.90834
Because	-8.91256
▁mal	-8.91355
▁lassen	-8.9141
▁always	-8.91864
▁may	-8.91898
▁away	-8.92177
!"	-8.92249
▁große	-8.92281
▁sagt	-8.92369
▁30	-8.92447
▁feel	-8.92455
▁ja	-8.92577
▁design	-8.92648
▁children	-8.92873
▁welche	-8.92912
▁sollte	-8.92956
▁try	-8.93041
▁Idee	-8.93443
▁sollten	-8.93473
▁letzten	-8.93542
Thank	-8.93884
▁ver	-8.94265
▁Daten	-8.9446
▁un	-8.94772
▁Gehirn	-8.95146
th	-8.95262
▁leben	-8.95851
▁50	-8.96046
▁könnten	-8.96082
▁besser	-8.96145
▁ihrer	-8.9646
▁meisten	-8.96504
▁country	-8.96553
▁fast	-8.96728
▁Er	-8.96955
▁using	-8.97477
▁Mal	-8.9752
▁wollte	-8.97856
▁meinen	-8.9801
▁B	-8.98262
▁create	-8.98306
▁meinem	-8.98483
▁Weg	-8.98489
▁power	-8.98727
▁dabei	-8.98938
▁Bild	-8.9899
!	-8.99351
▁ziemlich	-8.99533
▁sprechen	-9.00056
▁kids	-9.00094
▁space	-9.00526
▁So	-9.00578
▁The	-9.00686
▁ging	-9.00871
h	-9.01006
▁Geld	-9.0109
▁100	-9.01269
▁high	-9.01326
▁natürlich	-9.0136
▁pro	-9.01477
▁thinking	-9.01579
▁five	-9.01603
▁bekommen	-9.01981
▁means	-9.01994
an	-9.02014
▁become	-9.02026
▁arbeiten	-9.02117
▁information	-9.02259
▁took	-9.02454
▁best	-9.02612
▁number	-9.03297
i	-9.03456
▁everything	-9.03811
▁wichtig	-9.03841
▁Ende	-9.03919
▁kam	-9.0395
▁money	-9.03952
▁maybe	-9.03965
▁home	-9.04381
▁future	-9.04447
▁small	-9.04472
▁hin	-9.04831
▁darauf	-9.04873
▁food	-9.05046
▁light	-9.05388
▁nichts	-9.05482
▁nehmen	-9.05816
▁left	-9.06237
▁U	-9.06635
Eine	-9.07245
▁Grund	-9.07378
▁old	-9.07381
be	-9.07412
▁weniger	-9.07439
How	-9.07532
B	-9.07801
▁sense	-9.07866
▁heraus	-9.08151
▁hard	-9.08152
ern	-9.08228
▁kleinen	-9.08317
▁enough	-9.08354
▁doch	-9.08421
,\"	-9.08791
▁second	-9.088
▁getting	-9.08973
▁quite	-9.09033
▁social	-9.09054
z	-9.0952
▁energy	-9.09569
▁We	-9.1004
▁Dollar	-9.10387
▁bedeutet	-9.10424
▁E	-9.10493
▁Technologie	-9.11195
▁unseren	-9.11483
▁China	-9.11595
▁15	-9.11613
▁vier	-9.12206
▁comes	-9.12334
▁probably	-9.1265
▁building	-9.13099
▁eigentlich	-9.13153
▁happened	-9.13168
▁build	-9.13413
▁Raum	-9.13425
▁less	-9.13542
▁says	-9.13764
le	-9.13772
ic	-9.13787
▁making	-9.13868
▁ihm	-9.1389
▁And	-9.1395
▁kleine	-9.14145
▁play	-9.14294
▁interesting	-9.14976
▁Sache	-9.15
▁bringen	-9.15023
ste	-9.15085
▁talking	-9.15103
▁half	-9.15182
▁dachte	-9.15505
▁stuff	-9.15541
▁Dank	-9.15635
▁brauchen	-9.15678
▁body	-9.15761
on	-9.15789
u	-9.15858
Da	-9.15977
ers	-9.15981
These	-9.16219
▁science	-9.16625
▁gesehen	-9.16658
▁without	-9.16701
D	-9.16979
▁ask	-9.17557
▁lives	-9.17664
▁zeigt	-9.17677
▁jemand	-9.18241
K	-9.18517
▁countries	-9.18518
▁großen	-9.18665
▁hand	-9.18688
▁Weise	-9.18729
▁simple	-9.18751
sten	-9.18934
ra	-9.1896
ü	-9.18963
▁Aber	-9.18965
▁Zukunft	-9.19007
▁such	-9.19057
One	-9.19333
▁Computer	-9.19551
My	-9.19594
▁told	-9.19673
▁York	-9.19879
▁Seite	-9.20051
▁moment	-9.2007
▁pretty	-9.20247
▁coming	-9.20432
▁times	-9.20692
▁dollars	-9.21172
▁anything	-9.21249
▁across	-9.21515
▁learn	-9.21837
▁happen	-9.22061
p	-9.22713
Im	-9.23247
▁Stadt	-9.23259
▁ganzen	-9.23268
▁side	-9.23621
▁makes	-9.23971
b	-9.24128
Here	-9.24529
▁living	-9.24538
▁Africa	-9.2465
▁Mann	-9.24763
▁experience	-9.25
to	-9.25302
▁gegen	-9.25462
.\"	-9.25529
▁jeden	-9.25598
All	-9.25692
▁keinen	-9.25815
▁Menge	-9.26049
▁bad	-9.26427
▁global	-9.26463
▁else	-9.26505
▁room	-9.26508
▁später	-9.26611
▁hätte	-9.2667
▁gesagt	-9.2686
▁Ort	-9.26871
▁seit	-9.26873
▁far	-9.27005
▁versuchen	-9.27024
▁car	-9.27076
▁Person	-9.27185
▁care	-9.27295
▁later	-9.27328
▁Energie	-9.27499
▁saw	-9.27548
▁glauben	-9.27937
▁move	-9.2805
▁Frau	-9.28191
▁seen	-9.2821
▁asked	-9.28537
▁lernen	-9.28551
or	-9.28552
▁open	-9.2858
▁computer	-9.28632
▁You	-9.28775
▁Körper	-9.28841
For	-9.29032
▁goes	-9.29045
▁case	-9.29155
▁mind	-9.29201
▁beim	-9.29407
▁funktioniert	-9.29597
She	-9.29785
▁seiner	-9.29857
▁reason	-9.30149
▁happens	-9.30164
E	-9.30376
▁picture	-9.30432
▁eigenen	-9.3046
▁having	-9.30567
ge	-9.30712
▁vielen	-9.30781
▁health	-9.30831
em	-9.30976
▁sicher	-9.31044
▁family	-9.31214
Dann	-9.31422
▁Kind	-9.31607
▁men	-9.31672
▁schnell	-9.31724
▁stellen	-9.32188
▁schaffen	-9.32236
▁city	-9.32708
▁konnten	-9.32779
▁Earth	-9.32935
▁heißt	-9.33016
▁inside	-9.33127
▁ways	-9.33175
▁problems	-9.33294
▁business	-9.33434
▁process	-9.33594
▁single	-9.33656
▁wenig	-9.3367
ber	-9.33671
Let	-9.337
▁Moment	-9.33828
T	-9.34035
▁Erde	-9.34204
▁set	-9.34219
▁per	-9.34612
▁book	-9.34796
▁wahrscheinlich	-9.34811
▁Fall	-9.34851
▁Probleme	-9.34921
▁nutzen	-9.34962
▁Ein	-9.35096
▁möglich	-9.35319
▁top	-9.35369
▁gute	-9.35399
▁helfen	-9.35462
▁planet	-9.35559
it	-9.35706
▁days	-9.35902
▁yet	-9.36059
Warum	-9.36166
▁System	-9.36406
▁40	-9.36509
▁project	-9.36597
▁richtig	-9.36626
▁lange	-9.36729
▁while	-9.36763
▁possible	-9.37134
▁young	-9.37206
▁fünf	-9.37487
▁almost	-9.37529
▁neuen	-9.37585
▁USA	-9.38033
▁once	-9.38126
▁six	-9.38214
▁basically	-9.38223
▁both	-9.38373
▁jedes	-9.38481
▁saying	-9.38808
▁bring	-9.3894
As	-9.39238
▁G	-9.39428
▁guy	-9.39488
▁wrong	-9.39927
▁matter	-9.40098
ie	-9.4045
▁answer	-9.40461
▁Mutter	-9.40488
▁whether	-9.40536
▁sah	-9.4057
Why	-9.40673
▁Natur	-9.40753
▁ideas	-9.41073
▁nothing	-9.41165
▁billion	-9.41179
▁history	-9.41354
▁keep	-9.41557
▁already	-9.41559
Okay	-9.4215
▁community	-9.42194
▁unserem	-9.42267
▁someone	-9.42297
2	-9.42596
▁Lebens	-9.42831
▁cancer	-9.42847
▁under	-9.429
Oh	-9.4293
▁DNA	-9.42939
▁hoch	-9.43011
▁genug	-9.43218
▁true	-9.43325
▁erzählen	-9.4334
▁nächsten	-9.434
C	-9.43446
▁looked	-9.43608
▁form	-9.43658
▁Licht	-9.43665
▁within	-9.4374
▁public	-9.4383
▁hope	-9.43934
der	-9.44185
▁often	-9.44216
ur	-9.44288
ch	-9.44484
▁remember	-9.44862
ation	-9.4506
▁couple	-9.45118
▁C	-9.45174
▁begann	-9.4545
▁ge	-9.45542
ion	-9.45741
▁child	-9.45877
▁order	-9.45902
▁cells	-9.45982
▁self	-9.46023
▁myself	-9.46084
▁bauen	-9.46095
▁jede	-9.46415
▁lang	-9.46473
▁read	-9.46568
▁looks	-9.46605
▁imagine	-9.4665
▁music	-9.46653
ig	-9.46689
▁heard	-9.46838
indem	-9.4685
▁3	-9.47093
▁video	-9.47106
▁words	-9.47196
▁universe	-9.47363
▁face	-9.47373
▁Planeten	-9.47432
▁allen	-9.47464
▁built	-9.47565
▁seinen	-9.47566
▁Buch	-9.47593
CA	-9.47761
▁turn	-9.47943
▁beautiful	-9.48004
▁Ideen	-9.48031
▁Was	-9.48195
▁je	-9.48218
▁sure	-9.48233
▁sei	-9.48244
ne	-9.48493
No	-9.48602
ieren	-9.48617
Denn	-9.48696
▁United	-9.48808
▁Schule	-9.48832
▁ungefähr	-9.4904
▁verändern	-9.49042
▁language	-9.49125
▁Hand	-9.49441
▁Wie	-9.49571
▁anders	-9.49688
▁control	-9.49817
▁amazing	-9.49887
▁age	-9.49962
ist	-9.50354
▁liegt	-9.50355
▁stories	-9.50482
▁Ihr	-9.50662
▁group	-9.5075
▁He	-9.51196
▁ihrem	-9.5124
Jetzt	-9.51269
▁bisschen	-9.51395
▁months	-9.51398
▁head	-9.51759
▁government	-9.51838
▁Projekt	-9.51867
ar	-9.52069
el	-9.52183
F	-9.5224
▁herum	-9.52242
▁Informationen	-9.52302
▁piece	-9.52385
▁weit	-9.52471
▁Entwicklung	-9.52472
▁Design	-9.52831
▁run	-9.52839
▁gehört	-9.5302
w	-9.53056
▁überall	-9.53234
▁species	-9.53391
ä	-9.53475
▁job	-9.53655
▁research	-9.53697
▁Leuten	-9.53797
us	-9.5409
▁past	-9.54149
▁nature	-9.54268
▁Wenn	-9.54279
▁12	-9.54312
▁education	-9.54496
\"."	-9.54516
▁...	-9.54692
▁Antwort	-9.55053
▁line	-9.55128
▁until	-9.55201
ter	-9.55272
▁kennen	-9.55274
▁Punkt	-9.55322
▁model	-9.5574
▁stehen	-9.55823
▁darum	-9.55921
▁Auto	-9.5605
▁Augen	-9.56128
▁gleich	-9.56623
▁everybody	-9.56625
▁works	-9.56777
▁stop	-9.56817
▁heart	-9.56879
▁Milliarden	-9.57231
Mit	-9.57292
▁Form	-9.57325
▁sagten	-9.57352
▁completely	-9.57353
▁musste	-9.57378
▁erst	-9.57397
▁Männer	-9.57422
▁study	-9.57617
ness	-9.57653
▁nennen	-9.57684
▁places	-9.57713
▁friends	-9.57762
▁dich	-9.57845
▁decided	-9.5786
▁Be	-9.57872
▁entwickelt	-9.57896
▁large	-9.57939
▁Fragen	-9.58254
▁taking	-9.58556
▁reden	-9.58579
▁art	-9.58767
Vielen	-9.58811
▁hear	-9.58842
▁Musik	-9.58959
▁word	-9.59025
▁became	-9.59044
▁share	-9.59105
able	-9.59202
▁animals	-9.59222
▁stand	-9.59391
▁exactly	-9.59418
man	-9.59433
▁klar	-9.5965
▁students	-9.59695
▁K	-9.59722
▁weg	-9.59741
▁must	-9.59798
▁since	-9.59905
▁itself	-9.59914
Meine	-9.60029
▁game	-9.6021
▁bereits	-9.60217
▁gar	-9.6033
▁though	-9.6037
▁Geschichten	-9.60435
▁night	-9.60492
▁States	-9.6052
▁spielen	-9.60606
▁Arten	-9.60717
▁happening	-9.61028
▁Wissenschaft	-9.61113
▁euch	-9.61149
▁America	-9.61158
▁learned	-9.61237
▁Minuten	-9.61264
▁Afrika	-9.61376
▁erkennen	-9.61405
▁Gesellschaft	-9.61433
▁ourselves	-9.61524
▁Familie	-9.61695
▁60	-9.61874
▁society	-9.61902
▁bevor	-9.62015
▁Kopf	-9.62027
▁knew	-9.62027
▁Kunst	-9.62305
▁woman	-9.62386
▁erreichen	-9.6242
▁Mädchen	-9.62497
▁level	-9.62523
▁besonders	-9.62553
▁25	-9.62632
▁minutes	-9.62745
▁18	-9.6282
▁fragen	-9.62835
▁halten	-9.63022
▁India	-9.63077
▁steht	-9.63359
▁company	-9.63425
▁themselves	-9.63425
▁against	-9.63486
ity	-9.63617
▁80	-9.6365
▁somebody	-9.63811
▁name	-9.63929
▁benutzen	-9.64104
▁verschiedene	-9.64118
sch	-9.64275
▁namens	-9.64589
▁oft	-9.64757
▁anderes	-9.64842
▁along	-9.65177
▁de	-9.65184
▁questions	-9.65264
and	-9.65431
um	-9.65521
▁hören	-9.65845
▁gerne	-9.65847
▁state	-9.65882
▁sechs	-9.65886
▁rather	-9.65886
▁darin	-9.66033
▁sound	-9.6616
▁huge	-9.66261
▁hätten	-9.66299
▁created	-9.66337
▁turns	-9.66364
▁front	-9.66572
▁environment	-9.66829
is	-9.66984
▁disease	-9.66987
▁machte	-9.66991
▁hours	-9.67213
▁Bilder	-9.6727
▁kinds	-9.67282
▁Macht	-9.67563
▁oben	-9.67606
▁Unternehmen	-9.67698
▁Der	-9.67723
iert	-9.67959
▁Gruppe	-9.67984
▁wer	-9.68085
▁Haus	-9.68112
et	-9.68179
▁braucht	-9.6833
▁Google	-9.68402
▁Ver	-9.68528
▁schwer	-9.68655
▁least	-9.68679
▁OK	-9.68697
▁air	-9.68711
▁entwickeln	-9.68949
▁Man	-9.68972
▁Film	-9.69038
ver	-9.69051
▁menschliche	-9.691
▁won	-9.69209
▁jedem	-9.69385
▁God	-9.69528
▁Gefühl	-9.6959
▁mother	-9.69847
▁wasn	-9.6991
▁sometimes	-9.70098
▁close	-9.7036
▁third	-9.70407
▁figure	-9.70578
seinem	-9.70633
▁American	-9.70698
Für	-9.70754
▁early	-9.70865
zu	-9.70921
▁What	-9.71004
Mein	-9.71038
Danke	-9.71059
▁worked	-9.7108
▁happy	-9.71177
▁M	-9.71208
il	-9.71258
▁shows	-9.71322
▁particular	-9.71381
▁thousands	-9.7154
▁Spiel	-9.71752
▁Patienten	-9.71993
▁gesamte	-9.72109
▁Angst	-9.72136
▁guys	-9.72162
An	-9.72213
▁Sprache	-9.72253
▁gave	-9.72389
▁oil	-9.72404
▁everyone	-9.72538
Then	-9.7266
▁couldn	-9.72687
up	-9.7285
▁deal	-9.7289
▁isn	-9.72928
▁Möglichkeit	-9.72947
▁instead	-9.7295
▁Hause	-9.73153
▁natural	-9.73386
▁vorstellen	-9.73387
▁erhalten	-9.73687
▁soll	-9.73714
▁land	-9.73717
Dieses	-9.73757
▁free	-9.73793
ö	-9.73832
▁Roboter	-9.73843
R	-9.73958
▁market	-9.73965
▁cell	-9.74057
▁Vater	-9.74387
Ja	-9.74499
▁learning	-9.74516
▁outside	-9.74815
▁house	-9.74979
▁Stunden	-9.75018
▁online	-9.75153
▁einigen	-9.75242
▁news	-9.75323
▁entire	-9.75338
▁manchmal	-9.75516
▁beiden	-9.75517
▁verschiedenen	-9.7558
▁systems	-9.75618
▁machine	-9.75753
▁bewegen	-9.75813
▁ändern	-9.7595
▁2	-9.76077
▁cool	-9.76126
▁irgendwie	-9.76386
▁difference	-9.76551
▁Du	-9.76588
▁full	-9.76646
▁D	-9.76715
ro	-9.76822
Auf	-9.76843
▁Indien	-9.76873
▁gets	-9.76889
▁aller	-9.76935
▁Wort	-9.77086
▁menschlichen	-9.77112
▁einzige	-9.77252
▁behind	-9.77624
ische	-9.77675
▁moving	-9.77742
▁seven	-9.77842
Or	-9.77964
▁Luft	-9.78057
Vor	-9.78237
▁besten	-9.78326
▁powerful	-9.78418
Bei	-9.78479
P	-9.78483
▁changed	-9.78511
▁wollten	-9.78642
▁verändert	-9.79009
▁They	-9.79114
▁others	-9.79217
▁HIV	-9.79228
▁Regierung	-9.79309
▁taken	-9.79326
▁ocean	-9.79456
▁nämlich	-9.79492
▁dir	-9.79676
as	-9.7972
▁Ja	-9.79932
▁verwenden	-9.79962
▁area	-9.79976
▁Eltern	-9.79977
▁black	-9.80143
▁culture	-9.8026
▁century	-9.8047
▁local	-9.80517
▁rest	-9.80519
▁leave	-9.80615
▁team	-9.80922
▁common	-9.81125
▁middle	-9.81159
▁beginning	-9.81159
▁eher	-9.81168
▁lots	-9.81187
▁Sachen	-9.81242
▁Gebäude	-9.81341
▁fand	-9.81353
▁Kindern	-9.81364
▁alt	-9.8139
▁unglaublich	-9.81425
Um	-9.81577
▁easy	-9.81619
▁cities	-9.81927
year	-9.81983
▁perhaps	-9.8208
▁sage	-9.82145
▁Vortrag	-9.82182
lich	-9.82192
▁führen	-9.82378
▁innerhalb	-9.82389
▁pay	-9.82454
▁yourself	-9.82608
▁media	-9.82703
▁population	-9.82832
▁eyes	-9.82864
▁fish	-9.82896
▁90	-9.82905
Vielleicht	-9.82928
ta	-9.82984
▁test	-9.83009
▁turned	-9.83251
▁given	-9.83414
▁wohl	-9.83608
▁An	-9.83896
▁difficult	-9.83913
▁Gott	-9.83921
▁began	-9.83977
▁normal	-9.84027
To	-9.84246
▁size	-9.84282
▁cost	-9.84338
▁paper	-9.84375
▁takes	-9.84387
▁getan	-9.84486
▁F	-9.84615
▁überhaupt	-9.84737
▁That	-9.84763
▁Glück	-9.8518
▁Sinn	-9.85263
▁wegen	-9.85288
▁walk	-9.8536
▁image	-9.85364
▁Länder	-9.8549
▁Ziel	-9.85513
▁terms	-9.8568
▁wonderful	-9.85819
▁groß	-9.85857
▁nächste	-9.85874
old	-9.85878
▁view	-9.86027
▁Krebs	-9.86116
▁Universum	-9.86187
▁Ab	-9.86188
▁economic	-9.8621
▁versucht	-9.86211
▁Video	-9.86245
▁Lage	-9.86272
ive	-9.86335
▁finally	-9.86348
▁stellt	-9.86486
▁zwar	-9.86496
Doch	-9.86518
▁Herausforderung	-9.86817
▁treffen	-9.87304
▁beginnen	-9.87364
▁gleichen	-9.87419
▁..."	-9.87541
▁grow	-9.87746
?\"	-9.87899
▁certain	-9.87919
▁simply	-9.87955
▁Stück	-9.88009
▁schauen	-9.88024
▁seeing	-9.88037
▁cannot	-9.88146
during	-9.88277
▁Tiere	-9.88311
▁Erfahrung	-9.88393
▁companies	-9.88611
▁eight	-9.88765
▁hands	-9.88828
▁spend	-9.88924
▁behavior	-9.88995
▁This	-9.88997
▁realized	-9.89365
▁mag	-9.89603
▁Freunde	-9.89618
▁neu	-9.89744
▁Thank	-9.89796
▁allem	-9.89906
▁R	-9.90053
▁parts	-9.90059
▁Da	-9.90144
Oder	-9.90232
▁needs	-9.90351
Do	-9.90368
H	-9.90648
▁longer	-9.90653
▁amount	-9.90693
▁Gesundheit	-9.90701
▁eigene	-9.90829
▁200	-9.90829
▁H	-9.90837
▁Anfang	-9.90904
Some	-9.90907
▁Vor	-9.90916
▁Hilfe	-9.90945
▁weitere	-9.91019
▁fühlen	-9.91277
ul	-9.91281
vi	-9.91289
▁short	-9.91633
▁Wirtschaft	-9.91712
▁death	-9.91732
▁needed	-9.91873
▁reality	-9.9198
▁wusste	-9.92363
▁schön	-9.92458
▁whatever	-9.92549
▁parents	-9.92567
▁fest	-9.92611
▁complex	-9.92635
▁ones	-9.92642
▁Verhalten	-9.92673
▁völlig	-9.92813
isch	-9.93118
▁Re	-9.93128
▁mussten	-9.93186
the	-9.9329
ia	-9.93305
▁Auf	-9.93406
▁lässt	-9.93449
▁poor	-9.93507
▁hinter	-9.93632
▁tried	-9.93682
▁World	-9.93852
▁growth	-9.94329
▁quickly	-9.94386
▁solche	-9.9442
▁low	-9.94427
▁Vorstellung	-9.94436
▁wahr	-9.94436
▁green	-9.94494
▁tut	-9.94549
▁felt	-9.94568
▁value	-9.94644
▁kamen	-9.94831
▁letzte	-9.94851
▁interested	-9.95103
▁father	-9.95147
▁Grunde	-9.95178
▁Dingen	-9.95181
▁week	-9.95266
me	-9.95374
N	-9.95424
▁phone	-9.9546
▁Unterschied	-9.95474
▁Liebe	-9.95523
▁1	-9.95724
▁scale	-9.95898
L	-9.95913
ma	-9.95956
▁bringt	-9.96064
▁buy	-9.96079
▁okay	-9.9613
▁spent	-9.9613
ce	-9.96133
▁friend	-9.96154
dem	-9.96164
▁unten	-9.96172
▁red	-9.9621
▁ability	-9.96218
▁animal	-9.96227
▁jedoch	-9.96308
▁political	-9.96452
▁Kultur	-9.9653
At	-9.96596
▁eat	-9.96628
▁Möglichkeiten	-9.96667
▁write	-9.96698
▁gone	-9.96752
gen	-9.96806
▁humans	-9.96823
1	-9.96902
▁direkt	-9.96965
▁Wissenschaftler	-9.97144
▁falsch	-9.97159
▁Lösung	-9.97202
▁blue	-9.97231
▁Gedanken	-9.97282
▁field	-9.97292
ab	-9.97361
la	-9.97489
▁gleiche	-9.97923
▁How	-9.97941
▁lost	-9.97988
▁Thema	-9.98296
at	-9.98403
▁feet	-9.9848
▁worden	-9.98523
▁führt	-9.98592
▁lösen	-9.98705
▁personal	-9.98797
▁opportunity	-9.98828
▁5	-9.98864
▁economy	-9.9901
▁schreiben	-9.9901
▁kurz	-9.99077
▁damals	-9.99376
▁70	-9.99858
▁wären	-9.9987
▁result	-9.99901
▁Lehrer	-9.99922
▁dessen	-9.99947
▁Wochen	-10.0022
▁Tage	-10.0024
x	-10.0031
▁surface	-10.0031
▁sitting	-10.0049
▁step	-10.005
ol	-10.0057
▁weeks	-10.0058
▁z	-10.0079
▁obwohl	-10.0087
▁Tages	-10.009
▁Boden	-10.0105
▁größte	-10.0106
▁bleiben	-10.0118
▁program	-10.012
▁either	-10.0123
▁14	-10.0134
▁modern	-10.0137
ha	-10.0142
▁niemand	-10.0149
ment	-10.015
▁challenge	-10.0167
▁realize	-10.017
▁attention	-10.0179
▁incredible	-10.0198
▁Selbst	-10.0199
ach	-10.0201
Du	-10.0205
▁suchen	-10.0207
▁Namen	-10.0212
▁Staaten	-10.0212
▁individual	-10.0231
▁fragte	-10.0235
G	-10.0241
▁sollen	-10.0244
▁Wissen	-10.0245
▁Al	-10.025
▁ground	-10.0265
▁meines	-10.0268
Our	-10.0278
▁Nacht	-10.0283
▁South	-10.0292
▁bottom	-10.0298
ting	-10.0306
▁besteht	-10.0314
ant	-10.0314
▁Woche	-10.0327
▁teilen	-10.0328
▁areas	-10.0348
▁morning	-10.0349
▁No	-10.0351
mal	-10.0354
▁climate	-10.0355
▁recht	-10.0356
People	-10.0363
▁betrachten	-10.0371
▁Monate	-10.0382
▁fun	-10.0401
▁genauso	-10.0408
▁structure	-10.0422
▁sea	-10.0427
▁known	-10.044
▁Umwelt	-10.0453
▁access	-10.0464
▁average	-10.0465
▁patients	-10.0466
br	-10.0469
▁based	-10.0486
▁Ländern	-10.0498
se	-10.0514
▁zuvor	-10.0521
ir	-10.0527
ischen	-10.0539
▁bewusst	-10.0548
▁Labor	-10.0557
▁speak	-10.057
ate	-10.0578
▁Mensch	-10.0582
▁physical	-10.0597
▁gefunden	-10.0612
▁zweite	-10.0628
4	-10.0642
▁Dr	-10.0643
Nein	-10.0644
▁deep	-10.0645
▁Prozess	-10.0657
▁Fähigkeit	-10.0671
▁Krieg	-10.0675
!\""	-10.0681
▁interessant	-10.0694
▁clear	-10.0696
Zum	-10.0696
▁Zellen	-10.0698
▁brought	-10.0699
▁forward	-10.07
▁growing	-10.0704
ton	-10.0704
▁numbers	-10.0706
land	-10.0715
▁Essen	-10.0717
Weil	-10.0736
▁17	-10.075
▁feeling	-10.0751
Am	-10.0751
▁fly	-10.0758
▁Markt	-10.0764
▁met	-10.0769
▁nice	-10.0775
▁Bewegung	-10.0778
▁developed	-10.079
im	-10.0797
▁dark	-10.0802
▁key	-10.0805
▁born	-10.0814
▁sterben	-10.0817
▁material	-10.0818
▁knowledge	-10.0826
▁Modell	-10.0833
▁understanding	-10.0849
▁sieben	-10.0856
▁16	-10.0859
▁map	-10.0869
▁images	-10.0883
O	-10.089
▁"♫	-10.0893
▁scheint	-10.0899
▁los	-10.0905
▁O	-10.0908
▁film	-10.0916
▁soziale	-10.0926
▁English	-10.0927
▁positive	-10.0928
▁bitte	-10.0936
▁watch	-10.0939
▁Ihren	-10.0942
▁theory	-10.0945
▁audience	-10.0946
▁non	-10.095
▁London	-10.0957
▁kaufen	-10.0961
W	-10.0972
▁Sch	-10.0973
▁force	-10.0974
igen	-10.0974
▁Autos	-10.0981
▁cut	-10.0986
▁white	-10.0991
▁wouldn	-10.1
▁Publikum	-10.1006
▁seems	-10.1007
▁giving	-10.1012
▁Revolution	-10.1017
▁gelernt	-10.1021
▁changes	-10.1025
▁lesen	-10.1026
▁nimmt	-10.1029
▁technologies	-10.1042
▁erschaffen	-10.1043
▁Gemeinschaft	-10.1049
▁genannt	-10.1055
▁gebaut	-10.1057
▁running	-10.1062
▁center	-10.1067
▁Schritt	-10.1067
▁support	-10.1072
▁P	-10.1077
▁books	-10.1087
▁4	-10.1089
li	-10.109
▁wrote	-10.1103
▁Verbindung	-10.1126
ck	-10.1128
▁Also	-10.1138
▁anderer	-10.114
▁John	-10.1155
▁scientists	-10.1157
▁gives	-10.116
▁literally	-10.1165
▁starting	-10.1183
OK	-10.1185
▁erinnern	-10.1186
▁experiment	-10.1187
▁schwierig	-10.1202
▁tools	-10.1203
▁stage	-10.1212
▁Herz	-10.1225
▁bereit	-10.1226
▁draußen	-10.1227
▁risk	-10.1237
▁Mars	-10.1258
▁11	-10.1265
chen	-10.1267
▁creating	-10.1269
▁anyone	-10.127
▁Technik	-10.1272
▁ent	-10.1274
ry	-10.1283
▁Reihe	-10.1283
▁erzählt	-10.1284
▁San	-10.1286
▁Zahl	-10.1296
▁Web	-10.1297
▁West	-10.1306
▁Jahrhundert	-10.1324
▁funktionieren	-10.1325
▁girl	-10.1354
▁erklären	-10.1356
▁focus	-10.1359
▁Kraft	-10.1367
▁Bedeutung	-10.1374
▁Okay	-10.138
On	-10.1383
▁save	-10.1386
▁Team	-10.1404
▁hundreds	-10.1413
▁nahm	-10.1415
▁schließlich	-10.1417
▁Afghanistan	-10.1417
▁alone	-10.1417
▁verbunden	-10.143
▁Medien	-10.1437
un	-10.1439
▁miles	-10.1445
▁gewesen	-10.1459
▁allow	-10.1463
ran	-10.1464
▁City	-10.1479
▁passieren	-10.1481
▁solve	-10.1484
5	-10.1486
Nach	-10.1497
pe	-10.1499
ko	-10.1501
▁welches	-10.1505
▁geworden	-10.1508
▁telling	-10.1508
M	-10.1513
▁voice	-10.1516
▁fanden	-10.1521
less	-10.154
▁Reise	-10.1565
▁Technologien	-10.1574
▁unseres	-10.1574
ism	-10.1575
▁blood	-10.1575
▁hold	-10.158
▁Familien	-10.158
▁Wahrheit	-10.1581
▁hast	-10.1584
▁jemals	-10.1588
▁Muster	-10.1592
bei	-10.1594
▁schlecht	-10.1599
▁plötzlich	-10.161
▁development	-10.1613
▁millions	-10.1613
▁issue	-10.1616
▁kid	-10.1624
▁relationship	-10.1625
▁sch	-10.1628
am	-10.164
▁13	-10.1646
▁sehe	-10.1647
▁movement	-10.1648
▁cars	-10.1652
▁guess	-10.1653
▁daraus	-10.1653
▁stark	-10.1659
Just	-10.1664
▁essen	-10.1669
▁miteinander	-10.1678
▁discovered	-10.1678
▁act	-10.1689
▁co	-10.1701
3	-10.1707
▁developing	-10.1709
▁größten	-10.173
ein	-10.1739
▁color	-10.1746
▁seem	-10.1747
J	-10.1752
▁Erfolg	-10.1759
▁playing	-10.1765
▁National	-10.1769
▁law	-10.1776
▁meet	-10.1782
▁gezeigt	-10.1785
au	-10.1788
▁acht	-10.1791
▁glücklich	-10.1794
▁beginnt	-10.1807
▁But	-10.1809
▁leicht	-10.1811
amp	-10.182
▁thank	-10.1823
▁aussehen	-10.1833
▁deine	-10.1833
▁liebe	-10.1834
▁Tier	-10.1836
▁send	-10.1838
he	-10.1841
Unsere	-10.1845
▁begin	-10.186
▁fear	-10.186
Be	-10.1865
▁Richtung	-10.1867
▁solution	-10.187
▁Mit	-10.1875
▁nachdem	-10.188
ling	-10.1882
Not	-10.1891
▁Eine	-10.1895
Heute	-10.1912
▁Aus	-10.1918
▁anfangen	-10.1919
▁impact	-10.1919
▁mache	-10.1931
Viele	-10.1937
▁Rolle	-10.194
▁innovation	-10.194
▁deshalb	-10.1941
▁verloren	-10.1941
▁Studenten	-10.1944
▁Bildung	-10.1945
▁Meinung	-10.1957
▁Anzahl	-10.1963
...	-10.1967
▁Wahl	-10.1968
▁chance	-10.1982
▁bist	-10.1986
▁showed	-10.1991
▁zehn	-10.1993
▁patient	-10.1997
▁Umgebung	-10.2002
▁Realität	-10.2008
▁500	-10.2008
▁total	-10.2015
▁network	-10.2019
▁gegenüber	-10.2024
▁David	-10.2027
▁solar	-10.2031
▁Europe	-10.2034
▁Wert	-10.2049
▁major	-10.2052
▁industry	-10.2053
Tatsächlich	-10.2053
▁truth	-10.2059
▁Foto	-10.2063
▁p	-10.2065
▁Aufgabe	-10.207
di	-10.2086
▁shape	-10.2087
ke	-10.2096
▁19	-10.2103
▁möchten	-10.2109
▁findet	-10.211
8	-10.211
▁Veränderung	-10.2115
▁recently	-10.2123
▁hinein	-10.2129
ien	-10.213
▁type	-10.2131
▁danach	-10.2145
▁Tat	-10.215
▁L	-10.2154
▁Platz	-10.216
▁absolutely	-10.2168
▁Gewalt	-10.2173
▁resources	-10.2182
▁medical	-10.219
▁eye	-10.2192
▁schrieb	-10.2192
iv	-10.2192
▁robot	-10.2196
▁issues	-10.2196
▁Städte	-10.2199
Wissen	-10.22
▁CO	-10.2207
▁Forschung	-10.2208
▁Bevölkerung	-10.2209
▁incredibly	-10.2213
▁stellte	-10.2214
son	-10.2214
▁rate	-10.2224
▁digital	-10.2233
▁Freund	-10.2234
▁vision	-10.2244
▁evidence	-10.2259
▁tiny	-10.2259
▁Größe	-10.226
Stellen	-10.2264
die	-10.227
▁designed	-10.2271
▁produce	-10.2273
ik	-10.2275
▁Material	-10.2292
▁lab	-10.2293
▁ice	-10.2293
▁Hälfte	-10.2305
▁unterschiedlich	-10.2309
ungen	-10.231
▁Facebook	-10.2312
▁asking	-10.2313
▁product	-10.2315
we	-10.2318
▁Rest	-10.2328
▁Ihrer	-10.2337
▁entfernt	-10.2342
▁verwendet	-10.2345
▁sun	-10.2346
▁present	-10.2347
▁message	-10.2354
▁Sicherheit	-10.2354
Natürlich	-10.2358
▁Krankheit	-10.236
▁kleiner	-10.2365
▁kleines	-10.2372
▁weltweit	-10.2379
▁special	-10.2386
▁frei	-10.2386
▁Tatsache	-10.2391
▁talked	-10.2391
bar	-10.2392
▁bekannt	-10.2396
▁Entscheidungen	-10.2399
▁guten	-10.2407
▁tat	-10.2412
▁available	-10.2425
▁beide	-10.2428
▁changing	-10.2432
ger	-10.2434
▁falls	-10.2436
▁choice	-10.2449
▁mass	-10.2456
▁situation	-10.2474
▁Chinese	-10.2475
▁soon	-10.2479
▁street	-10.2484
▁Studie	-10.2492
▁Teile	-10.2496
▁reasons	-10.2504
▁baby	-10.2517
▁Stimme	-10.2517
▁benutzt	-10.2519
▁perfect	-10.2536
com	-10.2538
▁Situation	-10.2552
▁writing	-10.2556
co	-10.2558
ous	-10.2562
▁hundred	-10.2569
▁bekommt	-10.2571
▁Ge	-10.2573
▁national	-10.2584
▁hinaus	-10.2587
▁beyond	-10.2588
▁involved	-10.2589
keit	-10.2597
▁drive	-10.2615
▁teach	-10.2615
▁egal	-10.2636
ier	-10.2639
▁beste	-10.2646
7	-10.2648
▁add	-10.2656
▁especially	-10.2684
▁sofort	-10.2697
▁komplett	-10.2701
ut	-10.2709
▁Eis	-10.271
▁raus	-10.2721
▁Preis	-10.2727
▁generation	-10.2731
▁deren	-10.2733
▁All	-10.2739
▁yes	-10.2758
▁bigger	-10.2758
los	-10.2775
▁explain	-10.2779
▁niemals	-10.2781
▁nachdenken	-10.2784
Nicht	-10.2787
ren	-10.2812
pa	-10.2813
id	-10.2828
▁erreicht	-10.283
▁schneller	-10.2838
▁US	-10.2841
▁effect	-10.2841
▁provide	-10.2847
▁box	-10.2852
▁Papier	-10.2854
est	-10.2858
▁Europa	-10.2862
▁break	-10.2866
▁allein	-10.2867
▁größer	-10.2867
▁War	-10.2871
▁alten	-10.2872
▁länger	-10.2874
▁hoffe	-10.2875
▁mögen	-10.288
▁einfache	-10.2883
▁ca	-10.2883
ho	-10.2883
ner	-10.2893
▁putting	-10.2907
▁arm	-10.2907
▁Blick	-10.2912
▁journey	-10.2928
▁bekam	-10.2929
▁Generation	-10.2942
Can	-10.2949
▁dead	-10.295
aus	-10.2964
▁computers	-10.297
▁pick	-10.2975
▁basic	-10.2977
▁girls	-10.2989
▁rules	-10.3002
Wo	-10.3004
▁lived	-10.301
ich	-10.3012
▁pictures	-10.3014
▁There	-10.3019
▁fahren	-10.3021
▁Straße	-10.3033
▁fire	-10.3033
▁approach	-10.3037
▁Vereinigte	-10.3052
▁300	-10.3057
▁Z	-10.3058
▁likely	-10.306
▁drug	-10.3063
▁reach	-10.3063
▁interessiert	-10.3065
Ihr	-10.3068
by	-10.3073
▁nine	-10.3078
▁device	-10.3088
Einige	-10.3091
▁software	-10.3094
age	-10.3105
▁similar	-10.3106
▁jemanden	-10.3115
▁becomes	-10.3117
▁several	-10.3128
▁La	-10.3134
▁statt	-10.3136
▁Bereich	-10.314
▁Chris	-10.3141
▁laufen	-10.3145
▁hit	-10.315
▁Mitte	-10.3152
▁sonst	-10.3159
▁period	-10.3171
▁tend	-10.3172
▁success	-10.3175
▁absolut	-10.3178
▁action	-10.3189
▁Sonne	-10.3191
▁Haupt	-10.32
▁revolution	-10.3202
▁zeige	-10.3202
ka	-10.3207
▁gegeben	-10.3212
▁ziehen	-10.3214
ci	-10.3221
▁sex	-10.3225
▁Zahlen	-10.3238
▁langsam	-10.3241
▁nennt	-10.3255
▁Nachrichten	-10.3256
▁drugs	-10.327
▁develop	-10.3277
▁richtige	-10.3279
▁junge	-10.3279
▁groups	-10.3285
▁Kosten	-10.3287
▁Tod	-10.3288
Zu	-10.3291
▁spricht	-10.3291
▁ständig	-10.3297
tra	-10.3306
▁herauszufinden	-10.3306
ah	-10.3307
6	-10.3314
▁private	-10.3315
▁Beziehung	-10.3317
lo	-10.3323
▁neues	-10.3328
▁Amerika	-10.333
▁gingen	-10.3331
▁daher	-10.3335
▁gemeinsam	-10.3337
▁Fehler	-10.3337
▁Hoffnung	-10.3341
▁genommen	-10.335
▁towards	-10.3356
▁geschieht	-10.3357
Maybe	-10.3359
▁table	-10.3362
▁stimmt	-10.3374
By	-10.3376
▁tells	-10.338
▁fall	-10.338
▁worth	-10.3386
▁evolution	-10.3389
▁carbon	-10.3394
Wer	-10.3395
▁setzen	-10.3399
▁rein	-10.3407
▁links	-10.341
ies	-10.3425
▁post	-10.3431
▁wall	-10.3434
▁Straßen	-10.3438
▁creative	-10.3441
▁potential	-10.3448
▁brachte	-10.3457
▁24	-10.3461
▁geboren	-10.3461
▁Oberfläche	-10.3463
▁speed	-10.3467
Ist	-10.3467
▁Maschine	-10.3468
▁object	-10.3472
▁Fähigkeiten	-10.3473
▁sit	-10.3492
▁onto	-10.3493
▁lead	-10.3508
▁Gesicht	-10.3517
▁Firma	-10.3528
▁Meter	-10.353
▁wichtiger	-10.3536
▁blind	-10.3537
▁sounds	-10.3538
▁Ergebnis	-10.3539
▁000	-10.354
▁Japan	-10.355
art	-10.355
▁wichtige	-10.3555
bald	-10.356
▁Well	-10.3561
▁Danke	-10.3563
▁21	-10.3565
▁University	-10.3566
▁particularly	-10.3572
▁office	-10.3594
rs	-10.3603
▁Mittel	-10.3604
▁Struktur	-10.3606
▁V	-10.3615
ad	-10.3617
▁scientific	-10.3619
▁wind	-10.3623
fi	-10.3625
▁machten	-10.3635
ige	-10.3644
▁gleichzeitig	-10.3645
▁moved	-10.3647
▁stay	-10.3648
▁quality	-10.3649
▁meaning	-10.3662
▁extrem	-10.3665
▁anybody	-10.3672
▁fundamental	-10.3673
▁Mo	-10.3681
▁sozialen	-10.369
▁materials	-10.3693
▁einzelne	-10.3695
Jeder	-10.3697
▁student	-10.3697
op	-10.3705
▁projects	-10.3718
ri	-10.3739
▁liegen	-10.3761
▁Information	-10.3761
▁happiness	-10.3765
▁wish	-10.3768
▁games	-10.3786
▁follow	-10.381
▁ähnlich	-10.3816
▁Oh	-10.3827
▁showing	-10.3829
▁anstatt	-10.3836
bau	-10.3838
▁results	-10.3839
▁Karte	-10.3857
▁among	-10.3858
▁TV	-10.3859
▁Medizin	-10.387
▁oh	-10.3876
▁schools	-10.3885
▁camera	-10.3887
▁biggest	-10.3887
▁super	-10.3893
v	-10.3901
▁largest	-10.3902
▁screen	-10.3902
wohl	-10.3902
▁nein	-10.3916
▁North	-10.3925
▁vorher	-10.3938
heit	-10.3957
▁bessere	-10.3961
ster	-10.3963
her	-10.3965
ind	-10.3971
Look	-10.3971
▁bestimmt	-10.3973
▁violence	-10.3977
▁walking	-10.3985
men	-10.3987
▁begannen	-10.3988
▁geschrieben	-10.399
ated	-10.3992
▁Innovation	-10.3993
▁compassion	-10.3996
▁zuerst	-10.3998
Während	-10.3998
▁Alter	-10.4003
▁general	-10.4005
ken	-10.4015
▁lieben	-10.4018
▁Experiment	-10.4019
▁teachers	-10.4021
▁exciting	-10.4024
▁obviously	-10.4027
▁pattern	-10.403
ler	-10.4034
▁tragen	-10.4045
nen	-10.4046
▁sprach	-10.4049
▁security	-10.405
▁poverty	-10.4052
▁memory	-10.4052
Of	-10.4054
▁certainly	-10.4058
▁democracy	-10.408
▁Aufmerksamkeit	-10.408
▁gesprochen	-10.4086
▁haven	-10.4091
▁fight	-10.4096
▁strong	-10.4099
▁offensichtlich	-10.41
▁role	-10.4103
▁W	-10.411
▁Schulen	-10.4114
▁dachten	-10.4123
na	-10.4123
▁examples	-10.4124
▁month	-10.4135
▁everywhere	-10.4135
▁Menschheit	-10.4136
▁totally	-10.414
▁Orte	-10.4142
▁Produkt	-10.4143
▁smart	-10.4151
▁notice	-10.4157
▁Ding	-10.4161
▁leaders	-10.4162
▁led	-10.4166
Deshalb	-10.417
ize	-10.418
▁measure	-10.4182
▁großer	-10.4188
▁fliegen	-10.419
▁nobody	-10.4192
▁extremely	-10.4194
▁bewegt	-10.42
▁Evolution	-10.4204
▁Bau	-10.4207
▁response	-10.4216
▁mehrere	-10.4225
▁Pflanzen	-10.4226
▁skin	-10.423
▁Seiten	-10.4234
lt	-10.4242
▁Konzept	-10.4244
▁Entscheidung	-10.4254
go	-10.426
▁Demokratie	-10.4262
▁Kontrolle	-10.4266
▁Gruppen	-10.4268
▁listen	-10.4272
▁mine	-10.4276
▁verlassen	-10.4279
▁continue	-10.4294
ismus	-10.4297
▁pre	-10.43
▁passierte	-10.4303
▁lose	-10.4304
▁further	-10.4304
▁Zugang	-10.4304
ized	-10.4307
▁higher	-10.4323
▁plan	-10.4327
▁dream	-10.4345
▁hour	-10.4355
▁favorite	-10.4359
▁Typ	-10.4363
ian	-10.4375
▁Bücher	-10.4377
▁Uhr	-10.4382
▁verbessern	-10.439
▁Job	-10.439
▁vorbei	-10.4397
Even	-10.4405
▁Regeln	-10.4409
schen	-10.4409
Alle	-10.4415
▁beobachten	-10.442
▁la	-10.443
▁class	-10.4431
▁Diese	-10.4433
▁wachsen	-10.444
▁sahen	-10.4441
▁Künstler	-10.4443
▁jobs	-10.4444
▁list	-10.4451
▁gern	-10.4457
Most	-10.4461
▁expect	-10.4465
hand	-10.4472
▁Einfluss	-10.4476
▁bald	-10.4485
ft	-10.4488
▁safe	-10.4494
▁gearbeitet	-10.4497
time	-10.4502
▁code	-10.4503
▁Warum	-10.4503
Sehen	-10.4522
▁bestimmten	-10.4531
.000	-10.4541
▁protect	-10.4546
▁door	-10.4553
▁cause	-10.4554
▁sitzen	-10.4555
▁including	-10.4563
▁village	-10.4564
▁6	-10.4566
▁ready	-10.4571
▁sleep	-10.4583
▁spread	-10.4584
▁versuchte	-10.4593
▁song	-10.4595
▁Software	-10.4597
▁starts	-10.46
▁medicine	-10.4602
▁objects	-10.4603
▁road	-10.4608
▁international	-10.461
▁aren	-10.4611
▁c	-10.4613
▁St	-10.4617
▁context	-10.4621
▁extraordinary	-10.4622
▁thousand	-10.4627
▁watching	-10.4634
ze	-10.4642
▁Mitgefühl	-10.4645
mp	-10.4646
▁Fisch	-10.4649
▁worse	-10.4651
▁record	-10.4668
▁erlaubt	-10.4673
▁Strom	-10.468
▁massive	-10.468
Alles	-10.4688
▁ansehen	-10.4695
▁etc	-10.4702
▁late	-10.4709
▁Krankheiten	-10.4716
▁gas	-10.4717
▁Grenzen	-10.4726
▁connected	-10.4729
▁♫"	-10.473
After	-10.4731
tro	-10.4736
▁choose	-10.4739
▁eventually	-10.4739
▁Armut	-10.4739
▁Politik	-10.4744
▁named	-10.4746
▁finding	-10.4751
▁trees	-10.4754
▁plant	-10.4757
▁perspective	-10.4769
▁activity	-10.4769
▁bleibt	-10.477
▁Sicht	-10.477
▁doctor	-10.4773
sa	-10.4781
▁Monaten	-10.4781
▁finde	-10.4789
▁De	-10.4796
▁communities	-10.4798
▁source	-10.4799
▁individuals	-10.4801
ine	-10.4802
▁nuclear	-10.4808
▁visual	-10.4813
system	-10.4821
▁near	-10.4825
▁mental	-10.4825
▁Monat	-10.4826
▁crazy	-10.4828
▁grew	-10.4828
▁hospital	-10.4833
▁rich	-10.4833
▁klein	-10.4851
Chris	-10.4856
▁studies	-10.4859
▁bunch	-10.4859
▁teacher	-10.4862
▁goal	-10.4869
▁Versuch	-10.4871
▁recognize	-10.4879
Every	-10.4885
With	-10.4886
▁außer	-10.4888
▁moral	-10.4891
▁See	-10.4891
▁movie	-10.4894
▁Los	-10.4897
per	-10.4902
▁sent	-10.4919
▁essentially	-10.492
▁rise	-10.4927
▁tool	-10.4937
▁faster	-10.4941
First	-10.4948
▁African	-10.4948
▁2000	-10.495
ex	-10.4951
Yes	-10.4953
▁arbeitet	-10.4953
▁bed	-10.4953
zeit	-10.4955
▁hohe	-10.4955
▁position	-10.4957
ally	-10.497
▁Gebiet	-10.4973
▁plants	-10.4975
▁taught	-10.4979
▁truly	-10.4979
▁Stelle	-10.4982
▁Beispiele	-10.4986
ert	-10.4986
▁boy	-10.4986
▁Twitter	-10.4989
▁Sinne	-10.4996
▁wonder	-10.4997
▁content	-10.5009
▁Blut	-10.5015
ty	-10.5023
äu	-10.5025
▁models	-10.503
▁suddenly	-10.5042
▁ex	-10.5047
▁conditions	-10.5057
▁extra	-10.5064
▁draw	-10.5065
▁bilden	-10.5071
▁vergessen	-10.5073
▁denkt	-10.5087
▁wussten	-10.509
ben	-10.5095
▁site	-10.5099
gt	-10.5101
▁voller	-10.5101
▁Orten	-10.5108
▁trust	-10.5117
▁manche	-10.5118
▁Ka	-10.5119
▁Studien	-10.5131
▁Spaß	-10.5132
▁hot	-10.5132
▁England	-10.5139
▁search	-10.5148
▁fertig	-10.5151
▁Iran	-10.5152
▁meant	-10.5155
▁buildings	-10.5158
▁impossible	-10.5163
▁nachzudenken	-10.5163
▁Wirklichkeit	-10.5163
▁verlieren	-10.5164
stand	-10.5175
▁brains	-10.5179
mo	-10.5181
out	-10.5182
▁Schüler	-10.5182
bi	-10.5191
▁college	-10.5194
▁East	-10.5194
▁crisis	-10.52
▁erzeugen	-10.52
▁Ma	-10.5204
,000	-10.5206
▁pain	-10.5215
▁Zeug	-10.5219
▁above	-10.5225
▁unmöglich	-10.5225
▁complicated	-10.5225
▁Ergebnisse	-10.5233
▁price	-10.5234
▁traditional	-10.5254
▁products	-10.5254
▁supposed	-10.5256
▁Vergangenheit	-10.5256
▁zumindest	-10.5256
▁indeed	-10.5256
▁Washington	-10.5264
▁Y	-10.5282
▁shown	-10.5282
▁somewhere	-10.5287
os	-10.5294
▁Ozean	-10.5297
Schauen	-10.53
▁larger	-10.5306
▁pull	-10.5307
ff	-10.5307
▁Wind	-10.5308
▁lower	-10.5309
ging	-10.5311
▁exist	-10.5315
▁retten	-10.5319
ph	-10.5319
▁entscheiden	-10.5324
▁möglichen	-10.5328
▁Programm	-10.5337
▁minute	-10.534
▁arbeitete	-10.5345
▁Nicht	-10.5347
▁killed	-10.5356
▁anschauen	-10.536
▁Morgen	-10.5364
▁fine	-10.5366
▁wait	-10.5367
▁Sohn	-10.5376
▁kill	-10.5379
Today	-10.5383
▁kannst	-10.5389
Hey	-10.5389
▁allowed	-10.539
▁conversation	-10.5393
▁knows	-10.5397
▁forms	-10.5399
▁35	-10.5399
▁urban	-10.5401
▁Tagen	-10.5408
▁progress	-10.5411
▁globalen	-10.5414
▁Nachricht	-10.5416
▁bestimmte	-10.5422
▁näher	-10.5426
no	-10.5442
Those	-10.5447
▁Spezies	-10.545
▁gebracht	-10.5461
▁Why	-10.5466
▁Worte	-10.5472
▁main	-10.5475
▁aussieht	-10.5478
▁Un	-10.5479
▁decision	-10.549
▁Mathematik	-10.5494
▁reading	-10.5503
▁architecture	-10.5509
ki	-10.551
▁increase	-10.5512
▁erklärt	-10.5514
▁9	-10.5514
▁dis	-10.5516
▁training	-10.5518
kommen	-10.553
▁Firmen	-10.553
▁voll	-10.5537
▁bacteria	-10.5538
▁Bakterien	-10.5541
▁alive	-10.5541
▁series	-10.5541
▁dritte	-10.5546
end	-10.5546
▁führte	-10.5549
if	-10.5552
▁Behandlung	-10.5553
▁sell	-10.5554
Lass	-10.5557
Von	-10.5558
Nur	-10.5559
▁treat	-10.5563
▁interest	-10.5568
▁robots	-10.5573
▁wife	-10.5573
▁gewinnen	-10.5573
▁Hände	-10.5577
▁Personen	-10.5579
▁Landes	-10.5588
▁ended	-10.5604
▁8	-10.5605
sp	-10.5609
▁Ebene	-10.5609
9	-10.5614
▁MIT	-10.5637
▁usually	-10.5638
▁hilft	-10.564
da	-10.5644
▁She	-10.5646
▁Gerät	-10.5647
▁produzieren	-10.5648
▁allows	-10.5649
form	-10.5652
▁Denn	-10.5653
▁riesige	-10.5655
▁current	-10.5667
▁bodies	-10.567
▁families	-10.567
▁critical	-10.5672
▁range	-10.5676
▁Theorie	-10.568
▁Kamera	-10.5684
▁performance	-10.5688
▁Druck	-10.5691
▁Park	-10.5692
▁died	-10.5695
▁specific	-10.5698
▁successful	-10.5699
▁trotzdem	-10.5703
▁slow	-10.5706
▁traf	-10.5707
▁healthy	-10.5714
▁Sex	-10.5718
▁ermöglicht	-10.572
▁großes	-10.5722
ag	-10.5723
mi	-10.5724
auf	-10.5725
▁standing	-10.5726
▁peace	-10.5727
ende	-10.573
▁neben	-10.5735
▁excited	-10.5736
▁verbinden	-10.5736
▁Wand	-10.574
▁physics	-10.574
▁erfahren	-10.5742
▁career	-10.5749
▁tree	-10.5752
rzte	-10.5757
▁path	-10.5762
▁mobile	-10.5765
▁kaum	-10.5768
▁medizinische	-10.5769
ierung	-10.5775
▁region	-10.5781
▁consider	-10.5784
▁treatment	-10.5785
▁Sekunden	-10.5787
▁older	-10.5787
Auch	-10.5792
▁electricity	-10.5801
▁Gene	-10.5805
▁Dorf	-10.5806
▁400	-10.5815
▁Na	-10.5822
▁alte	-10.5827
Which	-10.5834
▁befinden	-10.5838
▁patterns	-10.5839
V	-10.5854
▁web	-10.5855
ating	-10.5864
▁legal	-10.5868
▁wants	-10.5869
▁untersuchen	-10.587
▁versuche	-10.5872
▁floor	-10.5875
▁ihres	-10.5886
▁Richard	-10.5887
ever	-10.5895
▁heutzutage	-10.59
▁solchen	-10.5901
▁sorts	-10.5903
▁Englisch	-10.5905
▁Chance	-10.5906
▁Objekt	-10.5908
▁square	-10.591
▁spielt	-10.5911
▁Ressourcen	-10.5913
Where	-10.5927
▁race	-10.5933
▁somehow	-10.5935
▁Universität	-10.5939
ug	-10.5939
▁interessante	-10.5941
▁cases	-10.5955
Eines	-10.5962
▁biology	-10.5967
▁Anderson	-10.5967
▁travel	-10.597
▁page	-10.5972
▁geschehen	-10.5975
wie	-10.5975
▁Baby	-10.5984
▁doctors	-10.5996
▁serious	-10.5996
▁neurons	-10.6
▁entdecken	-10.6
▁himself	-10.6001
▁upon	-10.6001
▁cold	-10.6001
▁einzelnen	-10.6004
▁großartige	-10.6006
▁sodass	-10.6013
▁service	-10.6014
▁emotional	-10.602
▁Yeah	-10.6028
▁150	-10.6033
▁police	-10.6034
▁written	-10.6034
▁ehrlich	-10.6034
▁zeigte	-10.6036
Aus	-10.6036
▁Kampf	-10.6037
▁anywhere	-10.6037
▁Bewusstsein	-10.6063
▁wild	-10.6066
rin	-10.6067
▁yeah	-10.6068
▁kept	-10.6068
▁dangerous	-10.6068
▁organization	-10.6068
▁nenne	-10.6074
▁waste	-10.6077
▁Freiheit	-10.6079
Denken	-10.6102
▁math	-10.6111
▁train	-10.6117
▁Gen	-10.6118
▁gekommen	-10.6119
▁Wachstum	-10.6126
do	-10.6133
▁version	-10.6134
▁military	-10.6136
▁freedom	-10.6136
▁pieces	-10.6137
▁Fotos	-10.6137
▁irgendwo	-10.6138
▁runter	-10.6138
kon	-10.6144
▁aufgrund	-10.6146
▁town	-10.6148
▁points	-10.6148
▁School	-10.6156
▁smaller	-10.6156
▁neun	-10.6159
▁decide	-10.616
▁gefragt	-10.6178
▁Arm	-10.6181
▁Recht	-10.6187
▁son	-10.6197
▁lines	-10.6198
ak	-10.6201
▁AIDS	-10.6202
▁Designer	-10.6204
▁Ordnung	-10.6204
▁Arzt	-10.6206
▁Auswirkungen	-10.6212
▁Formen	-10.6217
▁folgen	-10.6217
▁gestellt	-10.6219
▁Architektur	-10.622
▁Bürger	-10.6222
▁Kollegen	-10.6224
▁decisions	-10.6225
▁address	-10.6232
▁Times	-10.6239
▁Museum	-10.6241
▁lebt	-10.6245
sche	-10.6263
▁please	-10.6263
▁Bühne	-10.6267
▁stars	-10.6274
▁becoming	-10.6275
▁Netzwerk	-10.6279
▁connect	-10.6279
▁humanity	-10.6279
▁Linie	-10.628
▁Israel	-10.6286
ru	-10.6286
▁skills	-10.6288
▁sat	-10.6293
▁rund	-10.6299
▁touch	-10.6306
▁sub	-10.6307
▁listening	-10.6319
▁globale	-10.6319
om	-10.6323
▁subject	-10.6331
so	-10.6332
▁Amerikaner	-10.6336
▁hab	-10.6336
▁Nein	-10.6338
▁Regierungen	-10.6339
▁actual	-10.6339
▁wann	-10.6347
▁Bill	-10.6348
Yeah	-10.6349
ted	-10.6352
▁jungen	-10.6355
▁Plan	-10.6357
▁concept	-10.6364
ring	-10.6369
▁Organisation	-10.637
▁anymore	-10.6377
▁dadurch	-10.6378
▁zero	-10.6378
▁sammeln	-10.6393
▁toll	-10.64
fe	-10.6401
▁betrachtet	-10.6403
▁expensive	-10.6412
▁herausfinden	-10.6413
är	-10.6415
mm	-10.6423
▁Himmel	-10.6437
▁hörte	-10.6444
▁leisten	-10.6447
liche	-10.6449
des	-10.6457
▁legs	-10.6457
▁handelt	-10.6465
▁policy	-10.6482
▁beauty	-10.6483
▁instance	-10.6483
▁schützen	-10.6483
▁öffentlichen	-10.6484
▁Beziehungen	-10.6486
zen	-10.6492
▁strange	-10.6507
▁Flugzeug	-10.6507
Who	-10.6511
▁weight	-10.6515
▁entdeckt	-10.6518
Imagine	-10.6518
▁Wesen	-10.652
▁eben	-10.6523
▁verstanden	-10.6529
▁Pro	-10.6545
▁Methode	-10.6547
▁Go	-10.6547
▁machines	-10.6551
Another	-10.6554
▁danke	-10.6556
▁Gründe	-10.6567
▁läuft	-10.657
▁explore	-10.6571
▁N	-10.6577
▁loved	-10.6581
▁final	-10.6586
▁genes	-10.6588
▁Bezug	-10.6589
▁normalerweise	-10.6589
▁trade	-10.659
▁erzählte	-10.6598
ard	-10.6603
▁win	-10.6605
▁Prinzip	-10.6606
du	-10.6608
▁Geist	-10.6611
▁zweiten	-10.6615
▁einander	-10.6618
▁Bank	-10.6623
▁earlier	-10.6625
▁familiar	-10.6625
▁fantastic	-10.6625
▁intelligence	-10.6625
▁pressure	-10.6625
▁My	-10.6629
▁Artikel	-10.6632
▁mom	-10.6633
▁Wege	-10.6644
▁entschieden	-10.6646
▁forest	-10.6651
▁greater	-10.6653
▁fit	-10.6654
▁production	-10.6662
▁solutions	-10.6666
▁seconds	-10.6678
▁practice	-10.668
▁flow	-10.6681
▁store	-10.6681
▁funny	-10.6696
▁throughout	-10.67
▁Meer	-10.67
▁clearly	-10.6702
▁diejenigen	-10.6703
▁September	-10.6704
▁income	-10.6707
▁früher	-10.6713
▁Projekte	-10.6717
▁arbeite	-10.6718
▁Million	-10.6721
▁nahe	-10.6723
▁shot	-10.6729
▁fing	-10.6732
▁Nahrung	-10.6735
▁Reaktion	-10.674
▁Systeme	-10.6743
▁teaching	-10.6746
▁tief	-10.6753
▁k	-10.6763
▁famous	-10.6765
▁Tür	-10.6767
▁sky	-10.6768
Don	-10.6768
▁außerhalb	-10.6769
cy	-10.6771
Daher	-10.6787
▁Netz	-10.6799
▁decade	-10.68
▁dog	-10.6801
▁geschaffen	-10.6805
▁ebenso	-10.6806
U	-10.6812
▁Krankenhaus	-10.682
▁erfolgreich	-10.6823
▁Beginn	-10.6826
▁lag	-10.6829
▁website	-10.6836
▁befindet	-10.6844
▁fallen	-10.6848
lin	-10.6852
▁clean	-10.6854
▁Büro	-10.6856
▁beings	-10.6871
▁except	-10.6877
▁willing	-10.688
▁greatest	-10.6882
▁board	-10.6883
▁Interesse	-10.6887
▁übrigens	-10.6889
Right	-10.6901
▁warten	-10.6902
ary	-10.6909
Re	-10.6914
▁hält	-10.6916
▁rechts	-10.6916
io	-10.6918
▁Auge	-10.6925
▁7	-10.6935
▁artist	-10.6937
ga	-10.6941
Menschen	-10.6943
▁Gehirns	-10.6944
ip	-10.6946
▁hell	-10.6947
▁Unter	-10.6951
▁therefore	-10.6952
▁extreme	-10.6958
▁Harvard	-10.696
hi	-10.6962
▁waiting	-10.6962
▁meeting	-10.6962
▁feed	-10.6963
▁Tisch	-10.6968
line	-10.6968
▁Risiko	-10.6976
▁dein	-10.6982
▁Hier	-10.6983
▁unique	-10.6986
▁erzeugt	-10.6989
▁effective	-10.6991
▁Telefon	-10.7007
schaft	-10.701
Können	-10.7014
▁messen	-10.7016
va	-10.7018
▁fuel	-10.7037
▁Ent	-10.7039
▁Herzen	-10.704
▁driving	-10.7049
▁negative	-10.7049
▁conflict	-10.7051
like	-10.7052
▁Jungen	-10.7055
▁Maschinen	-10.7059
ish	-10.706
▁connection	-10.7062
▁Verständnis	-10.7063
▁einzigen	-10.7067
▁welcher	-10.707
▁Punkte	-10.7074
▁costs	-10.7075
▁direction	-10.7079
ful	-10.708
▁Pa	-10.7081
▁45	-10.7083
zi	-10.7091
▁Farbe	-10.7091
▁improve	-10.7099
▁Kern	-10.7099
▁ha	-10.71
▁geschah	-10.7101
▁decades	-10.7107
▁Liste	-10.7113
▁Right	-10.7116
▁Vielen	-10.7128
▁Erfahrungen	-10.7128
Unser	-10.7131
▁amerikanischen	-10.7137
▁remarkable	-10.7139
▁forth	-10.7145
▁taten	-10.7147
▁Zeitpunkt	-10.715
tion	-10.7151
▁walked	-10.7153
▁sign	-10.7159
▁dance	-10.7171
▁Feuer	-10.7173
ierte	-10.7175
▁environmental	-10.7175
▁talks	-10.7178
▁herstellen	-10.7179
▁levels	-10.7179
Z	-10.7188
plan	-10.7192
Ihre	-10.7197
▁values	-10.7198
▁Name	-10.7209
▁Haut	-10.7211
▁babies	-10.7214
▁entweder	-10.7214
durchschnittlich	-10.7215
▁Freude	-10.7218
▁Americans	-10.7222
▁Abend	-10.7223
▁heutigen	-10.7225
▁genetic	-10.7242
▁survive	-10.7242
▁secret	-10.7247
▁quick	-10.7249
▁plastic	-10.725
▁George	-10.7253
▁invented	-10.7255
▁politics	-10.7255
▁star	-10.7255
▁erwarten	-10.7256
▁selben	-10.7273
▁minds	-10.7273
▁großartig	-10.7275
▁magic	-10.7287
das	-10.7291
tor	-10.7296
▁offen	-10.7296
▁Leidenschaft	-10.7296
▁erleben	-10.7299
▁institutions	-10.7303
▁Nigeria	-10.7306
▁El	-10.7307
rt	-10.7309
▁Westen	-10.731
▁rule	-10.7311
▁Lösungen	-10.7313
izing	-10.7324
▁foot	-10.7325
▁As	-10.7327
▁ahead	-10.7328
▁getroffen	-10.7329
▁Ton	-10.733
▁Verantwortung	-10.7331
▁Neuro	-10.7332
▁wenige	-10.7337
▁Test	-10.734
▁check	-10.7341
▁km	-10.7345
▁push	-10.7352
▁dar	-10.7354
▁original	-10.7365
▁sand	-10.7367
▁aid	-10.7367
▁immediately	-10.7368
Ver	-10.7375
▁Ko	-10.7389
▁unterstützen	-10.7395
▁fühlte	-10.7395
▁Fuß	-10.7405
▁dasselbe	-10.7406
▁Traum	-10.7407
▁Bo	-10.7408
▁Stunde	-10.7417
▁Paul	-10.7433
▁jene	-10.7439
▁schlechte	-10.744
▁f	-10.7442
▁helped	-10.7444
▁produziert	-10.7444
▁join	-10.7449
wir	-10.7454
▁Schlüssel	-10.7457
▁services	-10.7461
▁unglaubliche	-10.7463
▁choices	-10.7478
▁Werte	-10.7479
▁obvious	-10.748
▁popular	-10.7483
ba	-10.7487
▁höher	-10.7501
▁rock	-10.7501
▁types	-10.7503
▁whose	-10.7505
lichen	-10.7511
▁hair	-10.7514
▁various	-10.7522
▁Francisco	-10.7522
▁Lernen	-10.7524
kt	-10.7525
▁Medikamente	-10.7527
▁Chicago	-10.7527
▁tolle	-10.7532
▁function	-10.7532
▁ran	-10.7535
▁following	-10.7535
▁fix	-10.7535
▁engineering	-10.7538
▁heat	-10.7539
▁flying	-10.754
▁politische	-10.7541
pf	-10.7542
▁existiert	-10.7551
▁California	-10.7567
▁guter	-10.7567
▁Mond	-10.7569
one	-10.7583
Na	-10.7589
▁useful	-10.7592
▁shared	-10.7592
▁Geschäft	-10.76
▁beeinflusst	-10.7601
▁communicate	-10.7601
▁apply	-10.7603
▁governments	-10.7604
▁challenges	-10.7606
▁Veränderungen	-10.7611
ni	-10.7611
▁Schönheit	-10.7614
▁Grad	-10.7619
▁Einstein	-10.7623
▁passion	-10.7628
mon	-10.7633
▁2008	-10.7633
▁financial	-10.7637
▁recent	-10.7638
▁James	-10.7638
▁societies	-10.7641
▁Schul	-10.7641
▁summer	-10.7644
▁öffentliche	-10.7646
ure	-10.7646
que	-10.7654
▁Li	-10.7655
▁Dies	-10.7655
▁Jahrhunderts	-10.7658
▁effects	-10.7668
igkeit	-10.7677
▁keiner	-10.7677
▁einfachen	-10.7677
▁Nähe	-10.768
▁Gesetz	-10.7681
▁Suche	-10.7683
gel	-10.7686
ap	-10.7688
▁Do	-10.769
▁Wo	-10.7691
▁capital	-10.7702
▁Bei	-10.7703
▁attack	-10.771
▁verrückt	-10.7714
▁uses	-10.7714
▁raise	-10.7714
▁photo	-10.7715
▁Fortschritt	-10.7715
▁komme	-10.7718
▁Nach	-10.7719
▁erinnere	-10.772
▁Opfer	-10.772
of	-10.7722
▁Um	-10.7723
▁term	-10.7738
▁purpose	-10.7741
▁Wörter	-10.7742
▁hundert	-10.7744
▁fällt	-10.7747
▁slide	-10.775
ow	-10.7753
▁citizens	-10.7755
▁enormous	-10.7757
▁behandeln	-10.776
▁anyway	-10.7763
arbeit	-10.777
wissenschaftlich	-10.7773
tz	-10.778
▁Worten	-10.7793
▁bar	-10.7799
▁creativity	-10.78
▁terrible	-10.78
▁worst	-10.78
▁weren	-10.7811
▁Gesundheits	-10.7813
Einer	-10.7815
bild	-10.7824
▁Produkte	-10.7827
▁bisher	-10.7833
▁press	-10.7835
▁standard	-10.7836
▁although	-10.7841
▁television	-10.7841
▁conference	-10.7841
▁Denken	-10.7849
▁Bio	-10.7868
▁schicken	-10.7869
▁reduce	-10.7871
▁genutzt	-10.7881
▁ebenfalls	-10.7881
▁verkaufen	-10.7881
▁below	-10.7886
▁possibly	-10.7886
▁religion	-10.7887
▁Polizei	-10.7891
▁gutes	-10.7893
▁Leistung	-10.7902
▁Religion	-10.7914
▁event	-10.7918
innen	-10.792
Is	-10.7922
▁erfunden	-10.7922
▁behandelt	-10.7922
▁Sommer	-10.7922
▁wählen	-10.7925
Manche	-10.7933
▁complete	-10.795
▁Teilen	-10.7962
▁gedacht	-10.7962
▁Ahnung	-10.7963
▁atmosphere	-10.7967
ator	-10.7968
▁female	-10.797
▁Gefängnis	-10.797
ot	-10.7973
▁nahmen	-10.7973
▁Tieren	-10.7977
Genau	-10.7977
▁Bienen	-10.7981
▁größere	-10.7987
▁Als	-10.7988
▁virus	-10.7989
ca	-10.8
▁Karriere	-10.8003
▁infrastructure	-10.8003
▁Fenster	-10.8003
▁Drogen	-10.8005
▁jemandem	-10.8008
▁track	-10.8009
▁Le	-10.8026
▁male	-10.8028
▁echte	-10.8036
▁supply	-10.8045
▁Zustand	-10.8045
▁apart	-10.8045
▁Städten	-10.8053
▁Eigenschaften	-10.8056
▁Weil	-10.8056
▁aware	-10.8061
▁Nummer	-10.8069
les	-10.807
▁respect	-10.8071
▁Co	-10.8072
▁radio	-10.8087
▁Western	-10.8088
gehen	-10.8089
▁Zeiten	-10.8093
Are	-10.8093
▁Partner	-10.8099
▁cultural	-10.8104
▁rights	-10.8113
▁diseases	-10.8113
▁prison	-10.8115
▁trouble	-10.8118
▁slightly	-10.8128
▁konzentrieren	-10.8129
▁bio	-10.8139
▁flu	-10.8145
▁predict	-10.8152
▁nation	-10.8156
▁fair	-10.8159
war	-10.8165
Many	-10.8165
▁Verfügung	-10.8169
▁straight	-10.8169
Sch	-10.817
▁directly	-10.8171
▁Osten	-10.8179
Erstens	-10.8188
▁Antworten	-10.82
desto	-10.8202
Lasse	-10.8204
ja	-10.821
▁understood	-10.8211
▁colleagues	-10.8211
▁affect	-10.8214
▁verbringen	-10.8216
Y	-10.8216
▁YouTube	-10.8219
▁ließ	-10.8221
▁Männern	-10.8224
▁pass	-10.8225
▁NASA	-10.8227
▁Mr	-10.8245
▁frühen	-10.8246
▁hervor	-10.8256
▁capacity	-10.8263
▁Ho	-10.828
än	-10.8283
▁lernte	-10.8285
ku	-10.829
▁birth	-10.8295
▁Materialien	-10.8296
▁kontrollieren	-10.8296
▁hole	-10.8299
pt	-10.8299
▁Am	-10.83
▁email	-10.8307
ualität	-10.8311
▁Regel	-10.8315
▁Now	-10.8317
▁zer	-10.8319
▁paid	-10.8322
▁agree	-10.8326
▁Freunden	-10.8334
▁iPhone	-10.8338
▁Biologie	-10.8338
▁öffnen	-10.834
rum	-10.8346
▁temperature	-10.8349
▁relationships	-10.835
Seit	-10.8359
▁boys	-10.8371
▁eigenes	-10.8374
▁surprising	-10.8377
▁trifft	-10.838
▁ermöglichen	-10.838
▁überzeugt	-10.838
▁Wandel	-10.8381
▁angefangen	-10.8383
▁Kreativität	-10.8388
▁Vertrauen	-10.8389
▁Spitze	-10.8395
▁Center	-10.8417
▁forces	-10.8417
▁gehe	-10.842
▁Geschwindigkeit	-10.8423
▁sustainable	-10.8423
▁Darwin	-10.8424
▁programs	-10.8429
▁laws	-10.8434
▁mostly	-10.8437
▁Region	-10.8437
▁hart	-10.8445
▁stress	-10.8451
welt	-10.8452
▁interact	-10.8456
Jedes	-10.846
▁75	-10.8464
▁causes	-10.8464
▁published	-10.8468
▁fossil	-10.8469
▁afford	-10.8475
▁überleben	-10.8475
▁Street	-10.8475
▁One	-10.8479
▁Gelegenheit	-10.848
▁speaking	-10.8486
▁Gesetze	-10.8491
▁ball	-10.8494
▁bestehen	-10.8501
▁Wahrscheinlich	-10.8509
Instead	-10.8509
▁Islam	-10.851
▁b	-10.8511
..."	-10.8512
▁forget	-10.8516
▁fangen	-10.8517
erweise	-10.8518
▁noticed	-10.8524
▁ändert	-10.8527
▁workers	-10.8532
▁ideal	-10.8543
▁Physik	-10.8545
▁Vergleich	-10.8545
▁character	-10.856
▁Fluss	-10.8562
▁answers	-10.8564
▁Berg	-10.8564
▁task	-10.8567
▁helping	-10.8571
▁J	-10.8573
che	-10.8575
▁mountain	-10.858
▁Wald	-10.8585
▁Charles	-10.8588
teil	-10.8589
▁sp	-10.8591
▁campaign	-10.8596
▁reagieren	-10.8596
▁Kommunikation	-10.8596
▁surgery	-10.8596
Nehmen	-10.8598
▁hört	-10.8605
rie	-10.8605
▁spreche	-10.8606
▁evolved	-10.8609
▁Verbindungen	-10.8612
▁closer	-10.8619
▁photograph	-10.8619
▁Flug	-10.8624
▁respond	-10.8624
▁gegangen	-10.8626
▁gewisse	-10.8627
▁scientist	-10.8628
▁Pakistan	-10.8632
▁Unterschiede	-10.8633
▁2010	-10.8634
spiel	-10.8634
▁halbe	-10.8638
▁Tochter	-10.8639
▁kämpfen	-10.8639
▁vast	-10.8639
▁herzustellen	-10.864
▁meters	-10.8642
log	-10.8647
▁Klima	-10.8654
leben	-10.8656
bu	-10.8659
▁Ansatz	-10.8662
▁quote	-10.8664
▁früh	-10.8667
▁Werkzeuge	-10.8673
Like	-10.8673
▁Dann	-10.8674
▁biological	-10.868
▁Vielfalt	-10.8683
▁geschafft	-10.8683
▁imagination	-10.8683
▁oxygen	-10.8683
▁begonnen	-10.8683
▁lack	-10.8684
aber	-10.8685
▁Indian	-10.8691
Dort	-10.8706
▁experiments	-10.8707
▁If	-10.8709
▁discover	-10.8709
ub	-10.871
▁amerikanische	-10.8718
▁größeren	-10.872
oc	-10.8723
▁twice	-10.8727
▁dying	-10.8727
▁riesigen	-10.8727
vor	-10.8728
▁High	-10.8736
▁Michael	-10.8741
▁organizations	-10.8745
▁chemical	-10.8751
▁verursacht	-10.8753
▁endlich	-10.8756
▁played	-10.8761
▁echt	-10.8763
▁carry	-10.8765
▁politischen	-10.8769
▁Farben	-10.877
▁central	-10.8771
▁Ausdruck	-10.8772
ität	-10.8786
▁Infrastruktur	-10.8787
▁alternative	-10.8789
▁highly	-10.8793
▁einfacher	-10.8796
▁wichtigsten	-10.88
▁Rede	-10.8805
▁states	-10.8806
cht	-10.8807
▁Sauerstoff	-10.8816
▁beeinflussen	-10.8816
▁veröffentlicht	-10.8818
▁networks	-10.882
▁missing	-10.8822
▁aufgenommen	-10.8824
▁Zelle	-10.8826
Over	-10.8828
▁park	-10.8831
▁relevant	-10.8831
▁condition	-10.884
▁Wunder	-10.8849
▁differences	-10.8854
▁corner	-10.8857
▁seines	-10.8858
▁catch	-10.8859
▁afraid	-10.8861
▁giant	-10.8861
▁Ausbildung	-10.8861
▁stopped	-10.8861
bel	-10.8876
wa	-10.8878
▁broken	-10.8878
▁drop	-10.8879
▁mission	-10.888
▁gebe	-10.8886
▁achieve	-10.8893
▁2007	-10.8896
▁speech	-10.89
▁Jobs	-10.8906
▁Angeles	-10.8907
▁stick	-10.8913
▁daughter	-10.8925
▁communication	-10.8925
▁irgendeine	-10.8931
ists	-10.8933
▁Junge	-10.8933
ssystem	-10.8939
▁Finger	-10.8939
▁worry	-10.8943
unterschiedliche	-10.8943
▁brauchte	-10.8945
▁glass	-10.8946
▁fühlt	-10.8947
▁brilliant	-10.8947
▁engage	-10.8953
▁Industrie	-10.8962
▁brand	-10.8963
▁College	-10.8965
▁produced	-10.8969
▁active	-10.8974
▁Let	-10.8982
▁basis	-10.8989
▁fragt	-10.8992
▁handeln	-10.8997
▁markets	-10.8999
▁inspired	-10.9
▁differently	-10.9003
▁throw	-10.9004
▁Klimawandel	-10.9017
▁text	-10.9017
enden	-10.9024
▁gotten	-10.9026
▁Gefühle	-10.9035
▁bought	-10.9041
▁responsibility	-10.9041
▁absolute	-10.9051
dimensional	-10.9056
▁Konferenz	-10.9056
\"-	-10.9058
▁streets	-10.9058
▁Wunsch	-10.9069
▁definition	-10.907
▁deutlich	-10.9072
▁separate	-10.9077
based	-10.908
▁hielt	-10.9086
▁diversity	-10.9087
Manchmal	-10.9087
▁sogenannte	-10.9088
▁nearly	-10.9092
▁Boston	-10.9099
lichkeit	-10.9099
▁Arbeits	-10.9103
▁window	-10.9103
▁notion	-10.9103
ari	-10.9111
led	-10.9115
▁Klasse	-10.9116
▁Botschaft	-10.913
▁easily	-10.9133
▁consciousness	-10.9133
▁dorthin	-10.9134
▁weiterhin	-10.9136
▁Materie	-10.9139
▁intelligent	-10.914
▁Großbritannien	-10.914
▁designers	-10.9146
▁Version	-10.9147
▁seemed	-10.9149
▁na	-10.916
▁entstehen	-10.916
▁sick	-10.9161
ale	-10.9166
▁Mikro	-10.9167
▁fühle	-10.9179
▁Intelligenz	-10.9179
▁ancient	-10.9179
▁entlang	-10.9179
▁weird	-10.9179
▁argument	-10.9181
Damit	-10.9183
pro	-10.9189
▁kostet	-10.9197
ray	-10.9201
▁Online	-10.9207
▁studying	-10.9213
▁Bäume	-10.9213
St	-10.9216
▁Gemeinde	-10.9216
▁molecules	-10.9218
▁shift	-10.922
▁trotz	-10.9225
▁earth	-10.9226
▁complexity	-10.9227
▁Robert	-10.9229
▁To	-10.923
▁experiences	-10.9233
▁depend	-10.9238
▁Norden	-10.9241
▁kenne	-10.9242
▁Kilometer	-10.9243
▁Baum	-10.9246
▁10,000	-10.9246
bo	-10.925
▁seien	-10.9253
▁verbreitet	-10.9254
äh	-10.9259
org	-10.9259
▁significant	-10.9268
▁Lieblings	-10.9268
▁clever	-10.9272
▁erlauben	-10.9272
▁gilt	-10.9272
▁Atmosphäre	-10.9272
▁Einsatz	-10.9272
▁praktisch	-10.9283
▁creatures	-10.9285
ud	-10.9293
eren	-10.9294
▁eating	-10.9295
▁genome	-10.9296
ue	-10.931
▁anti	-10.9315
▁schaut	-10.9317
▁Gewicht	-10.9318
▁Paris	-10.9319
▁degrees	-10.932
▁elektrische	-10.9322
▁Neuronen	-10.9323
▁Identität	-10.9325
▁22	-10.9328
▁Gesellschaften	-10.9331
▁Waffen	-10.9337
▁cover	-10.9339
▁erstaunlich	-10.934
▁con	-10.934
▁Vision	-10.9348
▁bat	-10.935
ical	-10.9352
▁planets	-10.9359
▁Bildschirm	-10.9365
▁Loch	-10.9366
▁erforschen	-10.937
tel	-10.937
▁birds	-10.9372
▁creates	-10.9374
▁erstellen	-10.9374
Two	-10.9375
ob	-10.9375
▁core	-10.9376
▁23	-10.9381
▁bloß	-10.9386
▁Kontakt	-10.9386
tag	-10.9388
▁hearing	-10.9399
sh	-10.9407
▁multi	-10.9409
▁stellten	-10.9412
Again	-10.9412
▁GPS	-10.9413
▁dagegen	-10.9414
▁balance	-10.9421
From	-10.9422
▁boat	-10.943
▁calls	-10.943
▁landscape	-10.9439
▁dad	-10.9442
▁sowie	-10.9444
Actually	-10.946
▁Unterstützung	-10.946
▁Komplexität	-10.946
▁entsteht	-10.946
▁cross	-10.9467
▁Insekten	-10.9469
▁enjoy	-10.9471
Think	-10.9471
▁Dan	-10.9473
▁Wikipedia	-10.9475
▁Zu	-10.9476
▁Ben	-10.9478
▁Position	-10.9479
▁nehme	-10.948
Haben	-10.9483
▁spending	-10.9486
▁Zeichen	-10.9507
▁identity	-10.9507
▁background	-10.9508
▁durchgeführt	-10.9509
▁micro	-10.951
▁wohin	-10.951
▁Feld	-10.9512
▁Kunden	-10.9512
▁Universums	-10.9514
▁alleine	-10.9517
Zwei	-10.9523
▁signal	-10.9523
▁entschied	-10.9527
industrie	-10.9531
▁langen	-10.9531
▁Objekte	-10.9532
▁influence	-10.9533
fall	-10.9535
▁Zentrum	-10.9543
▁erinnert	-10.9547
▁Schutz	-10.9552
▁Zusammenhang	-10.9555
▁Zusammenarbeit	-10.9556
▁Steve	-10.956
▁transform	-10.9568
▁fort	-10.9571
▁represent	-10.9575
▁Institute	-10.958
tic	-10.9582
▁knowing	-10.9582
term	-10.9587
ium	-10.9593
▁stem	-10.9595
▁none	-10.9598
setzen	-10.9602
▁fascinating	-10.9603
▁benötigen	-10.9606
▁Soldaten	-10.9609
▁verkauft	-10.961
richtigen	-10.9611
▁beschäftigt	-10.9619
▁Ziele	-10.9621
▁zufällig	-10.9624
▁European	-10.9627
▁commercial	-10.9634
▁visit	-10.9637
▁manage	-10.9639
▁Bett	-10.964
▁Virus	-10.9642
▁Big	-10.9644
▁tremendous	-10.9648
Your	-10.9663
▁steckt	-10.9679
▁Ra	-10.9681
▁trial	-10.9683
▁surprise	-10.9691
weise	-10.9695
▁sharing	-10.9696
▁Titel	-10.9699
ina	-10.9699
▁coffee	-10.97
▁opportunities	-10.97
▁Holz	-10.97
▁1,000	-10.9701
▁investieren	-10.9702
off	-10.9713
▁focused	-10.9714
▁Handy	-10.9717
ance	-10.9725
▁deliver	-10.9731
▁abge	-10.9738
▁Gold	-10.9738
▁labor	-10.974
▁count	-10.9747
▁neuer	-10.9748
▁schafft	-10.9749
▁Typen	-10.9749
▁davor	-10.9753
▁Bedingungen	-10.9754
tes	-10.9755
▁feels	-10.9759
▁Not	-10.9762
▁Middle	-10.9769
▁saß	-10.977
▁Sekunde	-10.977
▁devices	-10.9777
▁Sand	-10.978
▁gaben	-10.979
▁begeistert	-10.9798
▁betrifft	-10.9798
▁kommunizieren	-10.9798
▁Po	-10.9803
▁Basis	-10.9809
BG	-10.9809
▁Werkzeug	-10.9815
▁shares	-10.9816
▁Life	-10.9819
▁Can	-10.982
▁forever	-10.9828
▁failure	-10.983
▁Stein	-10.9839
▁wert	-10.9844
50	-10.9845
▁fully	-10.9847
eln	-10.985
▁noise	-10.985
▁tausende	-10.9853
▁Thomas	-10.9862
punkt	-10.9864
uch	-10.987
▁Ba	-10.9873
▁members	-10.9878
▁Jahres	-10.9885
▁museum	-10.9886
▁turning	-10.9887
0	-10.9888
ped	-10.9889
ack	-10.9889
▁random	-10.9893
▁husband	-10.9897
▁phenomenon	-10.9897
▁dreht	-10.9898
ps	-10.9899
▁gewonnen	-10.9906
▁chinesische	-10.9908
▁Asia	-10.9919
Ma	-10.9919
▁rational	-10.9921
sie	-10.993
▁entwickelten	-10.9937
▁prevent	-10.9938
raum	-10.9938
▁Präsident	-10.9939
▁pop	-10.9941
▁ernst	-10.9944
▁Knochen	-10.9946
▁bees	-10.9948
▁legen	-10.9948
▁passed	-10.9954
▁Spiele	-10.9954
▁klingt	-10.9958
▁umgehen	-10.9963
hilfe	-10.9975
▁Phänomen	-10.9975
▁Frieden	-10.9976
▁dahin	-10.9979
▁effort	-10.9981
hu	-10.9988
▁modernen	-10.9994
▁Great	-10.9994
▁benefit	-10.9995
▁competition	-10.9996
▁opposite	-10.9997
▁unbedingt	-10.9997
▁Band	-10.9998
▁lautet	-11
▁Science	-11
▁fairly	-11
▁artists	-11.0003
▁beschreiben	-11.0003
ide	-11.0005
▁Fernsehen	-11.0012
ng	-11.0022
▁geführt	-11.0028
▁Bar	-11.0036
bringing	-11.0037
▁vollständig	-11.0042
▁possibility	-11.0047
▁gestalten	-11.0047
Ge	-11.0051
▁leider	-11.0055
▁religious	-11.0057
▁Aufgaben	-11.0058
▁stolz	-11.0059
▁1990	-11.0062
isten	-11.0067
▁Code	-11.0067
▁Erinnerung	-11.0069
!\"	-11.007
▁Im	-11.0071
▁Zwei	-11.0077
▁habt	-11.0087
▁loss	-11.0095
nce	-11.0096
▁Hintergrund	-11.0097
▁leadership	-11.0097
▁brings	-11.0106
▁schöne	-11.0106
berg	-11.0108
▁laut	-11.0109
▁weiss	-11.0115
▁Höhe	-11.0118
▁At	-11.0119
▁Lebensmittel	-11.0121
mit	-11.0126
con	-11.0127
▁herunter	-11.013
▁bitten	-11.0133
▁King	-11.0135
▁farmers	-11.0143
▁virtual	-11.0145
▁buchstäblich	-11.0148
▁breast	-11.0148
▁coast	-11.0148
▁lucky	-11.0149
ping	-11.0158
▁sold	-11.0159
▁täglich	-11.0169
len	-11.0169
▁Me	-11.0169
▁außergewöhnlich	-11.0174
▁Sport	-11.0182
▁Glas	-11.0185
▁party	-11.0189
isieren	-11.019
▁painting	-11.0195
▁advantage	-11.0199
▁1960	-11.0199
▁moon	-11.0201
▁selber	-11.0202
▁Forscher	-11.0206
▁Affen	-11.0207
▁foreign	-11.0209
▁benefits	-11.0214
haus	-11.0214
arten	-11.0219
ization	-11.022
band	-11.022
ziehen	-11.0223
▁mouth	-11.0227
▁letztes	-11.0227
▁describe	-11.0228
▁warm	-11.0233
▁Boot	-11.0233
▁roll	-11.0243
lei	-11.0246
▁Gewebe	-11.025
▁vermutlich	-11.025
▁Valley	-11.025
▁despite	-11.025
▁herausgefunden	-11.025
▁Masse	-11.0251
▁Drittel	-11.0251
▁suffering	-11.0256
▁held	-11.0256
▁Spielen	-11.0257
▁industrial	-11.0259
▁verdienen	-11.0264
▁Geräte	-11.0268
bringen	-11.0269
▁gefährlich	-11.027
▁Fällen	-11.0271
\""	-11.0273
▁report	-11.0273
ib	-11.0273
uelle	-11.0274
▁benötigt	-11.0276
▁era	-11.0282
▁date	-11.0291
▁double	-11.0292
▁Organisationen	-11.0292
Zweitens	-11.0294
▁natürliche	-11.0295
▁glaubt	-11.0297
▁events	-11.0299
▁99	-11.0299
▁weiteres	-11.03
▁Higgs	-11.0302
▁Kontext	-11.0302
▁Brot	-11.0302
▁vollkommen	-11.0302
▁hinweg	-11.0303
▁wesentlich	-11.0312
▁Sozial	-11.0317
▁leading	-11.0319
▁Obama	-11.032
way	-11.0323
▁dieselbe	-11.0326
▁Nun	-11.0346
del	-11.0352
▁Golf	-11.0354
▁easier	-11.0354
▁sorgen	-11.0354
▁block	-11.0355
▁dreams	-11.0355
▁lief	-11.0357
▁falsche	-11.0359
▁heran	-11.0361
▁Sterne	-11.0363
▁Adam	-11.0364
▁Karten	-11.0367
▁British	-11.0368
▁Gang	-11.0373
buch	-11.0391
▁rechten	-11.0393
▁edge	-11.0394
▁tissue	-11.0395
▁Begriff	-11.0395
lau	-11.0398
▁illegal	-11.0398
▁erwartet	-11.0404
▁structures	-11.0404
▁yellow	-11.0406
▁Großteil	-11.0406
▁außerdem	-11.0407
▁Hund	-11.0408
▁übertragen	-11.041
Once	-11.041
▁particles	-11.0411
▁universal	-11.0412
▁besitzen	-11.0413
▁Ghana	-11.0415
▁raised	-11.0418
▁Landwirtschaft	-11.042
▁27	-11.0423
schaftliche	-11.0423
▁hängt	-11.0424
iz	-11.0428
▁remind	-11.0431
▁charge	-11.0438
▁Fische	-11.0438
hm	-11.044
▁Iraq	-11.0442
▁figured	-11.0442
▁bird	-11.0451
▁Professor	-11.0451
▁weapons	-11.0456
▁responsible	-11.0458
Zuerst	-11.0458
▁lights	-11.0461
▁distance	-11.0466
▁drehen	-11.0467
▁sorry	-11.0467
▁wiederum	-11.0468
▁entirely	-11.047
▁Plastik	-11.0471
isierung	-11.0471
▁600	-11.0473
▁ausge	-11.0478
▁professional	-11.0479
▁aufzu	-11.05
▁bridge	-11.05
▁French	-11.0511
▁Irak	-11.0511
▁card	-11.0512
▁Laden	-11.0514
▁bezahlen	-11.0518
▁avoid	-11.0519
▁creation	-11.0529
▁collect	-11.0539
▁engine	-11.0542
▁2009	-11.0543
od	-11.0544
▁importantly	-11.0549
was	-11.0553
▁spaces	-11.0555
Selbst	-11.0557
▁lesson	-11.0562
▁darf	-11.0563
Sometimes	-11.0564
▁childhood	-11.0564
▁2005	-11.0565
gang	-11.0565
▁sicherlich	-11.0568
laden	-11.0583
ehr	-11.0586
▁stecken	-11.0587
▁Milliarde	-11.0589
▁krank	-11.0589
▁usw	-11.0592
▁return	-11.0592
▁contact	-11.0594
▁gene	-11.0597
▁Ameisen	-11.0597
▁g	-11.0601
za	-11.0606
▁Gründen	-11.0606
▁base	-11.0607
▁Sun	-11.0608
▁brother	-11.0608
▁wealth	-11.0613
▁Schlaf	-11.0615
\".	-11.0616
▁debate	-11.0617
▁letztendlich	-11.0617
▁sitzt	-11.0617
However	-11.062
▁beat	-11.0622
▁Mexico	-11.0625
▁deeply	-11.0626
▁anderem	-11.0654
▁Beine	-11.0661
▁moments	-11.0662
ight	-11.0669
▁mindestens	-11.067
bare	-11.0671
▁scheinen	-11.0671
▁Apple	-11.0672
▁kümmern	-11.0673
▁fragten	-11.0676
00	-11.068
▁wider	-11.0684
▁Bildern	-11.0685
Bis	-11.0686
▁Haiti	-11.0686
▁werfen	-11.0691
▁Einkommen	-11.0692
▁einsetzen	-11.07
▁oceans	-11.0705
▁einzu	-11.0716
▁Don	-11.0717
▁hohen	-11.072
▁verwandeln	-11.0724
▁hauptsächlich	-11.0724
▁necessarily	-11.0724
▁Kindheit	-11.0726
▁entwerfen	-11.0726
▁häufig	-11.0737
▁überrascht	-11.0742
▁metaphor	-11.0745
▁elements	-11.0753
▁argue	-11.0761
Go	-11.0763
▁überzeugen	-11.0769
▁efficient	-11.077
▁bomb	-11.0772
▁Hirn	-11.0773
▁Satz	-11.0773
▁names	-11.0775
Mir	-11.0777
▁dürfen	-11.0778
▁Schluss	-11.0778
sehen	-11.0779
▁versus	-11.0779
▁stammt	-11.0779
stellen	-11.078
▁Themen	-11.0781
▁gelangen	-11.0787
▁Yes	-11.0788
▁pounds	-11.0816
▁fail	-11.0818
▁insects	-11.082
▁flight	-11.0826
gi	-11.0826
▁investment	-11.0826
▁sector	-11.0826
▁Island	-11.0827
▁spirit	-11.0829
▁civil	-11.0832
▁hinzu	-11.0832
▁necessary	-11.0832
▁studied	-11.0833
▁soil	-11.0833
▁sozusagen	-11.0834
ris	-11.0835
▁ultimately	-11.0835
▁photos	-11.0839
▁Filme	-11.0841
▁Fleisch	-11.0847
▁1980	-11.0847
▁desert	-11.085
▁bestimmen	-11.0854
▁Staat	-11.0855
king	-11.0855
▁Gefahr	-11.0859
▁Wal	-11.0859
zellen	-11.0861
▁plus	-11.0867
▁Nutzen	-11.0868
▁opened	-11.0869
▁General	-11.0869
▁wunderbare	-11.087
▁tens	-11.0872
▁Glauben	-11.0872
▁cloud	-11.0882
▁desire	-11.0882
▁interagieren	-11.0887
▁getötet	-11.0887
▁hurt	-11.0887
▁adults	-11.0889
▁discovery	-11.0891
Un	-11.0891
▁Strukturen	-11.0891
nd	-11.0892
▁leg	-11.0898
hy	-11.0901
▁Sorgen	-11.0901
▁fighting	-11.0905
▁holding	-11.091
cher	-11.091
▁Babys	-11.0911
▁aktiv	-11.0915
▁river	-11.0918
▁jump	-11.0921
▁Ne	-11.0924
▁perfekt	-11.0926
▁Problemen	-11.0927
▁designer	-11.0941
▁Rahmen	-11.0942
▁Wahrnehmung	-11.0942
▁töten	-11.0942
▁mouse	-11.0942
▁Jetzt	-11.0943
▁daß	-11.0945
ör	-11.0946
Noch	-11.0947
▁failed	-11.0948
▁halte	-11.0956
See	-11.0957
▁lieber	-11.0963
kommt	-11.0964
▁When	-11.0971
tin	-11.0984
His	-11.0989
qui	-11.0991
▁drink	-11.0992
ged	-11.0993
▁bread	-11.0994
▁traffic	-11.0997
▁depression	-11.0997
▁verfolgen	-11.0997
▁lunch	-11.0997
▁wächst	-11.0997
▁hidden	-11.0997
▁Verstand	-11.0998
▁Beweis	-11.1001
Gut	-11.1009
▁eingesetzt	-11.101
▁click	-11.1012
for	-11.1013
druck	-11.1014
ble	-11.1016
▁leads	-11.1019
▁Di	-11.1019
▁erstaunliche	-11.1024
▁Ha	-11.1032
▁account	-11.1035
▁For	-11.1038
▁sequence	-11.1039
▁invest	-11.1046
▁trick	-11.1048
▁smell	-11.1048
▁civilization	-11.1049
af	-11.1049
arm	-11.105
▁irgendwann	-11.1053
ding	-11.1055
rit	-11.1058
David	-11.106
schw	-11.1061
▁offer	-11.1061
▁voraus	-11.1065
▁fashion	-11.1075
▁Se	-11.108
▁letter	-11.1099
▁vote	-11.11
▁collective	-11.1106
▁stuck	-11.1109
▁verhindern	-11.1109
▁Zimmer	-11.1109
▁möglicherweise	-11.111
▁nötig	-11.1112
▁ship	-11.1131
ors	-11.1134
▁Militär	-11.1135
▁Ecke	-11.1138
▁dollar	-11.1139
▁believed	-11.114
▁helps	-11.1141
▁cheap	-11.115
▁erhält	-11.1151
fahren	-11.1155
▁detail	-11.1157
▁wirst	-11.1157
▁equal	-11.1158
▁express	-11.1158
▁finish	-11.1159
▁verantwortlich	-11.1159
tri	-11.116
▁wichtigste	-11.116
▁saving	-11.1161
▁adult	-11.1163
▁wisdom	-11.1165
▁leaving	-11.1165
▁Gegenteil	-11.1165
▁unfortunately	-11.1166
▁concerned	-11.1168
Take	-11.1175
▁billions	-11.1177
chte	-11.1186
▁electric	-11.1186
▁rain	-11.1186
▁verbracht	-11.1193
▁Institutionen	-11.1194
▁Mission	-11.1195
▁degree	-11.12
▁lay	-11.1207
▁related	-11.1209
▁struggle	-11.1212
▁profound	-11.1218
▁Bruder	-11.1221
▁Dinosaurier	-11.1221
▁caught	-11.1221
▁justice	-11.1226
▁Gut	-11.1231
Durch	-11.1232
▁colors	-11.1235
▁Wirtschafts	-11.1238
▁tr	-11.1242
▁Geburt	-11.1242
▁wirtschaftliche	-11.1248
▁inner	-11.125
▁Modelle	-11.1251
▁schließen	-11.1254
lang	-11.1258
▁graph	-11.1258
▁Schmerz	-11.1261
DH	-11.1263
skraft	-11.1265
▁testen	-11.127
▁university	-11.1278
Außerdem	-11.1278
▁Augenblick	-11.1279
▁farm	-11.1279
▁bieten	-11.128
ffentlichkeit	-11.1283
▁Lied	-11.1287
material	-11.1291
▁faith	-11.1296
▁Sprachen	-11.1297
▁basiert	-11.1299
▁protein	-11.1303
hen	-11.1305
▁grundlegende	-11.1306
▁inter	-11.1317
ities	-11.132
▁Rand	-11.1325
▁Martin	-11.1326
▁tue	-11.1331
▁sexual	-11.1332
▁sudden	-11.1332
▁neighborhood	-11.1335
▁coral	-11.1335
cken	-11.1338
▁slowly	-11.1341
car	-11.1343
▁pump	-11.1345
▁Kalifornien	-11.1346
▁paint	-11.1347
▁kurze	-11.1349
Wow	-11.1351
▁matters	-11.1354
▁pure	-11.1355
▁besseren	-11.1357
▁"19	-11.1361
▁20.	-11.1366
ons	-11.1367
▁Stellen	-11.1372
ell	-11.1376
▁tough	-11.1381
ya	-11.1386
▁Frank	-11.1391
▁mathematics	-11.1393
▁strategy	-11.1393
▁epidemic	-11.1393
▁1950	-11.1393
▁row	-11.1394
▁kurzen	-11.1395
▁interessieren	-11.1398
mittel	-11.1401
isiert	-11.1403
▁lustig	-11.1405
▁bone	-11.141
▁multiple	-11.141
ative	-11.1413
▁Funktion	-11.1413
▁motion	-11.1417
More	-11.1421
▁strength	-11.1422
▁65	-11.1426
▁band	-11.1426
▁Konflikt	-11.1431
▁weder	-11.1433
▁Wi	-11.1438
all	-11.1444
▁vorhanden	-11.1451
▁Zitat	-11.1451
▁interaction	-11.1453
▁constantly	-11.1453
▁everyday	-11.1453
▁bemerkt	-11.146
▁Videos	-11.1461
▁compared	-11.1461
▁Folge	-11.1471
▁capable	-11.1475
▁link	-11.1483
▁circle	-11.1487
▁principles	-11.1496
▁verfügbar	-11.15
▁gehabt	-11.1509
▁teuer	-11.1509
▁ants	-11.1514
ial	-11.1516
▁State	-11.1516
lan	-11.1517
▁invisible	-11.1518
▁nutzt	-11.1518
red	-11.1526
▁typical	-11.1526
Video	-11.1529
▁Charakter	-11.1529
▁Tumor	-11.1532
▁Standard	-11.1533
▁walls	-11.1534
ierten	-11.1534
▁weiteren	-11.1538
▁Aktivität	-11.1539
▁starb	-11.154
▁Erkenntnis	-11.1545
▁Temperatur	-11.1549
▁closed	-11.155
▁Because	-11.1553
▁emotions	-11.1553
▁rid	-11.1558
▁launch	-11.1561
▁gäbe	-11.1567
▁quantum	-11.1567
▁feedback	-11.1567
▁classroom	-11.1569
▁sister	-11.1569
▁nächstes	-11.1577
▁trained	-11.1578
▁Rätsel	-11.1578
▁majority	-11.158
▁managed	-11.1584
Jede	-11.1586
▁Radio	-11.1587
▁Microsoft	-11.1589
lose	-11.1593
▁meat	-11.1595
▁Jungs	-11.1595
▁lebte	-11.1598
nehmen	-11.1599
▁setzt	-11.16
▁enable	-11.162
▁target	-11.1623
▁Kaffee	-11.1626
▁vertraut	-11.1626
▁Stanford	-11.1626
▁operating	-11.1626
▁otherwise	-11.1627
▁deinen	-11.1628
rag	-11.163
▁factory	-11.1631
▁erzähle	-11.1631
▁finished	-11.1632
▁32	-11.1633
▁Gespräch	-11.1634
▁begins	-11.1636
▁described	-11.1637
Fi	-11.1641
▁bezahlt	-11.165
▁Nation	-11.1656
▁versuchten	-11.1669
▁toward	-11.167
▁Gas	-11.1671
▁engineers	-11.1674
▁Hoch	-11.1677
▁honest	-11.1679
▁sing	-11.168
▁cycle	-11.1681
▁proud	-11.1683
▁spezielle	-11.1684
▁schlimmer	-11.1684
▁ride	-11.1685
▁entworfen	-11.1685
▁zugänglich	-11.1685
Everybody	-11.1685
▁Laufe	-11.1686
▁erstes	-11.1687
▁chair	-11.169
▁organisms	-11.1694
▁Tom	-11.1694
▁followed	-11.1699
▁gemeinsame	-11.1699
▁seat	-11.1702
▁Kohle	-11.1705
▁bank	-11.1708
jährige	-11.1712
▁faces	-11.1718
▁Experimente	-11.1724
▁hunderte	-11.1724
▁grown	-11.1728
▁Yorker	-11.1733
▁Händen	-11.1737
ang	-11.1738
▁komplexe	-11.1738
bt	-11.1741
▁schwarze	-11.1743
▁Haufen	-11.1745
▁worried	-11.1745
▁smile	-11.1746
tung	-11.1748
▁Mund	-11.1752
▁mid	-11.1757
▁consumption	-11.1759
▁Kreis	-11.176
▁Inhalt	-11.1764
day	-11.1771
▁frage	-11.1771
▁dauert	-11.1772
▁Website	-11.1774
▁älter	-11.1777
Would	-11.1777
▁nannte	-11.1777
▁Minute	-11.1777
▁höhere	-11.1778
▁serve	-11.1779
▁paying	-11.1779
▁starke	-11.1787
ability	-11.179
mat	-11.1803
▁genauer	-11.1803
ort	-11.1803
▁eure	-11.1804
▁Vogel	-11.1804
▁1970	-11.1805
▁unterscheiden	-11.1805
▁beantworten	-11.1806
▁perfectly	-11.1813
▁trip	-11.1814
▁belief	-11.1815
▁schönen	-11.1818
▁Stress	-11.1821
▁Herr	-11.1832
net	-11.1832
Did	-11.1834
▁phones	-11.1836
▁Entdeckung	-11.1836
▁morgen	-11.1838
▁businesses	-11.184
▁wenigen	-11.1848
▁auszu	-11.1849
▁Experten	-11.1849
▁transformation	-11.1855
▁cure	-11.1857
▁untersucht	-11.186
▁wave	-11.1861
▁halb	-11.1864
▁dinner	-11.1865
▁irgendetwas	-11.1865
▁kennt	-11.1865
▁equivalent	-11.1865
▁miss	-11.1866
▁Bush	-11.1867
▁hergestellt	-11.1867
▁fördern	-11.1867
▁wahre	-11.1868
▁magazine	-11.187
nde	-11.1871
▁gift	-11.1874
▁surprised	-11.1877
▁Ist	-11.1878
▁erster	-11.1879
▁Müll	-11.1879
▁normalen	-11.188
eb	-11.1882
▁Netzwerke	-11.1885
dass	-11.1888
▁prove	-11.1892
▁wide	-11.1892
▁somit	-11.1892
iger	-11.1894
▁Sea	-11.1895
▁Kräfte	-11.1897
▁leader	-11.1897
▁notwendig	-11.19
▁li	-11.1905
▁joy	-11.1906
▁persönliche	-11.191
▁moves	-11.1912
▁grand	-11.1912
▁Texas	-11.1926
▁unterstützt	-11.1926
▁allerdings	-11.1926
▁verteilt	-11.1926
▁Klang	-11.1927
Obwohl	-11.1927
▁Perspektive	-11.1929
▁dennoch	-11.193
▁detect	-11.1931
▁lernt	-11.1932
▁stelle	-11.1936
jährigen	-11.1944
▁entstanden	-11.1949
▁Cha	-11.195
▁Nationen	-11.1955
▁nützlich	-11.1956
▁Gedanke	-11.1959
▁users	-11.1961
▁arms	-11.1962
▁arbeiteten	-11.1978
▁bedeuten	-11.1982
▁ma	-11.1986
▁marriage	-11.1986
▁weather	-11.1986
▁galaxies	-11.1987
▁Ausmaß	-11.1988
▁fiel	-11.199
▁fell	-11.1991
▁currently	-11.1993
▁gesund	-11.1993
▁sentence	-11.1994
▁Stand	-11.1999
▁gehalten	-11.2003
▁erkannte	-11.2005
▁Project	-11.2011
▁Top	-11.2012
▁driver	-11.2012
source	-11.2013
▁Open	-11.2015
▁enorme	-11.2015
▁schien	-11.2016
ory	-11.2018
▁Kenya	-11.202
▁harder	-11.202
▁demand	-11.2029
▁Australia	-11.2031
ley	-11.2032
▁soldiers	-11.2035
▁solid	-11.2041
▁spoke	-11.2043
▁innovative	-11.2044
sta	-11.2044
▁anzu	-11.2045
▁holen	-11.2045
▁president	-11.2048
▁fresh	-11.2048
▁Kohlenstoff	-11.2048
▁planning	-11.2048
▁angesehen	-11.2048
▁mo	-11.2052
▁limited	-11.2052
▁mentioned	-11.2053
▁seriously	-11.2054
▁vehicle	-11.2056
▁aufhören	-11.2057
▁Manhattan	-11.2057
▁treated	-11.2059
▁spot	-11.2062
▁Insel	-11.2064
▁Massen	-11.2064
▁Oder	-11.2067
▁effektiv	-11.2071
▁tausend	-11.2072
▁Hunde	-11.2072
▁nochmal	-11.2074
▁wear	-11.2076
▁interview	-11.2081
▁Schwester	-11.2082
▁Landschaft	-11.2083
▁due	-11.2083
Falls	-11.2088
▁inspiriert	-11.2089
▁match	-11.2089
▁wunderbar	-11.209
▁linken	-11.2093
▁existieren	-11.2095
▁nah	-11.2096
▁exchange	-11.2097
▁Ball	-11.2098
▁climb	-11.21
▁organic	-11.2102
▁Individuen	-11.211
▁galaxy	-11.211
▁entspricht	-11.211
▁Planet	-11.2111
▁Regen	-11.2111
▁Zeitalter	-11.2112
▁station	-11.2112
▁bus	-11.2113
▁enter	-11.2115
▁Maus	-11.2115
▁wichtigen	-11.2115
▁received	-11.2116
weg	-11.2118
▁dran	-11.2119
▁wearing	-11.2119
▁Gehirne	-11.2127
▁watched	-11.2128
▁entwickelte	-11.2129
▁Zug	-11.2129
▁26	-11.213
▁o	-11.2137
▁auseinander	-11.2142
11	-11.2142
sicht	-11.2144
over	-11.2146
▁Green	-11.2147
▁schaute	-11.2151
▁suggests	-11.2155
▁Super	-11.2161
vo	-11.2167
▁kürzlich	-11.2172
▁nervous	-11.2172
Everything	-11.2172
▁curious	-11.2172
▁fellow	-11.2172
▁vergleichen	-11.2172
▁Unterhaltung	-11.2173
▁App	-11.2173
▁collection	-11.2174
▁100,000	-11.2175
▁dritten	-11.2176
Gesundheitswesen	-11.2178
▁grandmother	-11.218
▁continent	-11.2181
▁molecule	-11.2182
▁könnt	-11.2184
▁erlebt	-11.2185
▁partner	-11.2185
▁Neu	-11.2191
▁net	-11.2191
▁bright	-11.2194
▁theater	-11.22
▁wieso	-11.2204
wirtschaftlichen	-11.2206
▁Aspekt	-11.221
board	-11.2212
▁threat	-11.2215
▁fill	-11.222
▁Moleküle	-11.2222
▁müsste	-11.2224
▁plane	-11.2225
▁crowd	-11.2225
▁lie	-11.2226
▁zerstört	-11.2231
▁Vorteil	-11.2231
▁Oxford	-11.2234
▁agriculture	-11.2234
▁hoffentlich	-11.2234
▁intellectual	-11.2234
Eigentlich	-11.2234
▁Gegensatz	-11.2234
▁distribution	-11.2234
▁awful	-11.2235
▁dry	-11.2235
▁gender	-11.2235
wissenschaftler	-11.2236
▁capture	-11.2236
▁compare	-11.2238
▁Elemente	-11.224
▁invited	-11.224
▁Brazil	-11.2243
▁Gleiche	-11.225
Kein	-11.225
▁Stimmen	-11.225
▁statistics	-11.2254
La	-11.2262
▁whom	-11.2264
▁stärker	-11.2265
zug	-11.2266
pp	-11.2268
ana	-11.227
▁Bur	-11.2271
▁Träume	-11.2271
ries	-11.2274
▁ließen	-11.2277
▁besondere	-11.2279
▁consequences	-11.2288
fallen	-11.2292
▁remote	-11.2294
▁ordinary	-11.2297
▁reduzieren	-11.2297
▁survival	-11.2297
▁Wirkung	-11.2297
▁erscheinen	-11.2297
▁aufbauen	-11.2298
▁married	-11.2298
▁Eindruck	-11.2298
▁speziell	-11.2298
▁master	-11.23
▁erfinden	-11.23
▁Grenze	-11.2302
▁heads	-11.2303
▁hide	-11.2305
▁release	-11.2306
▁crime	-11.2308
▁battle	-11.2311
▁bekamen	-11.2312
▁hate	-11.2321
▁normale	-11.2322
▁visuelle	-11.2323
▁Bewegungen	-11.2324
ual	-11.2325
▁drawing	-11.2326
▁grade	-11.2335
▁Peter	-11.2342
▁Häuser	-11.2342
▁zog	-11.2344
▁Methoden	-11.2347
feld	-11.2347
▁Ar	-11.2349
Le	-11.2351
▁Operation	-11.2351
▁Smith	-11.236
▁verbreiten	-11.236
▁increasingly	-11.2363
▁unless	-11.2364
▁sad	-11.2365
▁launched	-11.2367
kraft	-11.2369
▁Meilen	-11.2369
▁Muslim	-11.2369
▁hoffen	-11.2372
▁relativ	-11.2373
▁Medikament	-11.2373
▁fourth	-11.2374
Je	-11.2376
Wieso	-11.2378
▁killing	-11.2378
▁echten	-11.2381
▁Mark	-11.2385
▁trägt	-11.2389
lassen	-11.2393
▁250	-11.2396
▁gold	-11.2396
▁steigen	-11.2399
ischer	-11.2404
▁expand	-11.2409
▁homes	-11.2412
▁electrical	-11.2413
▁define	-11.2415
▁persönlichen	-11.2417
▁app	-11.2422
rat	-11.2423
▁Definition	-11.2424
▁existence	-11.2424
▁equipment	-11.2424
Keine	-11.2427
▁highest	-11.2427
▁Politiker	-11.2428
Ok	-11.2428
zahl	-11.2435
▁Informations	-11.2437
Mann	-11.244
▁Beweise	-11.2441
fen	-11.2442
▁direct	-11.2443
▁120	-11.2448
Welche	-11.245
ile	-11.2459
▁peak	-11.2472
▁Mütter	-11.2473
geht	-11.2476
▁Meeres	-11.2478
▁cognitive	-11.2485
▁beinhaltet	-11.2488
▁weibliche	-11.2488
▁construction	-11.2489
▁breath	-11.249
▁graduate	-11.2494
▁Fakten	-11.2497
▁accident	-11.2499
▁Kapital	-11.2501
▁Uganda	-11.2503
▁credit	-11.2505
▁Wettbewerb	-11.2508
dy	-11.2509
▁Schimpansen	-11.2514
▁testing	-11.2525
▁engineer	-11.2531
▁reicht	-11.2533
▁Anwendung	-11.2536
▁Produktion	-11.2537
Kann	-11.2538
▁geschickt	-11.254
▁roten	-11.2542
▁identify	-11.2544
▁Per	-11.2547
▁Ganze	-11.2547
▁Motor	-11.2551
▁gestern	-11.2554
▁Krise	-11.2558
▁brachten	-11.2559
▁layer	-11.2559
2-	-11.2563
▁warming	-11.2565
▁taste	-11.2566
▁Zuhause	-11.2566
▁chain	-11.2566
▁principle	-11.2567
▁gap	-11.2571
Hi	-11.2573
ete	-11.2577
▁verbessert	-11.2578
▁pages	-11.2582
▁verbrachte	-11.259
▁dealing	-11.2593
▁Sehen	-11.2596
▁mitten	-11.2605
▁zahlen	-11.2606
▁damage	-11.2608
mut	-11.2608
▁stupid	-11.2618
▁verschwinden	-11.2618
▁Foundation	-11.2618
▁rural	-11.2618
▁Mikroben	-11.2618
▁gelesen	-11.2618
▁daily	-11.262
▁shapes	-11.2621
▁eindeutig	-11.2622
▁Hinsicht	-11.2625
▁lifetime	-11.2626
▁Bauern	-11.2627
▁Wer	-11.2628
▁abzu	-11.2631
▁emotion	-11.2631
▁normally	-11.2631
▁article	-11.2633
▁scene	-11.2633
▁mistake	-11.2633
ick	-11.2638
▁Sa	-11.2639
▁flag	-11.2639
hin	-11.2639
▁Amazon	-11.264
▁Galaxien	-11.264
▁languages	-11.2641
▁selten	-11.2641
▁losing	-11.2647
▁tail	-11.2648
▁Gemeinden	-11.2657
▁exists	-11.2661
▁Ph	-11.2671
▁blieb	-11.2673
▁perform	-11.2682
▁Existenz	-11.2683
▁berührt	-11.2683
▁evil	-11.2683
▁Alzheimer	-11.2683
▁microbes	-11.2683
▁wake	-11.2683
▁hopefully	-11.2684
▁setting	-11.2686
▁Gedicht	-11.2687
Naja	-11.2687
rate	-11.2689
▁leiden	-11.269
▁Arbeiten	-11.2691
▁Brasilien	-11.2691
▁abhängig	-11.2692
▁economics	-11.2693
▁reward	-11.2693
wand	-11.2698
▁Details	-11.2698
▁airplane	-11.2699
▁lies	-11.2701
▁schlagen	-11.2702
▁Werk	-11.2704
▁Abschluss	-11.2704
▁Lab	-11.2705
▁soul	-11.2706
rad	-11.2707
halten	-11.2708
▁mothers	-11.271
▁schlechter	-11.2714
▁Joe	-11.2715
▁Ansicht	-11.2721
▁processes	-11.2722
▁brauche	-11.2722
▁opening	-11.2723
▁Folgen	-11.2727
▁Beste	-11.2731
▁Cent	-11.2733
▁players	-11.2735
▁Teilchen	-11.2739
▁rot	-11.274
▁sites	-11.2747
ix	-11.2748
▁Fl	-11.2748
▁Schatten	-11.2749
▁poetry	-11.2749
▁comfortable	-11.2749
▁Umfeld	-11.275
▁verbindet	-11.275
▁2004	-11.275
▁bietet	-11.2751
▁associated	-11.2752
▁Generationen	-11.2759
▁corruption	-11.2761
ura	-11.2762
▁Gates	-11.2765
stehen	-11.2767
▁21.	-11.2771
▁kilometers	-11.2778
▁filled	-11.2782
▁2006	-11.2782
test	-11.2784
▁Red	-11.2796
side	-11.2797
last	-11.2797
▁brauchten	-11.2798
▁generations	-11.2799
▁Tanz	-11.2802
▁moderne	-11.2805
▁Arab	-11.281
▁spät	-11.2811
Ru	-11.2814
▁geändert	-11.2815
▁Kombination	-11.2815
▁Lebewesen	-11.2815
▁gewählt	-11.2815
▁importance	-11.2815
▁safety	-11.2816
▁according	-11.2816
▁2,000	-11.2816
▁suggest	-11.2817
▁Vorfahren	-11.2818
▁studieren	-11.2819
ord	-11.2823
▁zunächst	-11.2824
▁solch	-11.2826
▁Australien	-11.2827
Pro	-11.2828
schlag	-11.2829
▁beobachtet	-11.2833
ok	-11.2834
ei	-11.2836
▁Korruption	-11.2836
▁caused	-11.2837
20	-11.2838
ions	-11.2839
▁Vi	-11.2839
daten	-11.2841
▁designing	-11.2842
▁beschlossen	-11.2847
▁übrig	-11.2853
▁Diskussion	-11.2853
▁Tausende	-11.2855
▁Genom	-11.2856
▁switch	-11.2861
▁Linien	-11.2869
▁tape	-11.287
über	-11.287
▁introduce	-11.2872
▁unabhängig	-11.2874
▁technical	-11.2878
▁essential	-11.2879
▁Florida	-11.2882
▁gestorben	-11.2882
▁yesterday	-11.2882
▁sugar	-11.2882
▁property	-11.2882
▁Viren	-11.2882
▁method	-11.2883
▁Unternehmer	-11.2884
▁gehören	-11.2886
PM	-11.2888
▁10.000	-11.2888
Mail	-11.2889
▁covered	-11.289
▁parallel	-11.2891
▁Armen	-11.2892
▁Mexiko	-11.2892
▁steps	-11.2896
▁behalten	-11.2897
▁Zeitung	-11.29
▁kurzem	-11.29
▁finger	-11.29
▁folks	-11.2904
▁saved	-11.2912
▁forced	-11.2913
▁Text	-11.2914
▁island	-11.2916
eine	-11.2916
▁persönlich	-11.2921
▁shoes	-11.2922
▁Zweck	-11.2924
▁accept	-11.2933
De	-11.2937
▁dimensions	-11.2941
▁professor	-11.2942
▁reichen	-11.2948
▁Chemie	-11.2949
▁aufzubauen	-11.2949
▁stood	-11.2949
▁transparent	-11.2949
▁Viertel	-11.2949
▁details	-11.2952
▁digitale	-11.2954
▁TEDx	-11.2954
qua	-11.2957
sländern	-11.2961
▁burn	-11.2962
▁analysis	-11.2963
▁fängt	-11.2963
▁Jahrzehnt	-11.2963
▁zerstören	-11.2965
ans	-11.297
nden	-11.2976
▁signals	-11.2976
▁Spieler	-11.2979
▁Erklärung	-11.2988
▁Folgendes	-11.2993
▁cat	-11.2995
▁las	-11.2996
ß	-11.2997
Den	-11.2999
platz	-11.3009
▁Lern	-11.3011
▁researchers	-11.3012
▁exact	-11.3013
▁artificial	-11.3016
▁Organismen	-11.3016
▁heavy	-11.3016
▁Germany	-11.3019
jo	-11.3021
▁appear	-11.3022
▁coal	-11.3024
▁künstliche	-11.303
▁Instrument	-11.3031
▁folgt	-11.3035
▁sample	-11.3037
▁musst	-11.3042
▁Helden	-11.3047
sum	-11.3049
▁meistens	-11.3051
▁Dach	-11.3052
▁print	-11.3059
▁natürlichen	-11.3062
tech	-11.3065
▁counter	-11.3072
Me	-11.3079
ite	-11.3084
▁combination	-11.3084
▁pleasure	-11.3084
▁Rio	-11.3087
▁signs	-11.3087
▁Start	-11.3088
▁SMS	-11.3088
▁arrived	-11.309
▁Sp	-11.3092
▁round	-11.3094
▁wood	-11.3096
▁bear	-11.3097
▁Mut	-11.3099
stein	-11.3101
▁einiger	-11.3101
▁Here	-11.3101
▁clinical	-11.3102
▁exercise	-11.3105
▁correct	-11.3106
▁bottle	-11.3106
▁Malaria	-11.3109
▁fuhr	-11.311
▁Post	-11.3117
back	-11.3127
Co	-11.3127
▁Kerl	-11.313
Pa	-11.313
▁Körpers	-11.313
▁spring	-11.3134
▁leid	-11.314
▁movies	-11.314
si	-11.3143
▁zählen	-11.3143
▁meiste	-11.3145
ep	-11.3147
▁Spiegel	-11.3147
▁regular	-11.315
▁trillion	-11.3152
▁fasziniert	-11.3153
▁tomorrow	-11.3153
▁Japanese	-11.3153
▁automatisch	-11.3153
▁rare	-11.3154
▁Anti	-11.3155
▁transition	-11.3157
▁beschäftigen	-11.3158
▁connections	-11.3158
Bitte	-11.316
▁considered	-11.3165
tisch	-11.3169
▁Anteil	-11.317
▁motor	-11.3174
▁interface	-11.3175
▁satellite	-11.3175
▁traditionellen	-11.3175
▁reaction	-11.3176
fach	-11.3178
▁Rücken	-11.3178
▁meist	-11.3184
▁v	-11.3185
▁hasn	-11.3201
▁laugh	-11.3206
▁blaue	-11.3209
ise	-11.3211
▁Wein	-11.3213
▁camp	-11.3214
▁copy	-11.3214
▁Signal	-11.3217
▁mention	-11.3218
▁perfekte	-11.3218
▁Her	-11.3219
▁moralische	-11.322
▁Geheimnis	-11.3221
▁Brust	-11.3222
▁empty	-11.3222
▁flies	-11.3222
cor	-11.3223
▁experienced	-11.3229
▁convinced	-11.3231
▁ange	-11.3232
ology	-11.3236
▁Elektrizität	-11.3236
▁definieren	-11.3238
lai	-11.324
▁wondering	-11.3242
ker	-11.3242
▁starten	-11.3245
▁resource	-11.3247
▁Korea	-11.3261
▁fr	-11.3264
▁beschloss	-11.3268
▁Kurs	-11.3268
▁schrecklich	-11.3272
ür	-11.3274
▁expression	-11.328
▁28	-11.3282
▁shoot	-11.3282
▁honor	-11.3285
▁waves	-11.3285
▁quiet	-11.3288
rüber	-11.3289
▁drüben	-11.3291
▁Saturn	-11.3291
▁Canada	-11.3291
▁healthcare	-11.3292
▁wuchs	-11.3295
Niemand	-11.3297
▁Schwierigkeiten	-11.3297
▁Bus	-11.3301
▁lessons	-11.3304
▁Mitarbeiter	-11.3305
▁Architekten	-11.3308
▁entdeckte	-11.3309
eh	-11.3311
▁Wohlstand	-11.3314
▁muscle	-11.3316
▁fantastisch	-11.3318
▁internationale	-11.3319
▁erstellt	-11.3319
▁fields	-11.3321
▁calling	-11.3326
▁tons	-11.3326
▁Weile	-11.3329
▁leaves	-11.333
cent	-11.3333
▁Kulturen	-11.3333
Ah	-11.3338
▁player	-11.3347
▁Sicherheits	-11.3348
▁gr	-11.3351
▁verwandelt	-11.3352
▁tiefer	-11.3354
▁radical	-11.3358
▁passt	-11.3359
Please	-11.3361
▁Emotionen	-11.3361
▁conclusion	-11.3361
▁possibilities	-11.3361
▁anwenden	-11.3361
▁chemistry	-11.3361
▁Ausstellung	-11.3362
▁Garten	-11.3363
▁Jack	-11.3364
▁tap	-11.3366
▁letters	-11.3366
work	-11.337
▁independent	-11.3371
▁Britain	-11.3372
▁Rat	-11.3374
▁expected	-11.3376
▁picked	-11.3378
Ro	-11.3381
▁lebten	-11.3382
▁platform	-11.3386
▁dynamic	-11.3386
Dr	-11.3388
▁Ro	-11.3391
▁Bereiche	-11.3394
▁fat	-11.3395
ani	-11.3395
Their	-11.3401
▁deeper	-11.3402
Her	-11.3402
▁Klein	-11.3403
▁gelöst	-11.3405
verständlich	-11.341
Ha	-11.3412
▁management	-11.3414
▁Wa	-11.342
▁broke	-11.3424
reich	-11.3424
ations	-11.3424
▁morgens	-11.3425
▁erkennt	-11.3428
▁variety	-11.3432
▁vermeiden	-11.3432
▁erscheint	-11.3432
▁Maßstab	-11.3432
▁cutting	-11.3433
▁2003	-11.3433
▁Kenia	-11.3433
▁Gewinn	-11.3434
▁soviel	-11.3438
▁Nachbarn	-11.3445
▁Patient	-11.3447
lon	-11.3448
▁Theater	-11.3451
▁member	-11.3458
▁dots	-11.3459
▁annehmen	-11.3461
▁gegenseitig	-11.3463
▁spielte	-11.3464
nder	-11.3466
▁International	-11.3467
▁chemicals	-11.3474
▁Zivilisation	-11.3474
▁Fälle	-11.3475
▁rote	-11.3475
▁Tim	-11.3485
▁reform	-11.3487
▁Show	-11.349
fu	-11.349
▁sources	-11.3496
▁drin	-11.3498
▁Lauf	-11.35
▁DNS	-11.3503
▁emerging	-11.3503
▁underneath	-11.3503
▁vermitteln	-11.3503
▁äußerst	-11.3503
▁Zufall	-11.3505
▁sprachen	-11.3505
▁Wetter	-11.3508
▁steigt	-11.3509
▁setzte	-11.3511
▁aufgebaut	-11.3511
▁Roman	-11.3512
Sehr	-11.3516
ologie	-11.3518
▁verhalten	-11.3521
▁fähig	-11.3522
führen	-11.3527
▁trials	-11.3529
▁disaster	-11.3529
▁invention	-11.353
▁poem	-11.3531
▁consumer	-11.3536
▁note	-11.354
▁Verhältnis	-11.3542
sam	-11.3544
▁enorm	-11.355
gie	-11.3552
▁holes	-11.3557
j	-11.3559
▁soft	-11.3562
▁keeping	-11.3564
▁dinosaurs	-11.3566
▁battery	-11.3574
▁erforscht	-11.3574
▁sweet	-11.3574
▁deswegen	-11.3574
▁worldwide	-11.3576
▁carefully	-11.3577
▁erwähnt	-11.3577
▁Union	-11.3577
▁Pat	-11.358
▁pen	-11.3588
▁menschlicher	-11.359
ette	-11.359
▁ähnliche	-11.3591
scale	-11.3592
folge	-11.3592
chi	-11.3594
▁dank	-11.3594
▁Effekt	-11.3595
▁voices	-11.3599
▁Bein	-11.36
▁Gore	-11.3608
▁Ni	-11.3627
▁feelings	-11.3631
▁nations	-11.3631
▁Ihres	-11.3632
▁fantastische	-11.3633
zukommen	-11.3643
▁Zucker	-11.3646
▁humor	-11.3646
▁valuable	-11.3646
▁außen	-11.3646
technik	-11.3646
▁collaboration	-11.3646
▁Winter	-11.3647
▁Tests	-11.3648
▁schlechten	-11.3649
▁advanced	-11.3651
SS	-11.3655
Mo	-11.3663
▁director	-11.3663
▁Bob	-11.3663
▁Ki	-11.3664
Leute	-11.3665
▁experts	-11.3667
▁These	-11.3672
▁überraschend	-11.3673
wissenschaften	-11.3674
kal	-11.3674
ht	-11.3678
ekt	-11.368
▁Car	-11.3683
▁dunkle	-11.3688
▁müssten	-11.3688
▁Jo	-11.369
▁zieht	-11.3691
▁Organ	-11.3692
▁Satelliten	-11.3692
▁Grün	-11.3696
▁Arbeiter	-11.3701
▁mix	-11.3704
recht	-11.3705
▁Gras	-11.3706
▁encourage	-11.3708
▁novel	-11.3709
▁messages	-11.3713
gegangen	-11.3715
▁beinahe	-11.3718
▁quasi	-11.3718
▁stattdessen	-11.3718
▁mittlere	-11.3719
▁Auswahl	-11.3719
▁Verlust	-11.3727
▁Freundin	-11.3727
▁viruses	-11.3728
▁zentrale	-11.3729
▁aufregend	-11.3733
lic	-11.3736
▁facing	-11.3737
▁require	-11.3738
▁generate	-11.3739
▁10-	-11.3739
▁prime	-11.3741
▁instrument	-11.3742
▁status	-11.3744
kosystem	-11.3745
oren	-11.3746
making	-11.3746
▁location	-11.3749
▁discussion	-11.3749
▁unit	-11.3755
leg	-11.3757
▁mess	-11.3758
▁heißen	-11.3759
▁Erfindung	-11.3763
▁organized	-11.3765
▁UN	-11.3768
▁addition	-11.3768
▁gewissen	-11.3771
▁poet	-11.3773
▁convince	-11.3782
▁Grafik	-11.3784
▁flat	-11.3784
▁besorgt	-11.3791
▁participate	-11.3791
▁malaria	-11.3792
kultur	-11.3792
▁relatively	-11.3795
▁lokale	-11.3796
▁Neues	-11.3797
▁relative	-11.3797
▁gang	-11.38
▁user	-11.3801
▁hall	-11.3805
▁rief	-11.3816
▁gun	-11.3817
▁parent	-11.3822
▁Hollywood	-11.3823
▁Grand	-11.3829
▁garden	-11.3831
▁transport	-11.3831
technologie	-11.3833
werk	-11.3834
nach	-11.3838
▁characters	-11.3839
▁Ga	-11.3842
▁Schiff	-11.3843
▁Brown	-11.3844
wissenschaft	-11.3846
ball	-11.3858
▁budget	-11.386
▁danger	-11.3865
▁north	-11.3865
▁Potential	-11.3865
▁liberal	-11.3865
▁teeth	-11.3865
▁properties	-11.3865
▁beschreibt	-11.3867
atur	-11.3867
▁rapidly	-11.3867
▁Forschungs	-11.3868
▁boom	-11.3868
▁bike	-11.3871
▁ergibt	-11.3872
▁ersetzen	-11.3879
▁Hunger	-11.3883
▁promise	-11.3887
programm	-11.3893
▁metal	-11.3894
▁hang	-11.3895
Have	-11.3895
▁Bereichen	-11.3904
iss	-11.3906
▁requires	-11.3908
▁cultures	-11.3909
▁Volk	-11.391
▁entstand	-11.3911
bit	-11.3914
▁maps	-11.3918
▁rede	-11.3919
▁bo	-11.3921
▁kannte	-11.3925
▁chart	-11.3928
ls	-11.3932
▁sucht	-11.3937
▁passen	-11.3938
▁Cambridge	-11.3939
▁gefangen	-11.3939
▁gelebt	-11.3939
▁Geschenk	-11.3939
Anyway	-11.3939
▁hydrogen	-11.3939
▁specifically	-11.394
▁roughly	-11.3941
▁gebeten	-11.3941
kel	-11.3942
▁Ozeane	-11.3943
▁sight	-11.3943
elle	-11.3946
▁Weltraum	-11.3947
▁increasing	-11.3947
Yet	-11.395
▁Korallen	-11.395
gesellschaftlich	-11.3952
Sogar	-11.3956
▁fiction	-11.3957
▁gain	-11.3957
▁President	-11.3959
▁Star	-11.3962
Ra	-11.3968
▁root	-11.3973
▁treten	-11.3973
▁ecosystem	-11.3973
▁zoom	-11.3976
▁sharks	-11.3977
▁Finanz	-11.3983
▁Uni	-11.3985
▁vorne	-11.3987
▁höre	-11.3987
bung	-11.3993
▁victims	-11.3998
tern	-11.3998
▁Für	-11.3998
Ob	-11.4
▁solcher	-11.4001
▁kosten	-11.4003
▁Echtzeit	-11.4014
▁Löcher	-11.4014
▁Stuhl	-11.4014
▁unusual	-11.4014
▁vulnerable	-11.4014
▁marine	-11.4014
▁darstellt	-11.4014
▁Koran	-11.4015
▁winter	-11.4015
▁95	-11.4018
▁effectively	-11.402
▁Südafrika	-11.4021
▁presentation	-11.4022
▁schätzen	-11.4024
nna	-11.4026
▁statement	-11.4027
▁besagt	-11.4031
▁practical	-11.4032
▁doubt	-11.4034
▁Werbung	-11.4041
▁Rot	-11.4041
▁asks	-11.4042
unk	-11.4044
Very	-11.4046
Unter	-11.4046
▁Nichts	-11.4049
▁Fr	-11.4051
schnitt	-11.4051
▁entscheidend	-11.4055
▁Stärke	-11.4059
▁Untersuchung	-11.406
▁musical	-11.4064
haft	-11.4066
▁grosse	-11.408
▁frame	-11.4081
▁studio	-11.4082
▁veränderte	-11.4084
zugehen	-11.4086
▁element	-11.4089
▁Congress	-11.4089
▁Fahrrad	-11.4089
▁primary	-11.4089
Damals	-11.4089
▁gay	-11.4089
▁gebraucht	-11.4089
▁Pflege	-11.4093
hal	-11.4094
▁Strategie	-11.4095
▁biologische	-11.4095
▁rates	-11.4096
Li	-11.4097
▁former	-11.4099
▁Port	-11.4099
▁Gutes	-11.4103
wert	-11.4104
▁Situationen	-11.4104
▁cameras	-11.4106
▁Interessen	-11.4109
▁Präsentation	-11.4109
▁Deutschland	-11.4109
▁fewer	-11.4109
▁remain	-11.411
scha	-11.4113
▁mögliche	-11.4118
▁Ed	-11.412
▁pack	-11.4125
▁bubble	-11.4125
▁insight	-11.4126
▁Lager	-11.4129
▁folgende	-11.4131
▁Erinnerungen	-11.4131
▁darstellen	-11.4134
▁Momente	-11.4135
▁digitalen	-11.4138
▁erhielt	-11.414
▁factor	-11.4141
legen	-11.4142
llen	-11.4142
KB	-11.4145
▁replace	-11.4153
▁Alle	-11.4155
▁Kon	-11.4155
setzt	-11.4159
▁Doch	-11.4163
▁Risiken	-11.4165
▁Teenager	-11.4165
zubringen	-11.4165
▁underwater	-11.4165
▁1.	-11.4167
▁Buchstaben	-11.4168
▁seitdem	-11.4169
▁protection	-11.4169
▁loop	-11.417
▁south	-11.417
▁besuchen	-11.4173
stück	-11.4176
▁extract	-11.4178
▁cards	-11.4179
▁hinten	-11.418
▁emissions	-11.4181
▁length	-11.4183
▁techniques	-11.4183
stoff	-11.4183
▁Second	-11.4185
▁formen	-11.4189
ges	-11.4191
Sein	-11.4193
▁represents	-11.4194
lit	-11.4197
▁producing	-11.4198
John	-11.4198
▁depends	-11.4201
▁mirror	-11.4201
▁liked	-11.4201
▁shark	-11.4202
▁buying	-11.4202
▁harm	-11.4206
▁Akt	-11.4209
▁volume	-11.4212
▁Ri	-11.4214
▁reflect	-11.422
▁situations	-11.4231
▁Mc	-11.4231
▁alter	-11.4233
▁height	-11.4235
▁clip	-11.4236
▁mathematical	-11.4238
▁Rück	-11.4238
▁Taliban	-11.4241
▁democratic	-11.4241
▁technological	-11.4241
▁steel	-11.4241
▁enthält	-11.4241
▁lady	-11.4241
▁liefern	-11.4243
▁Zuschauer	-11.4245
lock	-11.4248
▁Tonnen	-11.4249
win	-11.425
fisch	-11.425
▁Alles	-11.4251
▁grüne	-11.4254
▁steuern	-11.4254
▁Ehe	-11.4254
▁movements	-11.4263
▁include	-11.427
▁Har	-11.4271
Audience	-11.4273
▁sichtbar	-11.4276
▁Derek	-11.4277
▁Act	-11.4277
▁stock	-11.4278
▁roof	-11.4279
mus	-11.4279
▁puts	-11.4281
▁Moral	-11.4281
▁Hai	-11.4282
▁Einstellung	-11.429
▁leichter	-11.4298
▁langer	-11.4303
▁Vögel	-11.4304
▁tradition	-11.4309
▁goals	-11.431
markt	-11.4311
▁succeed	-11.4312
▁11.	-11.4314
geschichte	-11.4316
▁reduziert	-11.4318
Stattdessen	-11.4318
▁langweilig	-11.4318
▁staff	-11.4318
▁überwinden	-11.4318
▁molecular	-11.4318
▁darunter	-11.4318
▁kitchen	-11.4318
▁Pfund	-11.4318
▁orange	-11.4319
▁Atem	-11.4319
▁Diagramm	-11.432
▁vorzustellen	-11.432
▁Lego	-11.4321
ose	-11.4324
▁Wesentlichen	-11.4324
▁generally	-11.4327
Danach	-11.4327
ship	-11.4328
▁symbol	-11.4329
▁Pacific	-11.4332
▁carrying	-11.4333
▁added	-11.4337
▁Statistiken	-11.4338
▁Kontinent	-11.4346
▁kompliziert	-11.4346
▁junger	-11.4349
▁w	-11.4351
▁Süden	-11.4352
port	-11.4352
▁horse	-11.4357
head	-11.4361
▁videos	-11.4362
▁Ok	-11.4366
;"	-11.4372
▁0	-11.4375
vis	-11.4378
▁2001	-11.4379
▁restaurant	-11.4382
▁singen	-11.4385
▁adapt	-11.4385
pol	-11.4387
▁behaviors	-11.4392
▁previous	-11.4392
▁Global	-11.4395
berraschung	-11.4395
▁liquid	-11.4395
▁männliche	-11.4395
▁pollution	-11.4395
▁Großmutter	-11.4395
▁mortality	-11.4395
Since	-11.4396
▁Media	-11.4396
▁GDP	-11.4396
▁Debatte	-11.4396
▁schlafen	-11.4396
▁houses	-11.4398
▁Ur	-11.4398
schrift	-11.4399
▁versteht	-11.4403
▁Aufnahme	-11.4403
▁Laptop	-11.4406
▁übernehmen	-11.4407
▁blow	-11.4412
▁definiert	-11.4416
▁gespielt	-11.442
Leider	-11.4421
▁terrorism	-11.4425
▁sending	-11.4428
▁organs	-11.443
wesen	-11.443
▁Stern	-11.4433
▁Herren	-11.4434
▁König	-11.4435
▁bauten	-11.4435
▁arts	-11.4438
▁Sha	-11.444
▁genetische	-11.4442
▁Wissens	-11.4448
▁Geräusch	-11.445
▁Health	-11.4451
▁selling	-11.4457
dienst	-11.447
▁kreieren	-11.4473
▁silence	-11.4473
▁drauf	-11.4473
▁prize	-11.4473
▁robust	-11.4473
▁grid	-11.4474
▁gefällt	-11.4474
▁prepared	-11.4479
▁Kongress	-11.4486
▁released	-11.4487
▁beweisen	-11.4487
▁Homo	-11.4488
▁Gerechtigkeit	-11.4488
▁hierher	-11.4493
▁bezeichnet	-11.4498
▁Weltkrieg	-11.4501
▁internationalen	-11.4503
Sh	-11.4511
▁sparen	-11.4514
▁perception	-11.4515
▁newspaper	-11.4515
▁feature	-11.4516
Good	-11.4516
▁score	-11.4517
▁lokalen	-11.4518
▁Ruf	-11.452
▁May	-11.4523
▁Bedürfnisse	-11.4524
▁ski	-11.4528
▁19.	-11.4528
▁verstehe	-11.4529
▁Jahrzehnten	-11.453
▁schwieriger	-11.4537
▁meinte	-11.4542
▁contract	-11.4545
▁Molekül	-11.4545
▁Element	-11.4545
100	-11.4548
▁passionate	-11.455
▁Stufe	-11.4551
▁Chemikalien	-11.4552
▁Schicksal	-11.4552
▁academic	-11.4552
▁Anführer	-11.4552
▁internal	-11.4553
▁hotel	-11.4554
▁nest	-11.4556
▁arme	-11.4559
▁beschrieben	-11.4563
▁seid	-11.4566
▁hero	-11.4568
act	-11.4569
Give	-11.4573
▁meaningful	-11.4576
▁standen	-11.4579
▁politicians	-11.4586
rew	-11.4588
▁anschaut	-11.459
Lasst	-11.4592
▁Wellen	-11.4593
▁handle	-11.4593
▁pair	-11.4596
▁unglaublichen	-11.4598
▁Hans	-11.4599
uer	-11.4599
▁Kr	-11.46
SP	-11.4601
fälle	-11.4601
▁Hotel	-11.4602
ified	-11.4605
▁blauen	-11.4605
▁2011	-11.4607
▁explains	-11.4609
▁Durch	-11.4611
unter	-11.4614
Andere	-11.4626
▁Decke	-11.4628
▁permanent	-11.4628
▁Galaxie	-11.4629
forschung	-11.4629
▁derzeit	-11.463
▁Gemälde	-11.4632
▁Studio	-11.4632
▁lediglich	-11.4632
▁sophisticated	-11.4632
▁gegründet	-11.4632
▁psychological	-11.4632
▁privacy	-11.4632
▁psychology	-11.4632
▁reference	-11.4632
▁fake	-11.4632
▁scheinbar	-11.4632
westlichen	-11.4632
▁feststellen	-11.4632
▁Con	-11.4633
▁typically	-11.4636
mäßig	-11.4638
▁components	-11.464
▁introduced	-11.4643
▁Blumen	-11.4646
light	-11.4648
▁however	-11.4648
▁engaged	-11.4649
bereich	-11.465
ock	-11.4652
ious	-11.4655
▁aufnehmen	-11.4658
▁85	-11.4658
▁Rechte	-11.4659
▁stehe	-11.4669
▁Sir	-11.467
▁organ	-11.467
▁risks	-11.4673
▁factors	-11.4676
gruppen	-11.4676
▁33	-11.4679
licht	-11.4679
maschine	-11.4683
▁Lektion	-11.4683
▁Küste	-11.4683
30	-11.4685
▁Long	-11.4687
down	-11.4688
▁Gegend	-11.4692
▁Hall	-11.4693
0.000	-11.4694
▁Drei	-11.4701
▁collapse	-11.4702
▁assume	-11.4702
▁Brücke	-11.4703
▁700	-11.4704
Does	-11.4704
▁season	-11.4705
▁illness	-11.4706
uellen	-11.471
▁swim	-11.4711
▁advice	-11.4712
▁erweitern	-11.4712
▁piano	-11.4712
▁spectrum	-11.4712
▁britische	-11.4712
▁silk	-11.4712
▁Or	-11.4712
While	-11.4712
▁entfernen	-11.4712
▁radiation	-11.4712
▁Hacker	-11.4712
▁dahinter	-11.4713
akt	-11.472
Darum	-11.4721
▁affected	-11.4723
▁Vorteile	-11.4723
▁Handel	-11.4727
▁bits	-11.4727
▁king	-11.4729
▁Su	-11.4729
▁suit	-11.473
ett	-11.4731
▁German	-11.4732
▁Damen	-11.4736
nimmt	-11.4737
▁employees	-11.4737
▁tumor	-11.4738
wan	-11.474
▁aufge	-11.4748
▁regions	-11.4753
▁großartigen	-11.4758
▁interests	-11.4759
hing	-11.4761
▁photographs	-11.4762
▁Grundlage	-11.4765
Wann	-11.4768
▁armen	-11.4768
▁Mac	-11.4772
▁Eric	-11.4775
▁schwarz	-11.4776
part	-11.4778
▁Gebiete	-11.4784
▁Pe	-11.479
▁split	-11.4791
▁Klassenzimmer	-11.4792
▁Stammzellen	-11.4792
▁lachen	-11.4793
▁Johnson	-11.4794
▁akzeptieren	-11.4794
▁Unfall	-11.4794
▁Ta	-11.4796
▁spin	-11.4799
lage	-11.4802
▁atoms	-11.4802
▁liefert	-11.4802
▁Erwachsenen	-11.4804
▁kulturelle	-11.4805
▁zunehmend	-11.4806
▁traurig	-11.4806
▁thanks	-11.4812
▁Ca	-11.4816
▁linear	-11.4817
▁Signale	-11.4822
▁industrielle	-11.4823
▁ancestors	-11.4825
gezogen	-11.483
▁interessanter	-11.4837
▁opinion	-11.4839
▁wirkliche	-11.484
han	-11.4841
▁topic	-11.4841
SW	-11.4842
▁öffentlich	-11.4842
▁schwierige	-11.4844
China	-11.4846
mmer	-11.4846
Last	-11.4847
▁fern	-11.4849
▁Seele	-11.4865
▁Depression	-11.4868
▁kontrolliert	-11.4869
▁wine	-11.487
▁constant	-11.487
▁reich	-11.4871
▁beteiligt	-11.4873
▁gravity	-11.4873
▁unexpected	-11.4873
▁snow	-11.4874
▁Mehrheit	-11.4874
▁shut	-11.4874
Deswegen	-11.4874
▁Verbrechen	-11.4874
▁toxic	-11.4874
▁evolutionary	-11.4874
▁Nutzung	-11.4875
▁option	-11.4879
▁algorithms	-11.4883
selben	-11.4884
▁Fortschritte	-11.4884
▁singing	-11.4886
▁sphere	-11.4886
ford	-11.4887
▁Physiker	-11.4888
▁herein	-11.4889
▁blocks	-11.4893
▁Fellow	-11.4893
▁Einheit	-11.4897
▁conscious	-11.4907
▁Schritte	-11.4908
ulation	-11.491
▁Aktivitäten	-11.4913
▁Gr	-11.4917
▁skill	-11.4918
ju	-11.492
▁puzzle	-11.4922
ition	-11.4924
struktur	-11.4926
Could	-11.4927
▁anfing	-11.4927
par	-11.4928
house	-11.4931
▁Zusammen	-11.494
lager	-11.4944
▁Fabrik	-11.4944
▁baute	-11.4947
▁legt	-11.4949
▁bag	-11.4949
▁kick	-11.495
▁definitely	-11.4955
▁shame	-11.4956
▁entgegen	-11.4956
▁medium	-11.4956
▁quarter	-11.4957
▁Innovationen	-11.4959
▁heisst	-11.496
▁Fliegen	-11.4968
▁weak	-11.4968
▁Mengen	-11.497
▁froh	-11.4972
▁Tradition	-11.4974
gas	-11.4975
▁reached	-11.4975
▁facts	-11.4985
▁konzentriert	-11.4985
▁recorded	-11.4985
▁Durchschnitt	-11.4985
▁inspiration	-11.4988
▁animation	-11.4994
▁reagiert	-11.4995
Nachde	-11.4999
▁driven	-11.5001
▁joke	-11.5005
▁shop	-11.5005
▁survey	-11.5005
▁White	-11.5008
weil	-11.5009
▁chicken	-11.5011
Mehr	-11.5012
▁einge	-11.5014
Dollar	-11.5015
System	-11.5016
▁crash	-11.5017
▁breathe	-11.5025
▁grundsätzlich	-11.5026
▁Interaktion	-11.5028
▁Wüste	-11.5032
▁Gegenwart	-11.5038
▁cortex	-11.5038
▁false	-11.5038
▁Terrorismus	-11.5038
▁hadn	-11.5039
mann	-11.5041
▁Kabel	-11.5042
ust	-11.5043
▁Heim	-11.5044
▁Will	-11.5045
▁scared	-11.5045
▁kriegen	-11.5046
▁800	-11.5046
▁combined	-11.5048
▁trend	-11.5048
▁Mama	-11.5049
cha	-11.5049
▁Day	-11.5055
▁Mu	-11.5056
meter	-11.5056
▁author	-11.5056
▁Hi	-11.5057
▁traveling	-11.506
▁Ray	-11.5061
▁investiert	-11.5061
oh	-11.5063
Only	-11.5064
kor	-11.5064
▁mountains	-11.5067
▁grab	-11.508
▁fishing	-11.5086
▁manchen	-11.5088
▁architect	-11.5089
▁van	-11.509
▁Nord	-11.5095
Second	-11.5096
▁kreative	-11.5099
▁fe	-11.51
Publikum	-11.51
avi	-11.5101
▁mistakes	-11.5102
▁reverse	-11.5102
▁Todes	-11.5104
sinn	-11.5108
▁cave	-11.5108
schutz	-11.511
wirtschaft	-11.511
▁clock	-11.511
▁berühmt	-11.5116
bed	-11.5117
berleben	-11.5118
▁Gedächtnis	-11.5119
▁Respekt	-11.512
▁Blatt	-11.5121
▁afternoon	-11.5121
▁empathy	-11.5121
▁irgendjemand	-11.5121
▁memories	-11.5121
▁phrase	-11.5121
▁erhöhen	-11.5121
▁Literatur	-11.5121
▁cord	-11.5123
▁behave	-11.5125
wo	-11.5126
▁sports	-11.5128
▁bare	-11.5128
▁Gesichter	-11.513
▁neighbors	-11.5132
▁required	-11.5133
cker	-11.5134
xi	-11.5134
▁dogs	-11.5138
▁flexible	-11.5141
▁angenommen	-11.5142
▁glaubte	-11.5143
▁doppelt	-11.5144
▁awareness	-11.5148
▁phase	-11.5149
▁momentan	-11.515
▁wirkt	-11.5153
gab	-11.5153
▁stronger	-11.5156
▁display	-11.5167
▁script	-11.5169
▁funktionierte	-11.517
▁Are	-11.5171
rop	-11.5173
▁mechanism	-11.5174
▁Symbol	-11.5174
▁faszinierend	-11.5175
▁rocket	-11.5177
▁Nase	-11.5179
▁komplexen	-11.5184
systeme	-11.5184
unternehmen	-11.5186
▁Unterricht	-11.5186
▁foundation	-11.5186
verhalten	-11.5186
▁mis	-11.5189
arbeiter	-11.5189
▁suffer	-11.5195
▁combine	-11.5196
▁ultimate	-11.5202
being	-11.5202
▁unbe	-11.5204
▁bemerken	-11.5205
Perhaps	-11.5205
▁August	-11.5205
▁eröffnet	-11.5205
▁telephone	-11.5205
▁hieß	-11.5205
▁ought	-11.5206
▁verletzt	-11.5206
▁Bord	-11.5207
▁Moore	-11.5209
▁Sitz	-11.5213
▁percentage	-11.5213
▁falschen	-11.5216
▁seltsam	-11.5218
▁paradigm	-11.5219
▁pulled	-11.5222
▁Führung	-11.5222
satz	-11.5224
▁naturally	-11.5225
ebene	-11.5236
▁Resultat	-11.5241
▁aging	-11.5241
weit	-11.5242
▁solved	-11.5243
▁baut	-11.5244
▁offene	-11.525
▁umgeben	-11.525
▁Armee	-11.5251
▁actions	-11.5252
▁pour	-11.5257
▁environments	-11.5263
▁eggs	-11.527
▁title	-11.528
▁repeat	-11.5284
kle	-11.5287
▁admit	-11.529
▁Central	-11.529
▁destruction	-11.529
▁literature	-11.529
▁framework	-11.529
▁besitzt	-11.529
▁France	-11.529
▁dropped	-11.5291
▁Prinzipien	-11.5291
▁transportation	-11.5291
▁Flügel	-11.5291
▁berühmte	-11.5293
▁präsentiert	-11.5294
▁Null	-11.53
▁applied	-11.5301
▁nieder	-11.5302
▁geteilt	-11.5302
Seine	-11.5303
▁wunderschöne	-11.5306
▁thoughts	-11.5306
▁forests	-11.5308
▁personally	-11.5309
▁Jeder	-11.5312
▁increased	-11.5316
▁vertrauen	-11.532
tte	-11.5323
eur	-11.5328
stellung	-11.5328
▁features	-11.533
▁bekannten	-11.533
▁gesch	-11.533
▁dieselben	-11.5331
▁operate	-11.5336
fügen	-11.5337
▁occur	-11.5345
▁Darstellung	-11.5347
▁Kirche	-11.5347
▁Phase	-11.5348
▁chemische	-11.535
▁verdient	-11.5351
▁receive	-11.5352
▁eng	-11.5353
ey	-11.5355
▁electronic	-11.5357
▁Fa	-11.5358
Ab	-11.5359
use	-11.536
▁hospitals	-11.5362
▁vehicles	-11.5364
▁narrative	-11.5368
▁Rad	-11.5373
istic	-11.5374
▁1000	-11.5375
▁Stahl	-11.5376
▁activities	-11.5376
▁church	-11.5376
▁computing	-11.5376
▁Inspiration	-11.5376
▁birthday	-11.5376
▁sunlight	-11.5376
▁hunger	-11.5377
▁3,000	-11.5378
▁hoping	-11.538
▁zeichnen	-11.5381
▁efficiency	-11.5382
▁diverse	-11.5383
▁weiße	-11.5386
▁fundamentally	-11.5386
▁5,000	-11.5388
sichtlich	-11.5389
laufen	-11.5389
▁überlegen	-11.539
▁physically	-11.539
▁jener	-11.5395
▁largely	-11.5399
Ohne	-11.5403
▁senden	-11.5406
▁Gottes	-11.5408
▁po	-11.5409
▁Willen	-11.5414
▁realen	-11.5415
▁gemeinsamen	-11.5425
▁ko	-11.5427
▁centers	-11.5428
▁Beruf	-11.5428
ark	-11.5429
see	-11.543
▁Metapher	-11.5434
▁Annahme	-11.5434
▁Ereignisse	-11.5434
▁string	-11.5436
▁se	-11.5439
▁ends	-11.5441
▁formed	-11.5443
▁fährt	-11.5447
▁decline	-11.5452
box	-11.5458
▁seltsame	-11.5458
ain	-11.546
▁Kanada	-11.5462
▁manufacturing	-11.5462
▁FBI	-11.5462
▁sustainability	-11.5462
▁ausgebildet	-11.5462
▁House	-11.5462
▁runs	-11.5462
Zunächst	-11.5462
▁Wagen	-11.5463
▁productive	-11.5464
Dafür	-11.5467
▁aufgewachsen	-11.5469
▁remove	-11.5469
▁collected	-11.5472
▁ansieht	-11.5472
Bevor	-11.5472
▁bemerkenswert	-11.5473
▁bezeichnen	-11.5473
arbeiten	-11.5474
▁zählt	-11.5475
▁mile	-11.5479
▁behaupten	-11.548
▁Marketing	-11.5485
pri	-11.5488
gegen	-11.5489
griff	-11.5492
▁zeigten	-11.5492
EM	-11.5494
gerät	-11.5502
▁Tee	-11.5506
▁Fokus	-11.5506
▁invent	-11.5511
▁Mi	-11.5511
ks	-11.5515
▁Sprach	-11.5516
▁marketing	-11.5516
mar	-11.5516
▁weiterer	-11.5519
▁laptop	-11.552
hält	-11.552
▁Russia	-11.5521
▁einst	-11.5522
▁primitive	-11.5522
▁institution	-11.5522
▁Gericht	-11.5523
val	-11.5536
Gib	-11.5537
▁kostenlos	-11.5539
▁maintain	-11.554
▁hey	-11.5542
reichen	-11.5542
▁fehlt	-11.5543
▁functions	-11.5543
▁abstract	-11.5544
geben	-11.5546
▁pilot	-11.5547
▁Milch	-11.5547
▁Titan	-11.5548
▁Ex	-11.5549
▁Transport	-11.5549
▁Russland	-11.5549
▁concrete	-11.5549
Something	-11.5549
▁Ursprung	-11.5549
▁finance	-11.5549
▁Saudi	-11.5549
▁conservation	-11.5549
▁Riesen	-11.5549
▁occurred	-11.5549
▁Chaos	-11.5549
▁Knie	-11.5549
Nobody	-11.555
▁besseres	-11.5553
schalten	-11.5555
ahn	-11.5557
▁Billionen	-11.5557
▁cooking	-11.5558
▁Wall	-11.5562
▁Human	-11.5562
▁host	-11.5568
▁afrikanischen	-11.5571
▁recording	-11.5575
▁Samen	-11.5576
cal	-11.5577
schaftlichen	-11.558
▁Law	-11.5585
▁2012	-11.5588
▁Good	-11.5592
▁Maß	-11.5592
▁nose	-11.5602
▁filter	-11.5602
▁Howard	-11.5603
ther	-11.5605
▁bekomme	-11.5609
▁Absicht	-11.5609
▁protected	-11.561
▁cook	-11.561
ay	-11.5612
▁elegant	-11.5612
kin	-11.5617
▁thin	-11.5622
Ganz	-11.5623
Three	-11.5627
▁records	-11.5629
ney	-11.563
isches	-11.5632
▁dramatic	-11.5636
▁Diagnose	-11.5637
▁centuries	-11.5637
▁department	-11.5637
▁dominant	-11.5637
▁geholfen	-11.5637
▁presence	-11.5637
▁vorbereitet	-11.5637
▁repair	-11.5637
▁überlebt	-11.5637
▁dargestellt	-11.5637
▁hinunter	-11.5638
▁Jones	-11.5639
▁Mio	-11.564
▁Webseite	-11.5642
kam	-11.5647
▁Berge	-11.5647
▁exploration	-11.5648
▁Kal	-11.5651
ically	-11.5658
▁falling	-11.5667
▁Hu	-11.567
▁Persönlichkeit	-11.5671
▁Gemeinschaften	-11.5671
▁acting	-11.5673
▁gefallen	-11.5673
▁lebendig	-11.5673
▁führten	-11.5676
▁dauerte	-11.5684
machen	-11.5685
▁appropriate	-11.5689
▁limit	-11.5691
▁nett	-11.5696
▁Folie	-11.5697
mie	-11.5697
▁Aktion	-11.5699
alter	-11.5702
▁willst	-11.5703
istische	-11.5712
▁embrace	-11.5715
▁celebrate	-11.5715
voll	-11.5717
weisen	-11.5723
▁Entwicklungs	-11.5723
▁comfort	-11.5724
▁bicycle	-11.5725
▁regelmäßig	-11.5725
▁visible	-11.5725
▁smoke	-11.5725
▁swimming	-11.5725
▁motivation	-11.5725
▁therapy	-11.5725
▁berichten	-11.5726
▁River	-11.5726
Anstatt	-11.5727
▁wofür	-11.5728
▁bemerkte	-11.5728
▁notes	-11.5728
▁wechseln	-11.5729
▁equally	-11.573
▁durchführen	-11.5731
gabe	-11.5731
▁Geburtstag	-11.5733
barkeit	-11.5733
▁beibringen	-11.5733
▁With	-11.5735
▁Fe	-11.5736
▁potentially	-11.5736
▁burning	-11.5737
▁button	-11.5741
▁processing	-11.5743
▁Bay	-11.5745
sein	-11.5749
▁Prize	-11.5751
RB	-11.5754
▁Ford	-11.5756
▁Chef	-11.5759
▁Aspekte	-11.5759
▁Party	-11.5764
▁stream	-11.5765
▁Jim	-11.5768
Spiel	-11.5771
ände	-11.5772
▁Mein	-11.5773
▁hits	-11.5774
▁Gegen	-11.5774
▁langsamer	-11.5776
▁Programme	-11.5776
▁style	-11.5783
▁Ernährung	-11.5786
▁expert	-11.5789
▁creature	-11.5789
▁photographer	-11.5791
▁fingen	-11.5796
▁Epidemie	-11.5796
▁drives	-11.5797
schrei	-11.5798
▁tour	-11.5799
▁translate	-11.5805
▁suppose	-11.5805
ham	-11.5806
Jemand	-11.5809
▁getrennt	-11.5814
▁wütend	-11.5814
▁Potenzial	-11.5814
▁globe	-11.5814
Schließlich	-11.5815
▁erneut	-11.5815
▁merken	-11.5815
▁versteckt	-11.5815
▁somewhat	-11.5816
▁Air	-11.5816
▁controlled	-11.5818
▁ba	-11.5818
▁lift	-11.5819
▁Bibliothek	-11.582
tum	-11.5823
▁Konsequenzen	-11.5824
▁Musiker	-11.5827
▁roads	-11.5828
▁zweimal	-11.5829
▁elektronische	-11.583
▁emotionale	-11.5832
▁tracking	-11.5834
dischen	-11.5836
▁sides	-11.5837
▁aspect	-11.5838
Zur	-11.584
▁Tour	-11.5843
lig	-11.5843
▁upper	-11.5843
▁guide	-11.5853
▁sowas	-11.5854
▁umher	-11.5855
▁seek	-11.5855
▁zusätzliche	-11.5858
▁confidence	-11.5858
▁starben	-11.5859
▁vers	-11.586
▁weltweiten	-11.5861
▁Süd	-11.5861
▁myth	-11.5862
zel	-11.5867
▁Pla	-11.5869
▁Vorstellungen	-11.5871
▁Trick	-11.5872
▁Verhaltens	-11.5872
▁Von	-11.5873
▁Fernseh	-11.5878
ola	-11.5878
▁explanation	-11.5878
▁Bis	-11.5885
oo	-11.5886
ala	-11.5887
ult	-11.589
wi	-11.5893
▁drücken	-11.5893
▁attacks	-11.5894
▁innen	-11.5898
▁Ereignis	-11.5903
level	-11.5904
▁Geräusche	-11.5904
▁Weisheit	-11.5904
▁verschwunden	-11.5904
Before	-11.5904
▁boring	-11.5905
▁Grippe	-11.5905
rim	-11.5906
▁teilweise	-11.5906
▁proteins	-11.5906
▁appreciate	-11.5907
▁unterrichten	-11.5911
▁ausgesetzt	-11.5912
▁Sichtweise	-11.5912
▁Erlebnis	-11.5918
▁voneinander	-11.592
▁29	-11.592
▁kalt	-11.5922
▁wundervolle	-11.5933
tzt	-11.5936
▁Analyse	-11.5936
▁basierend	-11.5938
▁Just	-11.5938
▁studiert	-11.5939
▁violent	-11.5939
▁Stücke	-11.5939
▁Jesus	-11.5946
life	-11.5948
▁Vielleicht	-11.5952
▁odd	-11.5954
ments	-11.596
▁reisen	-11.5961
▁trafen	-11.5964
▁Aussage	-11.5967
▁chose	-11.5967
▁verstand	-11.5971
▁election	-11.5971
▁monkey	-11.5971
▁outcome	-11.5971
stellt	-11.5974
▁Schuhe	-11.5975
▁Instrumente	-11.5976
▁schwarzen	-11.5979
▁sensitive	-11.5981
tische	-11.5983
unt	-11.5987
▁achten	-11.599
▁Geschäfts	-11.5991
▁tea	-11.5991
▁Konsum	-11.5993
Number	-11.5995
Unfortunately	-11.5995
▁Bronx	-11.5995
▁Erfinder	-11.5995
▁Zweifel	-11.5995
▁beispielsweise	-11.5995
▁contrast	-11.5995
▁providing	-11.5995
▁autism	-11.5995
▁stretch	-11.5995
▁Sonnenlicht	-11.5995
▁balloon	-11.5995
▁stoppen	-11.5996
▁unknown	-11.5996
▁trans	-11.5996
▁Asien	-11.5996
▁Verwendung	-11.5997
sondern	-11.5998
▁Fach	-11.5999
▁hinauf	-11.5999
▁cents	-11.5999
▁Lu	-11.5999
▁betreiben	-11.6
▁landen	-11.6
▁overall	-11.6002
burg	-11.6005
▁offenen	-11.6005
▁transformed	-11.6007
▁flower	-11.601
▁writer	-11.601
▁Lachen	-11.6012
▁Afrikas	-11.6012
War	-11.6013
▁Spielzeug	-11.6015
▁Budget	-11.6015
▁closely	-11.6017
sfähigkeit	-11.6018
▁Ohren	-11.6018
▁Arme	-11.6019
▁implications	-11.6019
▁weltweite	-11.6023
▁gelangt	-11.6027
▁trinken	-11.6027
▁Serie	-11.6029
▁Aufnahmen	-11.6029
▁Alexander	-11.603
gruppe	-11.6033
typ	-11.6034
▁evening	-11.6036
▁Schrift	-11.6039
problem	-11.6041
▁ernsthaft	-11.6042
▁tests	-11.6043
▁defined	-11.6047
▁aktuelle	-11.6049
▁weißen	-11.6053
▁license	-11.6054
▁tax	-11.6055
▁gesammelt	-11.6056
▁Kindes	-11.6056
▁Eier	-11.6057
▁behavioral	-11.6061
▁error	-11.6064
▁teilt	-11.6066
sort	-11.6069
▁Noten	-11.607
▁amounts	-11.6073
▁Schnitt	-11.6074
▁Mike	-11.6075
Etwas	-11.6076
▁flip	-11.6076
▁Magie	-11.6079
gypten	-11.6083
▁accurate	-11.6084
▁Mandela	-11.6087
▁Square	-11.6087
▁genügend	-11.6087
▁milk	-11.6087
▁neural	-11.6087
▁enthalten	-11.6088
▁knapp	-11.6088
▁lifestyle	-11.6089
▁Haar	-11.6089
▁surrounded	-11.609
▁schlug	-11.6092
▁Elefanten	-11.6096
▁journalist	-11.6097
▁beenden	-11.6101
▁keeps	-11.6102
als	-11.6103
Kinder	-11.6105
▁circumstances	-11.6107
▁schwere	-11.611
▁versch	-11.6113
▁Minister	-11.6113
losen	-11.6114
▁th	-11.6115
▁Nachhaltigkeit	-11.6117
schauen	-11.6118
▁verfolgt	-11.6125
▁options	-11.6125
▁fund	-11.6132
▁erhöht	-11.6135
tat	-11.6136
Ent	-11.6138
▁existing	-11.6138
▁robotic	-11.6151
foot	-11.6151
▁determine	-11.6153
ily	-11.6155
▁technique	-11.6157
handel	-11.6161
▁transplant	-11.6162
▁fo	-11.6163
▁desk	-11.6165
heim	-11.6165
rung	-11.6166
▁partners	-11.6166
▁mode	-11.6169
pla	-11.6171
Machen	-11.6171
▁erkannt	-11.6174
▁films	-11.6174
▁suchte	-11.6178
▁begegnen	-11.618
▁bekämpfen	-11.618
▁betroffen	-11.618
▁heaven	-11.618
▁secure	-11.618
▁housing	-11.618
▁wisst	-11.618
▁vital	-11.618
▁wireless	-11.618
▁exakt	-11.618
▁tonight	-11.618
▁authority	-11.618
▁Strand	-11.618
▁commitment	-11.6181
▁clothes	-11.6182
▁heilen	-11.6182
▁exhibition	-11.6182
▁Chancen	-11.6183
führung	-11.6183
▁2050	-11.6183
▁Abfall	-11.6184
▁Schuld	-11.6185
▁Jahrzehnte	-11.6185
AIDS	-11.6187
▁border	-11.6187
Paul	-11.6188
▁II	-11.6189
▁profit	-11.6189
▁ok	-11.6191
▁Führer	-11.6191
▁Kapitel	-11.6194
▁Protein	-11.6196
▁Verbreitung	-11.6199
▁stayed	-11.6201
wer	-11.6201
▁explained	-11.6203
▁logic	-11.6206
▁infected	-11.6207
15	-11.6212
▁Humor	-11.6212
▁Status	-11.6212
▁tested	-11.6216
wechsel	-11.6218
▁Kampagne	-11.622
▁schreibt	-11.6224
▁bizarre	-11.6228
▁lebe	-11.6233
▁operation	-11.6234
▁tall	-11.6238
▁hielten	-11.6238
▁grünen	-11.6239
▁conversations	-11.6239
▁Regionen	-11.6242
▁Bas	-11.6245
▁Bang	-11.6248
▁Tr	-11.6251
▁lo	-11.6252
▁Detail	-11.6252
▁entrepreneurs	-11.6257
▁Jugend	-11.626
▁Steven	-11.626
▁refer	-11.6262
▁claim	-11.6271
▁Wohn	-11.6272
▁court	-11.6273
▁Gulf	-11.6273
▁trigger	-11.6273
▁kaputt	-11.6273
▁Frankreich	-11.6273
▁capitalism	-11.6274
▁regime	-11.6274
▁interactive	-11.6274
▁Denkweise	-11.6275
10	-11.6275
▁br	-11.6276
▁organisieren	-11.6276
▁truck	-11.6279
macht	-11.6279
▁verglichen	-11.6279
▁Schaden	-11.6279
▁verb	-11.6281
ckt	-11.6282
film	-11.6285
▁applications	-11.629
▁solange	-11.6291
▁minister	-11.6292
▁gekauft	-11.6293
▁Benjamin	-11.6296
▁klinische	-11.6297
woher	-11.6298
can	-11.6299
▁subjects	-11.6302
▁Restaurant	-11.6305
▁measured	-11.6305
▁infiziert	-11.6306
ank	-11.6307
ziel	-11.6311
▁Paar	-11.6312
▁wirken	-11.6312
▁hörten	-11.6316
▁nannten	-11.6317
▁Blau	-11.6319
▁harte	-11.632
▁remains	-11.6322
▁Zell	-11.6326
ase	-11.6327
nicht	-11.6328
▁attempt	-11.6331
▁kreativen	-11.6331
Könnte	-11.6332
▁wheel	-11.6332
▁ring	-11.6339
▁Brief	-11.634
▁curve	-11.634
linie	-11.6341
▁di	-11.6345
teile	-11.6345
▁antwortete	-11.6345
▁plate	-11.6347
law	-11.6349
Al	-11.6351
▁shock	-11.6353
▁Räume	-11.6354
▁evolve	-11.6358
▁Teufel	-11.6367
▁Futter	-11.6367
▁Gemüse	-11.6367
▁flew	-11.6367
▁gerettet	-11.6367
▁horrible	-11.6367
▁neugierig	-11.6367
▁regret	-11.6367
▁vorsichtig	-11.6368
▁mystery	-11.6368
▁Zerstörung	-11.6368
▁Herstellung	-11.6368
▁gestaltet	-11.6368
▁nowhere	-11.6368
ui	-11.637
▁Witz	-11.6371
zusammenarbeiten	-11.6372
▁bewirken	-11.6373
▁busy	-11.6373
ible	-11.6378
Erst	-11.6379
▁pink	-11.6382
▁jail	-11.6387
▁Männchen	-11.6393
gemacht	-11.6394
▁europäische	-11.6394
▁blog	-11.6394
▁Sam	-11.6396
▁englische	-11.6398
▁symptoms	-11.6402
▁Geistes	-11.6404
rett	-11.6406
▁mark	-11.6407
▁hängen	-11.6407
▁Tiefe	-11.6408
▁höchsten	-11.6414
haben	-11.6414
▁plans	-11.6418
sel	-11.6423
▁William	-11.6424
öl	-11.6429
▁Mar	-11.643
▁Entfernung	-11.6433
▁Brian	-11.6433
▁Schicht	-11.6434
▁relate	-11.6435
▁heutige	-11.6435
▁derselben	-11.6435
▁Bi	-11.6436
▁sensors	-11.6447
▁Bericht	-11.6451
yo	-11.6451
fache	-11.6451
▁Märkte	-11.6452
▁Groß	-11.6455
▁gründen	-11.6458
▁songs	-11.6458
sätze	-11.646
fish	-11.6461
politik	-11.6462
▁plot	-11.6463
▁Blätter	-11.6463
▁Christmas	-11.6463
▁challenging	-11.6463
▁genius	-11.6463
▁nachgedacht	-11.6463
▁thumb	-11.6463
▁angry	-11.6463
▁laboratory	-11.6463
▁Kongo	-11.6466
▁ruhig	-11.6466
▁Schlag	-11.6467
▁Erd	-11.6469
▁mittels	-11.6469
person	-11.6469
▁Krieges	-11.6471
▁Silicon	-11.6475
üb	-11.6476
▁dumm	-11.6476
enz	-11.6477
▁joined	-11.6478
▁ears	-11.6478
Projekt	-11.6478
Drei	-11.6479
▁Rock	-11.648
▁grain	-11.6481
▁whales	-11.6481
hour	-11.6482
▁Fett	-11.6483
▁nachts	-11.6485
Wäre	-11.6488
geschwindigkeit	-11.6489
ograph	-11.649
rich	-11.6491
▁limits	-11.6491
team	-11.6492
▁42	-11.6493
▁figures	-11.6497
Ach	-11.6499
▁Leiter	-11.6501
gibt	-11.6508
▁pan	-11.651
▁komplizierte	-11.6512
▁Viele	-11.6515
▁Solar	-11.6515
▁schreckliche	-11.6518
ek	-11.6519
▁55	-11.6528
▁economists	-11.6533
▁disappear	-11.6533
uss	-11.6538
▁whale	-11.654
fan	-11.6545
▁Ob	-11.6545
▁divide	-11.6549
▁contribute	-11.6549
40	-11.6553
ces	-11.6553
▁abuse	-11.6554
▁Blue	-11.6554
▁villages	-11.6554
▁zufrieden	-11.6555
▁mechanical	-11.6556
▁severe	-11.6556
ook	-11.6556
▁educational	-11.6558
▁nervös	-11.6559
▁Schnee	-11.6559
Basically	-11.6559
▁weshalb	-11.6559
nderungen	-11.6559
Nothing	-11.6562
▁Who	-11.6562
▁monitor	-11.6564
▁lying	-11.6568
▁protest	-11.6569
▁stone	-11.657
▁vergangenen	-11.6571
▁physische	-11.6572
alen	-11.6573
▁Wolken	-11.6574
▁Gandhi	-11.6574
▁wiederholen	-11.6574
ov	-11.6576
▁linked	-11.6577
▁feeding	-11.6582
nderung	-11.6583
▁Egypt	-11.6583
state	-11.6584
▁Mode	-11.6587
▁architects	-11.6596
▁Ku	-11.6596
▁wherever	-11.6596
▁Box	-11.6602
▁classic	-11.6607
▁Versuche	-11.6609
▁brave	-11.6611
▁patent	-11.6612
▁ear	-11.6614
▁Erwachsene	-11.6621
▁samples	-11.6626
▁cartoon	-11.6632
▁intelligente	-11.6634
not	-11.6636
sse	-11.6636
▁application	-11.6638
▁pig	-11.6641
▁bemerkenswerte	-11.6644
▁Sternen	-11.6647
▁encounter	-11.665
▁Fünf	-11.6651
Up	-11.6652
▁unteren	-11.6654
▁Nerven	-11.6655
▁pool	-11.6656
▁aufgeregt	-11.6656
▁versorgen	-11.6656
Remember	-11.6656
▁insbesondere	-11.6656
▁veröffentlichen	-11.6656
▁dancing	-11.6656
▁engaging	-11.6656
▁footprint	-11.6656
▁gentlemen	-11.6656
▁besessen	-11.6656
▁erfüllt	-11.6656
▁greenhouse	-11.6657
▁bones	-11.6657
▁poorest	-11.6658
▁genießen	-11.6658
cing	-11.6661
▁Heimat	-11.6662
▁wünschte	-11.6662
▁rapid	-11.6663
▁100.000	-11.6663
▁nachhaltige	-11.6663
▁Erwartungen	-11.6663
▁latest	-11.6665
▁unge	-11.6666
▁teil	-11.6667
tier	-11.6668
▁rely	-11.6673
▁nor	-11.6674
▁pollen	-11.6679
▁Leiden	-11.6682
▁dient	-11.6682
auch	-11.6683
rang	-11.6687
▁Live	-11.6694
▁provided	-11.6694
▁favor	-11.6698
▁laser	-11.6699
▁Entdeckungen	-11.6702
▁instruments	-11.6714
▁Eins	-11.6714
ail	-11.6716
▁beach	-11.6727
▁Autor	-11.6735
▁dive	-11.6736
bezüglich	-11.674
▁faced	-11.6742
▁Latin	-11.6743
▁Space	-11.675
▁Vietnam	-11.6753
▁Brooklyn	-11.6754
▁bedroht	-11.6754
▁economies	-11.6754
▁identical	-11.6754
▁session	-11.6754
▁verliert	-11.6754
▁unlike	-11.6754
▁minimal	-11.6754
▁Kleidung	-11.6754
▁Streit	-11.6754
▁Verfahren	-11.6755
▁Afrikaner	-11.6758
▁spüren	-11.6759
▁floating	-11.6759
▁disorders	-11.6759
▁Zeitraum	-11.6761
▁infinite	-11.6764
▁ergeben	-11.6764
wasser	-11.6766
netz	-11.6767
▁orbit	-11.6768
▁bestand	-11.6769
▁Abraham	-11.6772
▁anger	-11.6773
let	-11.6773
▁classes	-11.6773
▁wondered	-11.6774
grad	-11.6775
▁chip	-11.6779
▁database	-11.6779
▁flowers	-11.6783
▁transfer	-11.6786
▁lebende	-11.6786
▁Metall	-11.6788
▁Handys	-11.6788
▁fold	-11.6795
genommen	-11.6798
▁gewisser	-11.6798
▁bet	-11.6806
▁wenigstens	-11.681
glücklicherweise	-11.6811
▁senses	-11.6816
▁sozial	-11.6819
leistung	-11.6824
▁Belohnung	-11.6824
▁Fläche	-11.6825
▁Angriff	-11.6829
▁fingers	-11.6829
▁deaths	-11.683
▁concern	-11.6831
▁Dimensionen	-11.6833
▁einfaches	-11.6833
▁judge	-11.6836
▁prototype	-11.6836
▁vaccine	-11.6837
▁surgeon	-11.6837
▁betrieben	-11.6839
▁Student	-11.6839
▁glaubten	-11.6842
well	-11.6844
▁cow	-11.6845
▁convert	-11.6847
▁Ve	-11.6848
▁Welten	-11.6851
▁Psychologie	-11.6853
▁domestic	-11.6853
▁library	-11.6853
▁extent	-11.6853
▁verursachen	-11.6853
▁kreiert	-11.6853
▁Algorithmen	-11.6853
▁causing	-11.6853
▁lehren	-11.6853
▁Nobel	-11.6854
Everyone	-11.6855
my	-11.6857
▁Würde	-11.6859
▁dankbar	-11.686
▁Faktor	-11.6863
▁funding	-11.6863
▁letzter	-11.6864
▁army	-11.6866
▁eingeladen	-11.6866
▁Anruf	-11.6868
▁fixed	-11.6868
▁Lincoln	-11.6868
▁umzugehen	-11.6869
▁Shanghai	-11.6871
▁dozen	-11.6872
Mich	-11.6874
▁fan	-11.6875
▁boxes	-11.6876
▁pushing	-11.6876
schau	-11.6879
▁dense	-11.6882
▁Argument	-11.6889
gy	-11.689
▁berichtet	-11.6892
▁folgenden	-11.6896
are	-11.6896
artige	-11.6897
bank	-11.69
▁Geschäfte	-11.69
▁lebenden	-11.6903
▁Proteine	-11.6909
lung	-11.6915
▁solving	-11.6917
▁shake	-11.6919
▁Konflikte	-11.6919
bewegung	-11.6924
▁trat	-11.6925
▁grundlegenden	-11.693
▁Gebäuden	-11.6936
▁Wieder	-11.6937
▁destroy	-11.6938
▁standards	-11.6939
Other	-11.694
▁Blog	-11.6941
▁verschieden	-11.6941
▁jung	-11.6943
▁prefer	-11.6943
▁invite	-11.6944
▁dress	-11.6947
▁wunderbaren	-11.695
▁tech	-11.6951
▁careful	-11.6952
▁shall	-11.6953
▁konfrontiert	-11.6953
▁silent	-11.6953
▁Lebenserwartung	-11.6953
▁Motivation	-11.6953
▁corporate	-11.6953
▁narrow	-11.6953
▁policies	-11.6953
▁Ungleichheit	-11.6953
▁Wärme	-11.6953
▁Carolina	-11.6953
▁Sektor	-11.6953
▁inequality	-11.6953
▁1998	-11.6953
▁selection	-11.6953
▁hinterlassen	-11.6954
▁wahrnehmen	-11.6954
▁corals	-11.6954
▁Aufbau	-11.6955
▁spinal	-11.6956
▁Ingenieur	-11.6957
▁sets	-11.6958
▁kognitive	-11.6962
▁voran	-11.6963
ign	-11.6963
▁breathing	-11.6967
MS	-11.6967
igung	-11.6969
▁klassische	-11.697
gle	-11.697
▁Schweden	-11.6971
▁parking	-11.6973
▁hyper	-11.6974
▁Fahrer	-11.6974
▁worauf	-11.6975
rus	-11.6979
▁promote	-11.698
stab	-11.6981
Will	-11.6984
uff	-11.6987
▁winzig	-11.6988
Car	-11.6989
▁Computern	-11.6993
▁eigentliche	-11.7002
▁Ski	-11.7006
▁folgendes	-11.7006
▁cast	-11.7011
kan	-11.7018
press	-11.7019
lam	-11.7022
seite	-11.7024
je	-11.7024
▁Einzel	-11.7026
▁contain	-11.7026
▁Mary	-11.7028
▁Rob	-11.7029
▁zone	-11.7031
fällt	-11.7036
▁clinic	-11.7037
▁kreativ	-11.7039
▁equation	-11.704
ji	-11.7043
AT	-11.7048
▁scan	-11.7048
▁trug	-11.705
MT	-11.705
▁organism	-11.7051
▁36	-11.7052
aktion	-11.7053
▁schwimmen	-11.7053
▁spiritual	-11.7054
Heutzutage	-11.7054
▁Detroit	-11.7054
▁Klavier	-11.7054
▁earthquake	-11.7054
▁measuring	-11.7054
▁romantic	-11.7054
▁hinzufügen	-11.7054
Trotzdem	-11.7054
▁frankly	-11.7054
▁unterwegs	-11.7055
▁grundlegend	-11.7056
▁neutral	-11.7056
▁erfassen	-11.7058
nnerhalb	-11.7058
merk	-11.706
▁Erste	-11.706
▁schauten	-11.7061
▁2002	-11.7061
eten	-11.7062
▁brach	-11.7064
▁sexuelle	-11.7064
bot	-11.7066
reise	-11.7067
▁drinking	-11.707
▁Where	-11.7071
▁younger	-11.7071
▁practices	-11.7074
▁obsessed	-11.7075
▁Population	-11.7081
▁papers	-11.7083
American	-11.7083
Fast	-11.7085
erin	-11.7087
▁painful	-11.7092
▁angeht	-11.7093
geführt	-11.7095
▁illusion	-11.7095
class	-11.7097
▁route	-11.7104
▁Schmerzen	-11.7105
but	-11.7109
▁tip	-11.7114
wagen	-11.7117
▁Genau	-11.7118
uadrat	-11.7123
▁dienen	-11.7124
schule	-11.7127
▁theme	-11.713
hoo	-11.7132
lauf	-11.7134
▁Mathematiker	-11.7134
Thanks	-11.7135
▁Steuer	-11.7137
projekt	-11.7137
▁channel	-11.7143
▁neighbor	-11.7143
▁loud	-11.7145
▁mate	-11.7146
called	-11.7147
▁mach	-11.7147
▁rocks	-11.7148
volle	-11.715
stelle	-11.7152
größe	-11.7155
▁mad	-11.7155
▁interactions	-11.7155
▁brutal	-11.7155
▁Euro	-11.7156
▁Versorgung	-11.7156
▁Beijing	-11.7156
▁Symptome	-11.7156
▁chocolate	-11.7156
▁diagram	-11.7156
▁recognition	-11.7156
▁geschützt	-11.7156
▁philosophy	-11.7156
▁overcome	-11.7156
▁shelter	-11.7156
▁struck	-11.7156
▁gray	-11.7157
▁fluid	-11.7157
▁Nano	-11.7157
züge	-11.7157
▁Aufstieg	-11.7157
Finally	-11.7158
freien	-11.7158
▁2.	-11.716
▁Dienst	-11.7161
bahn	-11.7161
▁begreifen	-11.7166
▁clouds	-11.7166
Erinnern	-11.7167
ali	-11.7173
▁conventional	-11.7173
tritt	-11.7174
80	-11.7176
200	-11.7177
tron	-11.7178
▁Pollen	-11.7178
▁agreed	-11.7179
DR	-11.7181
▁Sub	-11.7183
▁unver	-11.7185
▁Faktoren	-11.7186
▁acts	-11.7188
▁continued	-11.7192
Really	-11.7192
▁mammals	-11.7203
tau	-11.7204
▁Marke	-11.7204
▁mice	-11.7204
▁grass	-11.7207
▁raw	-11.721
▁dauern	-11.721
▁ursprünglich	-11.7217
▁algorithm	-11.7217
AM	-11.7218
ueen	-11.722
sprozess	-11.722
▁Sonnen	-11.7222
karte	-11.7225
Immer	-11.7229
Come	-11.723
▁Kurve	-11.7235
▁Marken	-11.7235
▁Reaktionen	-11.7237
▁Muslims	-11.724
▁erklärte	-11.7242
▁jährlich	-11.7245
▁Last	-11.7247
▁component	-11.7248
▁harvest	-11.725
▁Sal	-11.7253
▁Staats	-11.7256
Plötzlich	-11.7259
▁Erdbeben	-11.7259
▁musikalische	-11.7259
▁Clinton	-11.7259
▁Parkinson	-11.7259
▁polio	-11.7259
▁Gipfel	-11.7259
▁carried	-11.7259
▁automatically	-11.7259
▁Hitze	-11.7259
▁rooms	-11.7259
▁agenda	-11.7259
▁cooperation	-11.7259
▁heiß	-11.726
▁Chile	-11.726
▁1.000	-11.7261
gelegt	-11.7262
▁wovon	-11.7262
strom	-11.7262
▁2020	-11.7262
▁distributed	-11.7264
▁offered	-11.7271
Technologie	-11.7271
▁optimistisch	-11.7272
▁Leber	-11.7272
▁Toten	-11.7273
▁printing	-11.7273
gh	-11.7274
▁existed	-11.7279
▁saubere	-11.7281
▁walks	-11.7282
▁tag	-11.7283
▁Nick	-11.7284
▁connecting	-11.7286
▁monkeys	-11.7287
▁eingeführt	-11.7287
vers	-11.7287
erfolg	-11.729
▁offers	-11.7293
hood	-11.7294
▁gezogen	-11.7297
▁Regierungs	-11.7297
dollar	-11.7299
Richard	-11.7299
▁optimistic	-11.7303
zieht	-11.7305
▁Male	-11.7306
▁niemanden	-11.7313
schicht	-11.7314
ille	-11.7314
▁penguins	-11.7315
▁Fahrzeug	-11.732
▁lung	-11.7321
▁Nur	-11.7322
▁consumers	-11.7323
▁shell	-11.7325
▁Kriegs	-11.7327
▁Tor	-11.7328
▁Laufen	-11.7329
figur	-11.7334
▁Amy	-11.7344
▁crack	-11.7347
▁sculpture	-11.7352
▁tank	-11.7352
▁toilet	-11.7353
▁inspire	-11.7354
▁Business	-11.7354
▁winzige	-11.7355
▁Werbe	-11.7358
▁Gesamt	-11.7359
▁Teilnehmer	-11.736
▁attract	-11.736
▁Verb	-11.7361
▁x	-11.7363
▁ernähren	-11.7363
▁Anstieg	-11.7363
▁DVD	-11.7363
▁Fantasie	-11.7363
▁defense	-11.7363
▁irgendwelche	-11.7363
▁obesity	-11.7363
▁sweat	-11.7363
▁resistance	-11.7363
▁plug	-11.7364
▁Geographic	-11.7364
▁finanziert	-11.7364
▁tube	-11.7364
▁Verlauf	-11.7364
▁performing	-11.7364
▁spill	-11.7364
▁bold	-11.7365
▁Weltbevölkerung	-11.7365
▁Saal	-11.7367
▁Meere	-11.737
▁Rose	-11.7371
▁ignore	-11.7372
▁mainly	-11.7374
▁Medica	-11.7375
▁ausgeben	-11.7376
▁shooting	-11.7377
▁Fund	-11.7378
▁befreien	-11.738
▁Watson	-11.7382
▁bedeutete	-11.7387
▁Richtungen	-11.7393
▁Delhi	-11.7394
▁Treffen	-11.7394
▁spreading	-11.7395
▁Gegenden	-11.7402
▁raising	-11.7403
Mark	-11.7407
▁magnetic	-11.7412
räumen	-11.7414
▁Henry	-11.7421
▁Lo	-11.7421
▁Frei	-11.7424
▁komplex	-11.7424
▁springen	-11.7427
▁zukünftige	-11.7428
▁Ganzen	-11.7429
▁windows	-11.7432
wachsen	-11.7433
▁log	-11.7437
▁Bedrohung	-11.744
▁Szene	-11.744
▁Theorien	-11.7454
▁liebte	-11.7458
▁elephant	-11.7459
▁escape	-11.7459
▁particle	-11.7459
▁besuchte	-11.7461
▁placed	-11.7461
▁Richtige	-11.7463
▁habitat	-11.7464
don	-11.7468
▁crucial	-11.7469
▁exploring	-11.7469
▁surveillance	-11.7469
▁Berlin	-11.7469
▁berühren	-11.7469
▁ceiling	-11.7469
▁zurückkehren	-11.7469
▁awesome	-11.7469
▁Entwurf	-11.7469
▁Dunkelheit	-11.7469
▁Brustkrebs	-11.7469
▁County	-11.7469
▁erfüllen	-11.7469
▁seht	-11.7469
▁dramatically	-11.7469
Normalerweise	-11.7469
▁Wichtigste	-11.7469
▁rufen	-11.747
▁Bibel	-11.747
▁Mangel	-11.747
▁wach	-11.747
▁2030	-11.7471
▁beigebracht	-11.7473
▁pretend	-11.7474
▁anpassen	-11.7477
▁intuitive	-11.7478
▁Antibiotika	-11.7479
▁jegliche	-11.748
▁represented	-11.7482
▁grandfather	-11.7482
▁cash	-11.7482
▁Dutzend	-11.7494
▁BIP	-11.7494
▁Atom	-11.7495
▁outcomes	-11.7497
▁dunkel	-11.7497
▁Vagina	-11.7497
▁seed	-11.7501
▁limb	-11.7501
▁Russian	-11.7503
▁Cor	-11.7507
▁rum	-11.7508
▁innere	-11.751
▁Meine	-11.751
▁Gebrauch	-11.7513
Kurz	-11.7514
ute	-11.7516
▁nationale	-11.752
▁arguments	-11.7521
▁Gute	-11.753
▁Nelson	-11.753
Any	-11.753
▁Kameras	-11.7531
▁increases	-11.7532
▁beeindruckend	-11.7535
▁Lee	-11.7535
▁besucht	-11.7537
trieb	-11.7538
räume	-11.7541
pel	-11.7546
▁Eigenschaft	-11.7547
▁verschiedener	-11.7552
▁wertvoll	-11.7555
▁consume	-11.7557
▁Bell	-11.7558
▁Ke	-11.7561
▁Alters	-11.7562
▁Stiftung	-11.7564
▁drill	-11.7566
▁criminal	-11.7566
py	-11.7567
▁Organe	-11.7568
▁Ingenieure	-11.7568
haltung	-11.7569
▁Flagge	-11.7569
▁extinct	-11.7571
Design	-11.7574
▁thick	-11.7574
▁tuna	-11.7575
▁November	-11.7575
▁enemy	-11.7575
▁microscope	-11.7575
▁Italien	-11.7575
▁Rwanda	-11.7575
▁reduction	-11.7575
▁Congo	-11.7575
▁hardware	-11.7576
▁fascinated	-11.7576
▁Stone	-11.7576
▁Kuh	-11.7577
▁Inter	-11.7577
▁properly	-11.7578
▁Feind	-11.7578
gar	-11.758
▁urge	-11.758
zer	-11.758
▁ländlichen	-11.7581
▁geo	-11.7582
▁Newton	-11.7583
▁vorhin	-11.7584
▁Inneren	-11.7591
▁wise	-11.7593
▁Chinesen	-11.7595
▁verrückte	-11.7595
ou	-11.7596
▁antibiotics	-11.7599
▁borders	-11.7601
▁blau	-11.7601
▁presented	-11.7603
Woman	-11.7603
▁Wahlen	-11.7604
rren	-11.7609
elt	-11.761
▁schw	-11.761
▁expectations	-11.7612
teilen	-11.7618
▁rescue	-11.762
pers	-11.7621
▁cm	-11.7627
▁traditionelle	-11.763
▁zusätzlich	-11.763
allowing	-11.7634
▁rat	-11.7635
▁liver	-11.7636
Uns	-11.7637
▁Ei	-11.7638
▁enden	-11.7638
▁moralischen	-11.7638
▁Stamm	-11.7645
pen	-11.7647
▁grün	-11.7647
▁gesunden	-11.7651
▁Verbesserung	-11.7654
▁Stift	-11.7654
nne	-11.7656
▁Schulter	-11.7656
▁sc	-11.7656
▁Mai	-11.7657
▁starken	-11.7659
gebracht	-11.7661
bie	-11.7662
▁react	-11.7665
▁kaufte	-11.7669
schließen	-11.7671
▁31	-11.7672
▁leiten	-11.7674
▁lecture	-11.7674
▁sport	-11.7677
leiter	-11.7678
ät	-11.7679
▁Tu	-11.7681
▁courage	-11.7682
▁Niveau	-11.7682
▁astonishing	-11.7682
▁plenty	-11.7683
▁indicate	-11.7683
▁neither	-11.7683
▁Gleichgewicht	-11.7683
▁stack	-11.7683
▁bedeckt	-11.7683
▁Verkauf	-11.7683
▁herself	-11.7683
▁vielmehr	-11.7684
▁scary	-11.7685
▁machst	-11.7685
▁PC	-11.7688
Abou	-11.7691
▁directions	-11.7691
▁Statistik	-11.7692
oder	-11.7692
▁ausmacht	-11.7694
▁anzusehen	-11.7696
wind	-11.7698
▁Unternehmens	-11.7701
▁traveled	-11.7702
▁Privatsphäre	-11.7702
unwahrscheinlich	-11.7704
▁Projekten	-11.7712
▁Presse	-11.7713
▁immune	-11.7717
med	-11.7721
▁Leonardo	-11.7724
▁Erkenntnisse	-11.7725
▁technischen	-11.7728
▁Bu	-11.7728
▁besonderen	-11.7731
bildung	-11.7731
tragen	-11.7731
▁Level	-11.7733
▁Funktionen	-11.7736
▁pitch	-11.7739
kreis	-11.7742
▁involves	-11.7743
▁inspirieren	-11.7746
upp	-11.7747
▁grossen	-11.775
▁brief	-11.7751
lb	-11.7752
▁vessels	-11.7753
▁pet	-11.7753
▁tiefe	-11.7757
eign	-11.7761
▁Nachbarschaft	-11.7762
▁Zähne	-11.7763
▁Dame	-11.7765
▁mathematische	-11.7768
steht	-11.7768
raten	-11.7775
▁extend	-11.7776
▁broad	-11.7776
▁planen	-11.7777
▁gründete	-11.7778
▁origin	-11.7779
▁wiederholt	-11.778
▁schlägt	-11.7785
▁pocket	-11.7785
▁disorder	-11.7785
▁unsichtbar	-11.7785
▁allgemein	-11.7786
▁kritische	-11.7786
gesch	-11.7787
Dan	-11.7788
▁intense	-11.7788
essen	-11.779
▁Angebot	-11.7791
▁Geschmack	-11.7791
▁emergency	-11.7791
▁furniture	-11.7791
▁gestartet	-11.7791
▁orchestra	-11.7791
▁Medium	-11.7791
kunst	-11.7791
▁bend	-11.7791
▁distant	-11.7791
▁MRI	-11.7791
▁productivity	-11.7791
▁concert	-11.7792
▁rising	-11.7792
▁Vorschlag	-11.7792
▁Teams	-11.7792
▁elite	-11.7793
▁precisely	-11.7794
▁Islamic	-11.7794
▁January	-11.7794
▁controlling	-11.7795
▁neigen	-11.7796
▁beitragen	-11.7796
▁savings	-11.7797
▁Führungs	-11.7798
▁destroyed	-11.7798
▁2:	-11.7799
▁On	-11.7801
▁sexy	-11.7805
▁brothers	-11.7809
▁Gespräche	-11.7809
▁oberen	-11.7811
▁Dialog	-11.7811
gestellt	-11.7813
wort	-11.7815
▁Investitionen	-11.7815
▁paintings	-11.7819
roll	-11.782
▁Stephen	-11.7821
tail	-11.7828
gekommen	-11.783
für	-11.7833
mine	-11.7833
hang	-11.7834
▁klug	-11.7836
▁ethical	-11.7838
▁wieviel	-11.7838
▁30-	-11.7839
▁spoken	-11.7841
▁Leid	-11.7842
▁Preise	-11.7846
▁June	-11.7849
century	-11.7849
rei	-11.785
▁technische	-11.7851
▁sales	-11.7852
q	-11.7853
Test	-11.7854
▁cute	-11.7854
iges	-11.7859
olds	-11.786
▁Den	-11.7861
opt	-11.7862
▁Cl	-11.7863
ami	-11.7863
▁designs	-11.7871
Mails	-11.7871
▁Schweine	-11.7871
Tell	-11.7873
app	-11.7874
that	-11.7875
design	-11.7877
▁Wach	-11.7879
nom	-11.7879
lies	-11.788
▁Stil	-11.7881
▁review	-11.7884
▁bill	-11.7889
stern	-11.7889
kurs	-11.789
▁Trend	-11.7894
▁Hey	-11.7895
▁fruit	-11.7895
▁Widerstand	-11.7896
▁download	-11.7896
▁Sweden	-11.7901
▁ausgewählt	-11.7901
▁curiosity	-11.7901
▁diabetes	-11.7901
▁drove	-11.7901
▁stroke	-11.7901
▁Weibchen	-11.7901
Next	-11.7901
▁adventure	-11.7901
▁fliegt	-11.7901
▁gezwungen	-11.7901
▁naja	-11.7902
▁accessible	-11.7902
▁chest	-11.7902
▁Andrew	-11.7902
▁Batterie	-11.7902
▁westliche	-11.7903
▁engagement	-11.7903
▁recovery	-11.7904
▁Haare	-11.7904
▁till	-11.7904
▁Höhepunkt	-11.7905
▁golf	-11.7905
▁personality	-11.7906
▁Spektrum	-11.7906
▁tries	-11.7907
▁350	-11.7907
▁usual	-11.7909
▁blame	-11.7909
▁entered	-11.7912
▁laughing	-11.7915
▁angehen	-11.7916
Hinter	-11.7918
▁37	-11.7918
▁rep	-11.7919
▁Atlantic	-11.7921
▁Gletscher	-11.7921
teressanterweise	-11.7923
▁Polio	-11.7925
▁inspiring	-11.7926
▁Umständen	-11.7926
▁Jane	-11.7927
▁Daniel	-11.7927
too	-11.7928
ata	-11.7929
▁soweit	-11.7931
▁Kapitalismus	-11.7931
▁vierte	-11.7932
▁interessanten	-11.7932
Ka	-11.7935
▁brechen	-11.7936
▁Nahrungs	-11.7939
▁breaking	-11.7941
▁kleinere	-11.7942
▁afrikanische	-11.7943
iff	-11.7946
▁Achse	-11.7949
▁rechte	-11.7953
preis	-11.7954
▁Matt	-11.7957
▁biologischen	-11.796
▁Prozesse	-11.7961
▁winzigen	-11.7962
▁teams	-11.7964
produkt	-11.7964
Programm	-11.7965
▁Wachstums	-11.7965
▁Haie	-11.7971
▁zurückgehen	-11.7974
▁atmen	-11.7975
▁drehte	-11.7978
▁Systemen	-11.7979
funktion	-11.7983
▁gewann	-11.7983
icht	-11.7984
▁functional	-11.7984
▁jenen	-11.7985
▁Alternative	-11.7985
▁Katze	-11.7987
▁sinnvoll	-11.7991
▁document	-11.7992
▁Durchschnitts	-11.7994
ony	-11.7998
▁Training	-11.8001
modell	-11.8003
▁Ali	-11.8004
pass	-11.8005
▁Nations	-11.8007
▁spider	-11.8008
▁tower	-11.8011
▁description	-11.8012
▁external	-11.8012
▁identifizieren	-11.8012
▁request	-11.8012
▁öfter	-11.8012
▁entertainment	-11.8012
▁gemessen	-11.8013
▁Umgang	-11.8013
▁colony	-11.8013
tik	-11.8013
▁Block	-11.8014
unclear	-11.8014
▁Nachfrage	-11.8014
▁flash	-11.8015
▁attached	-11.8016
▁Neuigkeiten	-11.8016
▁Terroristen	-11.8018
Darüber	-11.8019
▁Philosophie	-11.8019
Bill	-11.802
▁heroes	-11.802
▁Betrieb	-11.8021
▁appeared	-11.8022
▁berechnen	-11.8022
▁conflicts	-11.8023
▁divided	-11.8023
▁Kevin	-11.8024
▁ausmachen	-11.8025
hren	-11.8028
▁Fest	-11.803
eres	-11.8033
▁IBM	-11.8034
▁earn	-11.8035
▁Januar	-11.8036
0,000	-11.8038
▁Ocean	-11.8039
▁Flächen	-11.8044
▁surely	-11.8046
▁Gedichte	-11.8048
▁spa	-11.8048
▁glücklicher	-11.805
▁Können	-11.805
▁heiße	-11.8052
▁graphic	-11.8053
▁beliebt	-11.8055
60	-11.8058
äre	-11.8058
▁Rick	-11.8062
▁Tri	-11.8063
▁worker	-11.8064
▁Bier	-11.8069
▁End	-11.8075
▁änderte	-11.8076
Life	-11.8078
New	-11.808
▁lovely	-11.8081
▁customers	-11.8083
▁Mehr	-11.8084
sgeschichte	-11.8084
▁muscles	-11.8085
▁reaching	-11.8088
▁Kreuz	-11.8089
▁prices	-11.809
▁appears	-11.809
▁Partei	-11.8096
▁Ausnahme	-11.8097
▁Sorge	-11.8098
▁positiv	-11.8099
urf	-11.81
▁schlau	-11.81
Frauen	-11.8102
▁Summe	-11.8103
▁stands	-11.8107
▁Lass	-11.8108
▁imagined	-11.8112
▁Mathe	-11.8114
▁Dichter	-11.8115
▁privilege	-11.8115
sprache	-11.8115
▁schnelle	-11.8116
▁gather	-11.8116
▁fabric	-11.8118
lia	-11.8121
zeichen	-11.8123
▁Katastrophe	-11.8123
treten	-11.8124
▁lächerlich	-11.8125
▁Autismus	-11.8125
▁Flüssigkeit	-11.8125
▁dazwischen	-11.8125
▁dignity	-11.8125
▁scratch	-11.8125
▁suicide	-11.8125
▁committed	-11.8125
star	-11.8125
▁1999	-11.8125
▁export	-11.8125
▁Pause	-11.8126
▁Vorgang	-11.8126
▁Gegenstände	-11.8126
▁komplexer	-11.8126
▁density	-11.8127
mission	-11.8127
spielen	-11.8132
▁Ballon	-11.8133
▁peer	-11.8134
Würden	-11.8134
▁shoulder	-11.8135
▁ersetzt	-11.8138
18	-11.8145
▁Speicher	-11.8145
▁eingebaut	-11.8146
▁interacting	-11.8148
▁gelassen	-11.8148
▁Stoff	-11.8149
▁höchste	-11.8149
▁stimmen	-11.8151
▁circuit	-11.8152
▁stieg	-11.8152
▁organisiert	-11.8153
▁radikal	-11.8154
▁gross	-11.8154
▁efforts	-11.8159
▁begrenzt	-11.8159
▁concepts	-11.8159
▁Reich	-11.8162
▁mitnehmen	-11.8163
▁Diabetes	-11.8164
▁dunklen	-11.8168
▁entscheidende	-11.8171
ular	-11.8172
fahrt	-11.8172
ica	-11.8175
kte	-11.8176
▁ökonomische	-11.8176
▁pin	-11.8179
esten	-11.8181
Hallo	-11.8192
führt	-11.8192
▁Verkehr	-11.8192
▁thrown	-11.8194
Mi	-11.8198
▁comment	-11.8202
▁males	-11.8205
zeug	-11.8206
▁organize	-11.8207
▁verlor	-11.821
Kommen	-11.821
denken	-11.821
▁könne	-11.821
▁Handlung	-11.821
sitz	-11.8211
▁freie	-11.8219
▁Mitglieder	-11.822
bin	-11.8222
▁mächtig	-11.8223
▁corn	-11.8229
▁bekannte	-11.8229
▁Look	-11.8233
▁treiben	-11.8233
▁Pole	-11.8234
▁löst	-11.8235
▁Pass	-11.8237
▁CEO	-11.8237
▁LED	-11.8237
▁Kl	-11.8237
▁grateful	-11.8237
▁apartment	-11.8238
▁colleague	-11.8238
▁Ruhe	-11.8238
▁Hölle	-11.8238
▁embedded	-11.8238
▁korrekt	-11.8238
▁reparieren	-11.8238
▁yield	-11.8238
▁viral	-11.8238
▁adjust	-11.8238
▁stirbt	-11.8238
▁dioxide	-11.8238
▁Einfachheit	-11.8238
▁Logik	-11.8238
▁ugly	-11.8238
▁Hong	-11.8239
▁hindurch	-11.8239
▁alien	-11.8239
▁benutze	-11.8239
▁pyramid	-11.8239
▁Designs	-11.824
▁Brand	-11.824
▁objective	-11.824
lle	-11.8241
how	-11.8244
▁grows	-11.8245
▁representation	-11.8245
▁virtually	-11.8246
▁Metern	-11.8247
▁Tony	-11.8248
▁Verteidigung	-11.8249
▁demonstration	-11.825
▁repräsentiert	-11.8253
konomen	-11.8255
erei	-11.8258
▁Einrichtungen	-11.8259
70	-11.8259
bett	-11.8259
▁Plattform	-11.8259
Klar	-11.826
▁cheaper	-11.8261
▁weißt	-11.8262
▁achieved	-11.8263
til	-11.8263
blick	-11.8268
▁Black	-11.8272
zelle	-11.8281
▁populations	-11.8286
uß	-11.8286
ets	-11.8288
werfen	-11.8291
gegeben	-11.8295
air	-11.8301
▁bildet	-11.8304
▁units	-11.8305
▁wenden	-11.8306
minute	-11.8311
▁tasks	-11.8313
gal	-11.8315
▁plays	-11.8316
▁volunteers	-11.8325
▁fed	-11.8326
▁Scott	-11.8327
tür	-11.833
▁Schlacht	-11.8332
gan	-11.8336
▁Hunderte	-11.8337
Reg	-11.8338
▁Werke	-11.8339
▁estimate	-11.8343
stoß	-11.8343
▁Küche	-11.8346
▁talent	-11.8348
▁section	-11.8348
▁anstelle	-11.8353
▁Knopf	-11.8353
▁analysieren	-11.8353
▁angepasst	-11.8353
▁gewöhnt	-11.8353
▁heiraten	-11.8353
▁insurance	-11.8353
▁sensation	-11.8353
▁skeleton	-11.8353
▁Ausrüstung	-11.8353
▁leap	-11.8353
▁Virginia	-11.8353
▁Wright	-11.8353
▁Nahrungsmittel	-11.8353
▁Verteilung	-11.8354
▁jüngste	-11.8354
▁footage	-11.8354
bergang	-11.8354
▁ignorieren	-11.8355
▁weh	-11.8355
▁lens	-11.8355
▁gebildet	-11.8355
▁Klinik	-11.8355
▁Euch	-11.8356
▁belong	-11.8358
▁50,000	-11.8358
▁sheep	-11.8359
▁autonomous	-11.8363
▁Figur	-11.8365
▁Komponenten	-11.8365
cellular	-11.8366
▁spell	-11.8368
Get	-11.8368
▁ill	-11.8369
▁axis	-11.837
▁Hawaii	-11.8371
▁gear	-11.8374
▁Shakespeare	-11.8374
▁Sammlung	-11.8374
▁Schreiben	-11.8379
bilder	-11.8379
▁magische	-11.8379
version	-11.838
chten	-11.8382
▁Age	-11.8384
▁aspects	-11.8387
LG	-11.8388
▁recognized	-11.839
▁gesetzt	-11.8391
JA	-11.8392
▁hassen	-11.8393
▁realm	-11.8394
▁faszinierende	-11.8395
▁Strategien	-11.8396
▁20-	-11.8396
▁reported	-11.8401
▁schaue	-11.8401
▁Feynman	-11.8404
▁spannend	-11.8406
▁Pi	-11.8409
▁Großen	-11.8415
▁Terror	-11.8415
▁allgemeine	-11.8416
▁Präsidenten	-11.842
▁Tal	-11.8425
basierte	-11.8428
▁incentives	-11.843
▁Ursache	-11.843
Computer	-11.843
▁Chip	-11.8431
▁komisch	-11.8434
▁toy	-11.8436
spieler	-11.8437
▁Ehre	-11.844
▁Füße	-11.8441
▁interpret	-11.8447
▁einzigartig	-11.8451
▁Research	-11.8452
ini	-11.8453
▁discuss	-11.8454
▁cry	-11.8455
▁reveal	-11.8456
▁Wälder	-11.8459
▁file	-11.8462
▁intensive	-11.8463
▁killer	-11.8464
geschäft	-11.8466
Girl	-11.8466
reißen	-11.8469
▁Bedarf	-11.8469
Narrator	-11.8469
▁Bewohner	-11.8469
▁Verlangen	-11.8469
▁frozen	-11.8469
▁schief	-11.8469
▁ladies	-11.8469
▁brown	-11.8469
▁elsewhere	-11.847
▁horizontal	-11.847
▁1900	-11.847
▁telescope	-11.8471
▁equality	-11.8471
▁opposed	-11.8472
▁halt	-11.8472
▁Gestaltung	-11.8472
ieg	-11.8472
▁cup	-11.8473
▁gesunde	-11.8474
▁mold	-11.8474
Dadurch	-11.8475
▁mittlerweile	-11.8477
▁erwähnen	-11.8477
logen	-11.8477
▁20,000	-11.8477
RM	-11.848
▁accepted	-11.848
▁Sensoren	-11.848
▁McDonald	-11.8481
▁Schwarze	-11.8481
ice	-11.8482
▁übersetzt	-11.8483
▁neuron	-11.8484
▁conservative	-11.8484
▁Dieses	-11.8486
▁Abenteuer	-11.8488
▁signed	-11.8488
▁collecting	-11.8489
▁shadow	-11.8491
▁Proben	-11.8498
▁SETI	-11.8501
▁People	-11.8501
▁Redwood	-11.8501
DP	-11.8502
▁höchst	-11.8504
▁sharp	-11.8504
▁pal	-11.8505
bal	-11.8511
verse	-11.8512
▁Teleskop	-11.8515
▁Schwestern	-11.8523
▁Komm	-11.8523
getreten	-11.8524
▁Hilfs	-11.8524
▁Bildungs	-11.8529
▁saßen	-11.8538
▁Handeln	-11.8539
brechen	-11.8539
▁officer	-11.8541
▁psychische	-11.8543
▁polar	-11.8547
gebiet	-11.8548
▁sozialer	-11.8548
▁einzigartige	-11.8549
Michael	-11.8551
▁para	-11.8552
▁Systems	-11.8552
▁dolphins	-11.8561
▁vieler	-11.8565
mitten	-11.8566
▁hip	-11.8573
▁Hill	-11.8573
hor	-11.8585
▁Bedürfnis	-11.8586
▁Täuschung	-11.8587
▁irrational	-11.8587
▁legacy	-11.8587
▁simplicity	-11.8587
▁spectacular	-11.8587
▁neuroscience	-11.8587
▁getestet	-11.8587
Jedenfalls	-11.8587
bruch	-11.8587
▁strategies	-11.8588
▁icon	-11.8588
▁neighborhoods	-11.8588
▁dedicated	-11.8589
▁tired	-11.8591
▁kg	-11.8593
▁oldest	-11.8593
gesetzt	-11.8594
▁Pferd	-11.8594
▁disappeared	-11.8594
▁womit	-11.8595
▁geschlossen	-11.8595
▁Ju	-11.8599
▁lernten	-11.8603
▁Wurzeln	-11.8604
treating	-11.8605
ration	-11.8606
▁Medikamenten	-11.8607
▁captured	-11.8607
▁Ethiopia	-11.8607
▁pursue	-11.8608
▁dig	-11.8608
▁schwerer	-11.8611
▁Muskeln	-11.8611
▁magical	-11.8611
▁molekulare	-11.8612
von	-11.8613
▁backwards	-11.8622
▁jenem	-11.8626
▁Shi	-11.8628
▁electronics	-11.8628
anhand	-11.8628
▁angle	-11.8629
ez	-11.8629
▁Lake	-11.8631
▁toys	-11.8634
ification	-11.8635
tell	-11.8639
▁öffnet	-11.864
Werden	-11.8642
▁Seil	-11.8643
▁130	-11.8645
▁genetisch	-11.8645
▁Pu	-11.8646
▁riesiges	-11.8655
▁resolution	-11.8659
werte	-11.8664
Bahn	-11.8666
ssen	-11.8667
free	-11.8671
▁generated	-11.8672
wenn	-11.8675
get	-11.8675
▁Kugel	-11.8678
▁Probe	-11.8682
▁ältere	-11.8684
▁Spar	-11.8686
▁schickte	-11.8687
▁Universitäten	-11.8689
wing	-11.8689
späten	-11.869
▁slides	-11.8692
▁implant	-11.8695
▁arrive	-11.8697
▁Vergnügen	-11.8698
▁aggressive	-11.87
▁via	-11.8701
will	-11.8703
▁vertical	-11.8703
▁initial	-11.8703
▁analog	-11.8703
Jo	-11.8703
▁historical	-11.8704
Anders	-11.8705
▁Entstehung	-11.8706
▁Hügel	-11.8706
▁Schädel	-11.8706
▁boundaries	-11.8706
▁geeignet	-11.8706
▁ridiculous	-11.8706
▁hungry	-11.8706
▁vermittelt	-11.8706
▁Reichtum	-11.8706
▁erfasst	-11.8706
▁tragedy	-11.8706
▁feiern	-11.8706
▁football	-11.8706
Indeed	-11.8707
baren	-11.8707
▁Menschlichkeit	-11.8707
▁theories	-11.8707
▁hilfreich	-11.8708
▁lake	-11.8708
▁lamp	-11.8708
▁Wut	-11.8708
▁verbraucht	-11.8709
▁exposed	-11.871
▁darkness	-11.871
▁Kilo	-11.871
▁Standpunkt	-11.8711
fried	-11.8711
▁weapon	-11.8711
▁stammen	-11.8712
▁drum	-11.8714
quot	-11.8716
bon	-11.8717
▁Nordamerika	-11.8718
▁wahren	-11.8718
▁Ohr	-11.872
▁anscheinend	-11.8721
▁Monterey	-11.8721
▁removed	-11.8721
▁contains	-11.8723
▁politisch	-11.8723
ira	-11.8725
▁schlimmsten	-11.8727
▁Prototypen	-11.8728
▁quit	-11.8729
schein	-11.8733
▁describes	-11.8736
▁nahezu	-11.874
▁bow	-11.874
▁searching	-11.8741
▁Gebieten	-11.8741
▁Katzen	-11.8741
▁Philip	-11.8749
▁globally	-11.8751
▁einiges	-11.8752
▁Van	-11.8755
ita	-11.8756
▁Anwendungen	-11.8759
isierte	-11.876
▁NGOs	-11.8761
▁professionelle	-11.8767
▁meter	-11.877
▁eingehen	-11.877
▁Nahe	-11.8774
▁unterrichtet	-11.8775
ably	-11.8775
▁Doktor	-11.8775
▁iron	-11.8781
▁goods	-11.8786
▁Pinguine	-11.8787
geist	-11.8792
▁Gra	-11.8793
▁gelbe	-11.8793
wood	-11.8796
▁Wände	-11.8799
▁kümmert	-11.88
▁Gar	-11.8806
▁hearts	-11.8806
▁Have	-11.8807
lac	-11.8808
füll	-11.8812
tun	-11.8813
Six	-11.8813
mmel	-11.8813
leidenschaftlich	-11.8815
▁beliefs	-11.8817
▁calculate	-11.8817
formen	-11.8822
▁Bitte	-11.8824
▁label	-11.8826
▁Soviet	-11.8827
▁Tränen	-11.8827
▁advertising	-11.8827
▁charity	-11.8827
▁facial	-11.8827
▁insgesamt	-11.8827
▁reputation	-11.8827
▁senior	-11.8827
▁smooth	-11.8827
▁universities	-11.8827
▁Sätze	-11.8827
▁governance	-11.8827
▁subtle	-11.8827
▁Bürgermeister	-11.8827
krieg	-11.8827
▁Organismus	-11.8827
▁Staub	-11.8827
▁salt	-11.8828
▁laughter	-11.8828
▁march	-11.8828
lla	-11.8828
▁Bible	-11.8828
▁northern	-11.8829
▁profile	-11.8829
▁essence	-11.883
▁unlikely	-11.8831
▁leak	-11.8832
▁richten	-11.8833
▁Watt	-11.8834
▁linke	-11.8834
▁Bürgerkrieg	-11.8835
▁photography	-11.8835
▁crying	-11.8836
▁Weltall	-11.8838
▁Eastern	-11.884
srate	-11.884
▁load	-11.8842
▁Effizienz	-11.8842
verkehr	-11.8843
▁touched	-11.8848
▁abgesehen	-11.8848
▁Schauspieler	-11.8853
▁April	-11.8856
inblick	-11.8858
▁Cyber	-11.8859
▁passive	-11.886
▁chosen	-11.8864
▁Ch	-11.8866
▁simulation	-11.8866
▁dot	-11.8866
ties	-11.8867
▁Einblick	-11.8872
▁aside	-11.8878
▁umso	-11.8879
▁48	-11.8881
spitze	-11.8881
▁Service	-11.8883
▁Stewart	-11.8883
▁ingredients	-11.8884
Schon	-11.8886
▁Mach	-11.8892
rechte	-11.8895
▁zurecht	-11.8896
▁Resultate	-11.8897
▁Farm	-11.8903
▁god	-11.8908
▁wirft	-11.8911
pul	-11.8916
▁Patent	-11.8919
fläche	-11.8919
▁Umstände	-11.8921
berall	-11.8926
▁actors	-11.8932
▁reefs	-11.8932
made	-11.8936
▁poll	-11.8939
▁Große	-11.8941
▁suspect	-11.8942
▁Juni	-11.8943
cul	-11.8943
▁Oberflächen	-11.8944
▁Büchern	-11.8946
▁Unterwasser	-11.8947
▁ta	-11.8947
lass	-11.8948
▁Berkeley	-11.8949
▁Käfer	-11.8949
▁Lächeln	-11.8949
▁decrease	-11.8949
▁geöffnet	-11.8949
▁inklusive	-11.8949
▁inzwischen	-11.8949
▁origami	-11.8949
▁probability	-11.8949
▁Seattle	-11.8949
▁domain	-11.8949
brigens	-11.8949
▁Front	-11.8949
▁aircraft	-11.8949
▁Globalisierung	-11.8949
▁underground	-11.8949
▁Wasserstoff	-11.8949
zo	-11.895
▁storm	-11.8951
▁golden	-11.8951
▁demonstrate	-11.8952
▁Lebensraum	-11.8952
Beide	-11.8954
▁locked	-11.8954
▁vorgestellt	-11.8955
▁Stock	-11.8955
▁Marine	-11.8956
▁mechanics	-11.8958
▁par	-11.8958
▁Architekt	-11.8959
▁tricks	-11.8959
▁Jerusalem	-11.8961
▁missed	-11.8961
▁meetings	-11.8963
▁gu	-11.8965
▁72	-11.8966
bas	-11.8967
sländer	-11.8967
hafte	-11.8967
▁Lungen	-11.8971
▁seeds	-11.8971
▁Fliege	-11.8975
auto	-11.8976
▁verliebt	-11.8976
▁Katastrophen	-11.8979
▁Handlungen	-11.8979
neu	-11.8982
▁al	-11.8985
▁protecting	-11.8986
▁Konzepte	-11.8989
tsch	-11.899
▁mächtige	-11.8994
▁tanzen	-11.8995
▁trends	-11.8998
▁mail	-11.8999
▁Rollen	-11.9
▁Fahrzeuge	-11.9
▁unendlich	-11.9001
▁explosion	-11.9002
tze	-11.9006
▁surf	-11.9016
▁quer	-11.9017
▁virtuelle	-11.9018
▁unglücklich	-11.9022
erung	-11.9025
▁Hy	-11.9032
▁coat	-11.9032
▁Nutzer	-11.9033
▁methods	-11.9038
▁Vier	-11.9041
▁Fischer	-11.9045
▁gefährliche	-11.9051
tus	-11.9052
human	-11.9053
Gott	-11.9054
▁3.	-11.9055
rand	-11.9056
▁früheren	-11.9057
▁stations	-11.9058
▁bias	-11.906
Gehen	-11.9061
▁Hinweise	-11.9061
▁youth	-11.9063
▁steal	-11.9064
▁advance	-11.9067
▁flog	-11.907
▁sum	-11.9071
▁Alkohol	-11.9072
▁Beschreibung	-11.9072
▁Everest	-11.9072
▁chief	-11.9072
▁nachdenkt	-11.9072
▁shrimp	-11.9072
▁skull	-11.9072
▁translation	-11.9072
▁jeweils	-11.9072
Should	-11.9072
forscher	-11.9072
▁plain	-11.9072
▁Indus	-11.9072
▁Geruch	-11.9072
▁stets	-11.9072
▁Konsumenten	-11.9072
▁Mount	-11.9072
▁festgestellt	-11.9073
▁1930	-11.9073
▁passenger	-11.9073
▁debt	-11.9073
▁nebenbei	-11.9073
▁affordable	-11.9074
▁Santa	-11.9075
▁hingehen	-11.9076
▁Löwen	-11.9076
Hat	-11.9076
▁geh	-11.9076
▁hire	-11.9077
▁iPod	-11.908
▁knee	-11.908
lange	-11.9081
▁physicist	-11.9081
▁continues	-11.9081
▁amongst	-11.9083
▁Kar	-11.9086
pfen	-11.909
▁Planung	-11.91
Sorry	-11.9104
▁günstig	-11.9105
▁unternehmen	-11.9106
firma	-11.9107
AG	-11.9111
▁schöner	-11.9112
Sollte	-11.9114
ups	-11.9115
▁gemein	-11.9115
▁Techniken	-11.9117
Nichts	-11.9123
grade	-11.9124
▁grave	-11.9125
▁strip	-11.9125
▁dramatisch	-11.9131
▁Friedens	-11.9132
▁symbols	-11.9134
▁technologische	-11.9135
Dienstleistungen	-11.9139
prozess	-11.9141
▁east	-11.9143
Part	-11.9146
▁echtes	-11.9148
▁relations	-11.9149
hai	-11.9149
▁Sarah	-11.9151
▁Mannes	-11.9153
▁Arthur	-11.9154
ache	-11.916
ionen	-11.9166
▁bug	-11.9168
▁musicians	-11.9168
▁Waffe	-11.9169
▁verließ	-11.9169
power	-11.917
Wirklich	-11.9173
gleich	-11.9175
book	-11.9178
▁enormen	-11.9179
Human	-11.9179
▁setzten	-11.9183
▁komplette	-11.9184
▁Vers	-11.9185
letting	-11.919
▁wi	-11.9193
▁gewaltige	-11.9194
Darauf	-11.9196
▁nano	-11.9196
▁Enkel	-11.9197
▁Anpassung	-11.9197
▁Vermögen	-11.9197
▁diskutiert	-11.9197
▁ehemalige	-11.9197
▁intuition	-11.9197
▁pandemic	-11.9197
▁pioneer	-11.9197
▁pregnant	-11.9197
▁erfordert	-11.9197
▁letztlich	-11.9197
▁Jewish	-11.9197
▁Eigentum	-11.9197
▁Simulation	-11.9197
▁glad	-11.9197
▁Sprung	-11.9197
▁minus	-11.9197
▁keyboard	-11.9198
▁verstecken	-11.9198
▁isoliert	-11.9198
▁slice	-11.9198
▁geraten	-11.9198
▁apparently	-11.9198
▁Spring	-11.9199
▁Antrieb	-11.9199
Zurück	-11.9199
▁dirty	-11.9201
Gerade	-11.9202
▁Bauch	-11.9203
▁antworten	-11.9203
▁Maßnahmen	-11.9203
▁official	-11.9204
▁Gesichts	-11.9204
▁achievement	-11.9205
holen	-11.9205
▁gebrochen	-11.9206
▁neck	-11.9206
▁Möbel	-11.9216
▁stepp	-11.9218
▁symmetry	-11.922
iest	-11.9221
▁irgendein	-11.9222
▁Fremden	-11.9222
organisationen	-11.9222
▁Reisen	-11.9224
▁billig	-11.9225
▁rush	-11.9225
▁Stille	-11.9228
LT	-11.923
▁wanting	-11.9231
hören	-11.9238
▁Laser	-11.9241
▁dringend	-11.9246
▁empfinden	-11.9248
▁benutzten	-11.9248
▁Ansichten	-11.9252
▁printer	-11.9253
▁Geschlecht	-11.9256
▁wound	-11.9259
▁bother	-11.9262
▁fifth	-11.9263
▁Gefahren	-11.9264
nation	-11.9265
▁tears	-11.9272
▁Ah	-11.9272
▁pot	-11.9273
▁Harry	-11.9274
Ta	-11.928
▁cap	-11.928
▁crops	-11.9285
▁pause	-11.9291
▁Dinger	-11.9292
▁Tasche	-11.9296
pack	-11.9296
▁Lehr	-11.9296
▁tribes	-11.9297
▁reicher	-11.9297
▁beschränkt	-11.9302
▁Mitglied	-11.9311
▁recover	-11.9315
▁rap	-11.9316
▁formal	-11.9318
▁produces	-11.9321
▁Therapie	-11.9322
würdig	-11.9324
▁Department	-11.9324
▁Erziehung	-11.9324
▁Mumbai	-11.9324
▁absurd	-11.9324
▁diskutieren	-11.9324
▁gelehrt	-11.9324
▁mysterious	-11.9324
▁substance	-11.9324
▁transparency	-11.9324
▁wheelchair	-11.9324
▁paradox	-11.9324
▁sorgfältig	-11.9324
▁verzweifelt	-11.9324
▁Rosling	-11.9324
▁japanische	-11.9324
▁Direktor	-11.9324
▁Blickwinkel	-11.9324
▁airport	-11.9325
▁tauchen	-11.9325
▁verteilen	-11.9325
▁poly	-11.9325
▁isolated	-11.9325
▁highlight	-11.9326
▁queen	-11.9326
▁Meister	-11.9327
▁stable	-11.9327
▁granted	-11.9327
Hätte	-11.9327
▁mentor	-11.9328
▁bewahren	-11.9329
▁surrounding	-11.933
Modell	-11.9332
▁dust	-11.9334
Egal	-11.9335
▁Hindernisse	-11.9335
▁Schöne	-11.9335
Hello	-11.9337
▁visited	-11.934
▁innovations	-11.9342
▁pile	-11.9346
▁Studium	-11.9347
▁übersetzen	-11.9347
▁privaten	-11.9348
Energieverbrauch	-11.9349
▁Taschen	-11.935
▁lighting	-11.9354
▁Haushalt	-11.9355
▁wunderschön	-11.9357
▁staatliche	-11.9359
▁sh	-11.9366
ward	-11.9366
▁zuhören	-11.9368
▁underly	-11.9368
top	-11.9369
▁fließt	-11.9372
▁exponentiell	-11.9375
▁aktuellen	-11.9378
▁kulturellen	-11.938
rot	-11.938
post	-11.9382
▁Time	-11.9383
issen	-11.9383
▁Gi	-11.9384
tete	-11.9389
▁Dia	-11.9399
cop	-11.94
▁Simon	-11.94
▁individuelle	-11.9403
▁wartet	-11.9404
▁passwords	-11.9405
MA	-11.941
▁terror	-11.9411
▁sacrifice	-11.9412
▁Rezept	-11.9418
cus	-11.9418
▁strangers	-11.9421
▁Fan	-11.9422
▁mochte	-11.9424
▁Pflanze	-11.9424
▁accidents	-11.9425
▁layers	-11.9426
half	-11.9427
▁experimental	-11.9432
▁terrorists	-11.9433
▁Schl	-11.9435
▁formula	-11.9438
▁conclude	-11.9442
▁Je	-11.9442
▁fehlende	-11.9443
▁dicht	-11.9443
produktion	-11.9449
▁Daumen	-11.9451
temperatur	-11.9451
▁Zauber	-11.9452
▁Skelett	-11.9452
▁Buddha	-11.9452
▁Atlanta	-11.9452
▁Großvater	-11.9452
▁Ruanda	-11.9452
▁anbieten	-11.9452
▁spontan	-11.9452
▁vagina	-11.9452
▁instinct	-11.9452
▁Kooperation	-11.9452
▁Onkel	-11.9452
▁Italy	-11.9452
▁array	-11.9452
▁bump	-11.9452
▁depressed	-11.9452
▁ausreichend	-11.9452
gerissen	-11.9452
▁synthetic	-11.9453
▁Griff	-11.9453
▁compete	-11.9453
Things	-11.9453
▁verarbeiten	-11.9454
▁Erforschung	-11.9454
▁Sahara	-11.9454
▁Ausland	-11.9454
hether	-11.9454
▁vorwärts	-11.9455
▁announced	-11.9455
▁geistige	-11.9455
steigen	-11.9456
▁Rover	-11.9456
▁stabil	-11.9457
▁ensure	-11.9458
▁südlich	-11.946
▁legte	-11.9461
▁upset	-11.9461
▁surprisingly	-11.9462
▁pace	-11.9464
▁verlangt	-11.9465
▁lawyer	-11.9466
▁fiber	-11.9466
▁dinosaur	-11.9466
▁Transparenz	-11.9468
Welt	-11.9468
▁ah	-11.947
▁Hör	-11.9473
▁passing	-11.9479
graph	-11.9482
zunehmen	-11.9483
park	-11.9485
▁Explosion	-11.9486
▁Kann	-11.9488
▁Fort	-11.949
inal	-11.9492
▁farmer	-11.9492
▁Ideal	-11.9493
▁kit	-11.9495
▁afterwards	-11.9496
▁38	-11.9496
▁zukünftigen	-11.9496
▁mechanisms	-11.95
▁Pop	-11.9509
▁employ	-11.9512
▁Inhalte	-11.9514
▁bra	-11.9514
tausend	-11.9517
▁treatments	-11.9517
▁scales	-11.9522
▁Ze	-11.9525
▁ten	-11.9525
▁gest	-11.9526
▁proportion	-11.9528
▁ausgehen	-11.9528
▁44	-11.9529
▁chimpanzees	-11.9537
▁span	-11.9537
▁schlimm	-11.9539
▁nachhaltig	-11.954
▁speaker	-11.9542
▁Poster	-11.9542
▁command	-11.9545
hung	-11.9548
▁Lichter	-11.9549
▁His	-11.9549
▁Ram	-11.9552
position	-11.9553
▁Carl	-11.9553
▁durfte	-11.9553
▁Mäuse	-11.9553
▁Wow	-11.9554
▁aufrecht	-11.9555
jähriger	-11.9556
rig	-11.9556
▁immense	-11.9558
Dem	-11.956
▁Africans	-11.9562
▁cart	-11.9566
▁Kreise	-11.9567
Robert	-11.9571
▁analyze	-11.9572
sized	-11.9573
Zeit	-11.9573
ake	-11.9575
▁witness	-11.9576
▁überraschende	-11.9578
▁opera	-11.9579
▁fordert	-11.958
▁Feedback	-11.9581
gewebe	-11.9582
▁Wilson	-11.9582
▁ungeheuer	-11.9582
▁Abhängigkeit	-11.9582
▁Beitrag	-11.9582
▁Dynamik	-11.9582
▁Intuition	-11.9582
▁Jupiter	-11.9582
▁Mozart	-11.9582
▁Tempo	-11.9582
▁agencies	-11.9582
▁ausschließlich	-11.9582
▁circa	-11.9582
▁definitiv	-11.9582
▁fragile	-11.9582
▁freiwillig	-11.9582
▁smoking	-11.9582
▁verdoppelt	-11.9582
▁verringern	-11.9582
kontrolle	-11.9582
▁ignorance	-11.9582
▁Regenwald	-11.9582
▁fortune	-11.9582
▁Frühling	-11.9582
▁Coca	-11.9582
▁füllen	-11.9582
▁globalization	-11.9584
▁anfängt	-11.9584
▁Auftrag	-11.9584
▁Beton	-11.9585
▁geworfen	-11.9585
▁ausdrücken	-11.9586
▁beides	-11.9589
▁dear	-11.959
▁niedrig	-11.959
▁befassen	-11.959
▁pointed	-11.9591
▁Original	-11.9592
▁heben	-11.9593
▁dimension	-11.9594
▁proper	-11.9594
▁Animation	-11.9595
▁observation	-11.9597
▁wing	-11.9597
bereit	-11.9597
Etwa	-11.9598
▁deserve	-11.9598
▁kn	-11.9599
you	-11.9602
▁liebt	-11.9603
▁Ratten	-11.9604
lesen	-11.9605
▁extinction	-11.9606
zieh	-11.9607
bersetzung	-11.9608
Still	-11.9612
▁Höhlen	-11.9612
▁15-	-11.9614
Never	-11.9615
▁elections	-11.9616
▁pulling	-11.9619
bert	-11.962
▁Ger	-11.9621
▁capita	-11.9621
boot	-11.9622
chan	-11.9622
▁neuro	-11.9627
▁erhielten	-11.9631
▁Hut	-11.9632
▁Palm	-11.9633
▁rhythm	-11.9638
▁effizient	-11.9638
▁Trans	-11.9639
▁komplizierter	-11.9641
▁physischen	-11.9642
▁Edward	-11.9643
▁Muslime	-11.9644
▁Dichte	-11.9649
▁hook	-11.9649
gue	-11.9649
ane	-11.965
▁Lehrern	-11.9651
▁ecosystems	-11.9653
▁communications	-11.9655
▁soap	-11.9658
▁Wild	-11.966
▁Besitz	-11.966
span	-11.9661
▁Schreib	-11.9662
tiere	-11.9665
▁litt	-11.9667
▁predictions	-11.9667
▁wette	-11.9668
ED	-11.9669
far	-11.9671
▁Rechts	-11.9674
Mart	-11.9674
▁balls	-11.9675
▁Grab	-11.9676
falls	-11.9676
▁Come	-11.9677
Frau	-11.9678
▁Farb	-11.9681
▁Deshalb	-11.9681
trick	-11.9685
▁Investition	-11.9685
▁Toilette	-11.9685
▁Nadel	-11.9686
▁Len	-11.9688
▁schreibe	-11.9688
▁verdammt	-11.969
▁Par	-11.9696
▁Ebenen	-11.9696
fliegen	-11.97
▁Schauen	-11.9703
Adam	-11.9704
ih	-11.9705
▁audio	-11.9705
▁Jeff	-11.9706
long	-11.9706
Afrika	-11.9706
Regierung	-11.9707
▁lasse	-11.9707
▁seats	-11.9708
Cola	-11.9709
▁gemeinnützige	-11.9709
▁craft	-11.9709
▁Kong	-11.9709
right	-11.9711
▁Child	-11.9712
kräfte	-11.9713
▁quest	-11.9713
▁Baseball	-11.9713
▁Canyon	-11.9713
▁Engagement	-11.9713
▁FDA	-11.9713
▁Zufriedenheit	-11.9713
▁cliff	-11.9713
▁comparison	-11.9713
▁dictionary	-11.9713
▁happier	-11.9713
▁auszudrücken	-11.9713
▁federal	-11.9713
▁mild	-11.9713
▁bathroom	-11.9713
▁erlangen	-11.9713
▁capability	-11.9713
▁Sierra	-11.9713
▁vorhersagen	-11.9714
▁profitieren	-11.9714
▁compelling	-11.9715
▁laid	-11.9716
▁Force	-11.9716
▁ending	-11.9716
▁unterhalten	-11.9717
▁erkunden	-11.9718
▁documents	-11.9718
▁diagnosed	-11.9719
▁integrated	-11.9719
▁emerge	-11.9719
▁mask	-11.972
▁rarely	-11.972
▁Länge	-11.9721
▁trivial	-11.9722
▁ausgegeben	-11.9725
▁Schokolade	-11.9726
Five	-11.9726
▁Mais	-11.973
▁delivered	-11.973
▁chapter	-11.973
zier	-11.973
▁reef	-11.9731
▁suggesting	-11.9731
▁citizen	-11.9731
▁Strahlung	-11.9734
▁Get	-11.9735
▁einzusetzen	-11.9735
oid	-11.9737
▁danken	-11.9738
▁nurse	-11.9739
▁routine	-11.9741
room	-11.9741
▁anxiety	-11.9745
▁Pläne	-11.9745
deiner	-11.9746
▁schrieben	-11.9746
ame	-11.9748
durch	-11.975
▁Winkel	-11.9752
▁nerve	-11.9755
▁ungewöhnlich	-11.9757
▁Talent	-11.9757
nahm	-11.9759
▁klingen	-11.976
ram	-11.9762
Make	-11.9762
▁Nest	-11.9764
▁Ober	-11.9765
▁Inseln	-11.9766
zent	-11.9767
▁sheet	-11.9767
ichen	-11.9772
ellen	-11.9777
▁Han	-11.9778
▁allgemeinen	-11.978
▁gefahren	-11.978
▁Joseph	-11.9782
▁roots	-11.9786
▁Cu	-11.9786
▁Reis	-11.979
▁bath	-11.9798
pur	-11.9799
itis	-11.9801
.'\"	-11.9802
▁Pre	-11.9804
▁umgekehrt	-11.9811
▁selbe	-11.9811
bücher	-11.9813
▁Auswirkung	-11.9818
uh	-11.982
▁Spur	-11.9825
▁altes	-11.9828
▁rebuild	-11.9838
▁Boy	-11.9838
▁speakers	-11.9839
ständige	-11.9842
schiff	-11.9845
körper	-11.9846
Third	-11.9847
▁Columbia	-11.9847
▁Urknall	-11.9847
▁Wohlbefinden	-11.9847
▁agricultural	-11.9847
▁category	-11.9847
▁district	-11.9847
▁erledigen	-11.9847
▁gesünder	-11.9847
▁sauce	-11.9847
▁vacuum	-11.9847
▁verhindert	-11.9847
▁verschwindet	-11.9847
▁whistle	-11.9847
▁dialogue	-11.9847
▁agency	-11.9847
▁injury	-11.9847
▁angetrieben	-11.9847
▁copyright	-11.9847
▁Ehemann	-11.9847
▁Produktivität	-11.9847
▁reinvent	-11.9847
▁nonprofit	-11.9847
▁Kuchen	-11.9847
▁kochen	-11.9847
▁unterhalb	-11.9847
bekommen	-11.9848
▁uncomfortable	-11.9848
▁discoveries	-11.9848
Dennoch	-11.9848
▁heilige	-11.9849
▁beträgt	-11.985
low	-11.9851
▁Camp	-11.9851
▁tackle	-11.9852
ville	-11.9852
Arm	-11.9855
nseits	-11.9856
▁umzusetzen	-11.9856
▁pie	-11.9857
▁Blase	-11.9858
▁präzise	-11.986
▁erstaunlichen	-11.9862
▁returned	-11.9862
▁painted	-11.9862
▁determined	-11.9863
▁wünschen	-11.9864
▁depth	-11.9865
tti	-11.9865
▁intervention	-11.9865
▁variation	-11.9865
▁consequence	-11.9866
▁participants	-11.9868
▁dozens	-11.9868
▁Sonnensystem	-11.9869
Wieder	-11.9869
▁views	-11.9871
▁Mechanismus	-11.9871
▁actor	-11.9872
JF	-11.9876
uk	-11.9877
▁Personal	-11.9877
▁sicherer	-11.9884
▁virtuellen	-11.9885
▁magnet	-11.9887
▁indische	-11.9892
▁Mir	-11.9893
muster	-11.9894
▁Scham	-11.9896
▁lock	-11.9897
▁richer	-11.9899
▁characteristics	-11.9899
▁Gleich	-11.9907
hum	-11.9907
▁terrorist	-11.9909
▁profession	-11.9912
Tja	-11.9912
▁boss	-11.9914
▁includes	-11.9914
▁stages	-11.9919
▁Wohl	-11.9922
set	-11.9924
▁poster	-11.9925
▁Zeitungen	-11.9925
▁Pol	-11.9932
▁dynamics	-11.9933
▁teenagers	-11.9939
▁älteren	-11.9943
▁fotografiert	-11.9944
rry	-11.9949
rger	-11.9952
▁Wohnung	-11.9955
ima	-11.9959
▁Dich	-11.9959
▁Lama	-11.9959
▁Röntgen	-11.9963
▁spots	-11.9968
▁drivers	-11.9968
tschaftswachstum	-11.9968
▁Schülern	-11.9969
▁drawn	-11.997
▁welcome	-11.9972
awa	-11.9973
tauchen	-11.9973
▁Illusion	-11.9974
genetischen	-11.9975
▁Gestalt	-11.9979
Stu	-11.998
Women	-11.9981
komm	-11.9981
Sahara	-11.9981
▁Lieder	-11.9981
▁Empathie	-11.9982
▁burst	-11.9982
▁helicopter	-11.9982
▁Alaska	-11.9982
▁Mittlere	-11.9982
▁kombiniert	-11.9982
▁oxytocin	-11.9982
▁verurteilt	-11.9982
▁verlangen	-11.9982
Wahrscheinlich	-11.9982
▁fraction	-11.9982
▁identified	-11.9982
▁Montana	-11.9982
▁Branche	-11.9982
▁collaborative	-11.9982
▁smallpox	-11.9982
▁trash	-11.9982
▁teilnehmen	-11.9982
▁Auffassung	-11.9982
▁motiviert	-11.9982
Kopf	-11.9982
▁Treibstoff	-11.9982
▁islamische	-11.9982
▁kiss	-11.9982
▁impression	-11.9983
▁assignment	-11.9983
NG	-11.9983
schuss	-11.9983
▁portion	-11.9984
▁leise	-11.9984
pflanzen	-11.9985
▁ärmsten	-11.9985
Kids	-11.9986
▁briefly	-11.9986
tieren	-11.9986
▁Oel	-11.9987
▁tied	-11.999
▁ignoriert	-11.9991
▁parties	-11.9992
▁tension	-11.9992
Star	-11.9992
▁Trends	-11.9994
zulassen	-11.9994
nis	-11.9998
▁Ausgaben	-12.0001
▁Schock	-12.0001
▁Erkrankungen	-12.0002
▁revenue	-12.0002
▁farming	-12.0003
heil	-12.0003
▁improvement	-12.0003
▁failing	-12.0004
mobil	-12.0005
▁Berechnungen	-12.0005
▁Journalisten	-12.0008
▁entdeckten	-12.001
▁lasst	-12.001
▁separated	-12.001
▁Toiletten	-12.0011
▁Raketen	-12.0011
▁reduced	-12.0014
▁hack	-12.0015
krise	-12.0016
AK	-12.0017
anda	-12.0018
▁gewöhnlich	-12.002
zentrum	-12.0022
▁controls	-12.0023
▁behaupte	-12.0026
▁smarter	-12.0038
spect	-12.004
▁wipe	-12.004
▁Flugzeuge	-12.0044
▁publish	-12.0044
rack	-12.0045
▁fl	-12.0046
▁Hals	-12.0046
fremd	-12.0048
RS	-12.0049
Laut	-12.0049
▁keinem	-12.0057
▁dependent	-12.0058
▁fla	-12.0058
▁positiven	-12.0069
Weißt	-12.0071
▁benutzte	-12.0071
▁Kurz	-12.0072
ären	-12.0073
▁biologists	-12.0081
▁Interview	-12.0082
tischen	-12.0084
▁Muskel	-12.0091
▁Gleichung	-12.0092
▁umfassende	-12.0095
▁kollektive	-12.0098
▁vieles	-12.0101
▁Bra	-12.0104
▁nets	-12.0106
▁restore	-12.0109
▁defend	-12.011
Plan	-12.0111
▁Symmetrie	-12.0112
förmige	-12.0113
nor	-12.0113
▁sail	-12.0114
▁banks	-12.0115
Put	-12.0115
▁precise	-12.0115
ese	-12.0115
▁uncle	-12.0116
▁circles	-12.0117
▁ethnic	-12.0119
Obviously	-12.0119
▁Konzentration	-12.0119
▁Praxis	-12.0119
▁Privileg	-12.0119
▁errichten	-12.0119
▁fabulous	-12.0119
▁chaos	-12.0119
▁convey	-12.0119
▁Kennedy	-12.0119
▁Mikroskop	-12.0119
▁ultra	-12.0119
▁Arbeitsplatz	-12.0119
▁Gegenstand	-12.0119
▁spray	-12.0119
▁Lebensqualität	-12.0119
▁TEDGlobal	-12.0119
▁branch	-12.012
▁permission	-12.012
▁shine	-12.012
▁bullet	-12.012
▁southern	-12.0121
▁'60	-12.0122
▁bound	-12.0122
▁garage	-12.0122
▁constructed	-12.0123
▁herstellt	-12.0124
▁mindset	-12.0125
▁Güter	-12.0125
▁dial	-12.0126
▁absorb	-12.0127
▁Biologen	-12.0128
oss	-12.0129
▁openness	-12.0129
▁Thanks	-12.0129
▁Leser	-12.0131
▁Nervenzellen	-12.0132
▁Haltung	-12.0133
▁translated	-12.0134
▁aesthetic	-12.0136
▁lungs	-12.0138
▁researcher	-12.0138
play	-12.0139
▁proof	-12.014
schlagen	-12.014
▁qu	-12.0141
▁Route	-12.0142
▁highway	-12.0142
▁apple	-12.0144
▁Song	-12.0145
▁pole	-12.0146
gefühl	-12.0147
ush	-12.0148
▁stores	-12.0148
God	-12.0149
▁edges	-12.015
▁wash	-12.0151
▁reports	-12.0151
Hmm	-12.0154
▁leer	-12.0159
▁installation	-12.0159
▁Flasche	-12.0162
▁entrepreneur	-12.0163
▁anzugehen	-12.0164
ome	-12.0164
▁el	-12.0164
▁typische	-12.0166
▁picking	-12.0168
▁Filter	-12.0171
▁gering	-12.0173
Jeden	-12.0174
▁Lang	-12.0176
▁Bewusstseins	-12.0177
▁Joshua	-12.0179
▁Besuch	-12.0179
▁nationalen	-12.0182
▁Zero	-12.0184
maß	-12.0187
sky	-12.0188
▁Str	-12.019
▁Autoren	-12.0192
▁ages	-12.0192
▁Richter	-12.0195
▁billiger	-12.0197
▁Bäumen	-12.0203
▁Kit	-12.0206
▁Dis	-12.0208
Letztes	-12.0215
▁bars	-12.0216
quelle	-12.0216
▁duck	-12.0219
▁beer	-12.022
▁assumptions	-12.022
▁offenbar	-12.0224
block	-12.0228
berzeugung	-12.0229
▁reale	-12.023
▁Ernst	-12.023
▁misst	-12.0237
▁einziges	-12.0239
cut	-12.024
ruf	-12.0241
▁geplant	-12.0243
Ten	-12.0247
▁propose	-12.025
bte	-12.0252
▁Benzin	-12.0252
ify	-12.0253
▁rough	-12.0254
▁exploit	-12.0257
ordnung	-12.0257
▁poison	-12.0257
▁Schwanz	-12.0258
▁Substanz	-12.0258
▁akzeptiert	-12.0258
▁aufmerksam	-12.0258
▁einschließlich	-12.0258
▁fought	-12.0258
▁gegessen	-12.0258
▁inevitable	-12.0258
▁unterscheidet	-12.0258
▁excuse	-12.0258
▁naked	-12.0258
▁ecological	-12.0258
▁perceive	-12.0258
▁schmerzhaft	-12.0258
▁stunt	-12.0258
▁slavery	-12.0258
▁anonymous	-12.0258
▁rice	-12.0258
▁gewinnt	-12.0258
▁attractive	-12.0258
▁combat	-12.0258
▁Heilung	-12.0258
▁Lord	-12.0258
▁infant	-12.0259
▁versagt	-12.0259
▁üben	-12.0259
▁caring	-12.0259
▁beachten	-12.026
▁Arabic	-12.026
▁Louis	-12.0261
▁imagery	-12.0261
▁First	-12.0262
▁Ross	-12.0262
▁Keine	-12.0263
▁artistic	-12.0263
Fünf	-12.0264
Great	-12.0265
IM	-12.0266
James	-12.0266
Google	-12.0266
▁zurückkommen	-12.0266
▁industries	-12.0267
▁Gehör	-12.0269
▁originally	-12.027
▁Asteroiden	-12.0271
▁fuels	-12.0271
▁rope	-12.0272
▁reminded	-12.0274
▁hanging	-12.0275
▁ermutigen	-12.0275
▁expanding	-12.0277
▁powers	-12.0277
▁Lesen	-12.0278
▁predicted	-12.0278
▁pushed	-12.028
▁served	-12.028
▁interpretation	-12.028
Vier	-12.0282
▁activist	-12.0282
▁Köpfen	-12.0284
▁crossing	-12.0284
▁Felsen	-12.0285
▁Schau	-12.0286
einheit	-12.0288
▁surfaces	-12.0289
▁Schriftsteller	-12.029
uten	-12.0292
▁niedriger	-12.0295
cat	-12.0295
Komm	-12.0303
▁Depressionen	-12.0307
▁gelb	-12.0307
ivity	-12.0308
▁Fernseher	-12.0308
frage	-12.0314
▁focusing	-12.0316
geber	-12.0316
▁fuhren	-12.0316
sagen	-12.0317
Statt	-12.0318
▁landed	-12.0319
fällig	-12.0322
erte	-12.0325
▁geringe	-12.0326
▁Problems	-12.0326
▁inches	-12.0329
▁Gebäudes	-12.0331
immer	-12.0332
▁wunderschönen	-12.0335
▁sink	-12.0343
▁Jean	-12.0347
▁Meme	-12.035
▁Alex	-12.0352
▁satellites	-12.0352
▁Mess	-12.0353
tanz	-12.0356
▁beendet	-12.0362
than	-12.0363
▁Option	-12.037
▁böse	-12.037
▁Kopie	-12.0371
▁Mauer	-12.0371
versorgung	-12.0371
eis	-12.0377
▁peaceful	-12.0378
▁zogen	-12.0379
▁suchten	-12.038
lte	-12.0383
ließ	-12.0387
▁finanzielle	-12.0388
▁prepare	-12.0389
▁ursprüngliche	-12.0389
▁46	-12.039
▁Höhle	-12.0392
AB	-12.0393
▁exhibit	-12.0394
▁endet	-12.0395
▁abstrakte	-12.0397
▁Wechsel	-12.0398
Woh	-12.0398
aking	-12.0398
▁Völker	-12.0398
▁Bangladesh	-12.0398
▁Individuum	-12.0398
▁Oktober	-12.0398
▁alcohol	-12.0398
▁biodiversity	-12.0398
▁facility	-12.0398
▁primarily	-12.0398
▁recipe	-12.0398
▁schlussendlich	-12.0398
▁überprüfen	-12.0398
▁bewirkt	-12.0398
▁colonies	-12.0399
▁Thailand	-12.0399
▁Autorität	-12.0399
▁Kluft	-12.0399
▁programming	-12.0399
▁trennen	-12.0399
▁elderly	-12.0399
▁verbrauchen	-12.0399
▁Amazonas	-12.04
oon	-12.04
▁sensor	-12.04
▁4,000	-12.04
▁2015	-12.0401
▁stake	-12.0402
▁sensory	-12.0402
▁Zwischen	-12.0402
▁Seine	-12.0403
Wollen	-12.0404
run	-12.0405
▁tick	-12.0406
▁allzu	-12.0407
▁teure	-12.0408
▁wa	-12.0408
▁begun	-12.0409
zone	-12.0409
▁gathering	-12.041
▁verknüpft	-12.041
Back	-12.0411
▁illustrate	-12.0412
▁Vorträge	-12.0416
▁aufeinander	-12.0416
▁mimic	-12.0417
▁ausführen	-12.0418
▁bedenken	-12.0418
zero	-12.042
▁Brad	-12.0423
▁erinnerte	-12.0423
ähnlichen	-12.0423
▁gerecht	-12.0424
▁predator	-12.0425
▁attitude	-12.0425
▁TEDTalk	-12.0427
station	-12.0428
▁refugee	-12.0428
▁confident	-12.0428
spot	-12.0429
▁Spuren	-12.0429
▁trucks	-12.0431
▁richtet	-12.0433
two	-12.0433
▁Magazin	-12.0434
kosten	-12.0435
▁Manager	-12.0436
▁Sein	-12.0436
▁Videospiele	-12.0442
▁zugleich	-12.0444
put	-12.0444
▁scanner	-12.0445
▁dish	-12.0447
▁Einheiten	-12.0448
▁erfolgreiche	-12.045
rzten	-12.0454
reiche	-12.0455
▁Innen	-12.0457
▁Anreize	-12.0459
▁Christian	-12.0459
▁leverage	-12.046
sterblichkeit	-12.0462
▁Operationen	-12.0463
▁scores	-12.0464
▁Digital	-12.0465
▁Pri	-12.047
▁Maße	-12.047
▁ink	-12.0471
nahmen	-12.0472
▁bubbles	-12.0473
▁insights	-12.0473
▁Richtig	-12.0478
ode	-12.0485
▁stops	-12.0486
▁clients	-12.0491
▁News	-12.0491
üge	-12.0496
▁körperliche	-12.0498
12	-12.0498
ough	-12.0499
▁schwierigen	-12.0501
brachte	-12.0505
▁greifen	-12.051
▁Ron	-12.0512
▁Tätigkeit	-12.0512
organisation	-12.0513
▁Nachbar	-12.0514
gesichts	-12.0517
möglichkeiten	-12.0518
▁firm	-12.0519
▁freak	-12.052
▁sang	-12.052
▁ewig	-12.0521
▁computation	-12.0522
▁helpful	-12.0524
▁sentences	-12.0525
▁wings	-12.0529
Betrachten	-12.0529
▁nurses	-12.0531
▁preserve	-12.0532
▁knock	-12.0535
▁sandwich	-12.0536
▁grob	-12.0536
▁Haben	-12.0538
▁Kriege	-12.0538
▁scharf	-12.0541
▁Anhänger	-12.0541
pflanzt	-12.0541
▁Erwärmung	-12.0541
▁Jill	-12.0541
▁Kohlendioxid	-12.0541
▁analysiert	-12.0541
▁cheese	-12.0541
▁genocide	-12.0541
▁threshold	-12.0541
▁tweet	-12.0541
analyse	-12.0541
▁sacred	-12.0541
▁theoretisch	-12.0541
▁automobile	-12.0541
▁civic	-12.0541
▁involviert	-12.0541
▁beschützen	-12.0541
▁erzielen	-12.0541
▁programmieren	-12.0541
▁Rechner	-12.0541
▁Arbeitsplätze	-12.0541
▁Luther	-12.0541
▁blink	-12.0541
▁baseball	-12.0542
▁shopping	-12.0542
▁figuring	-12.0542
▁Austausch	-12.0542
▁mood	-12.0542
▁Lärm	-12.0542
▁Anzeichen	-12.0542
▁Werten	-12.0542
▁Pocken	-12.0542
rauch	-12.0545
▁architectural	-12.0547
▁Initiative	-12.0547
▁Spenden	-12.0548
▁radically	-12.0548
affe	-12.0549
▁extended	-12.0549
▁Tricks	-12.0554
▁expansion	-12.0555
Zusammen	-12.0557
interest	-12.0558
▁rethink	-12.0559
▁founded	-12.0559
▁grandchildren	-12.056
▁geleitet	-12.0561
▁climbing	-12.0562
▁Bomben	-12.0565
▁meal	-12.0566
Früher	-12.0567
▁Philosoph	-12.0567
▁religiösen	-12.0567
▁throwing	-12.0569
▁soldier	-12.0572
▁jet	-12.0572
▁angekommen	-12.0574
fragen	-12.0574
▁frequency	-12.058
▁treibt	-12.0584
▁wow	-12.0584
▁sleeping	-12.0585
uad	-12.0587
▁herrscht	-12.059
▁Tele	-12.059
lf	-12.0597
iker	-12.0597
bungen	-12.0598
Oft	-12.0599
▁Bad	-12.0599
▁discipline	-12.06
▁Pra	-12.0602
▁Besitzer	-12.0603
▁1984	-12.0604
Einmal	-12.0607
▁effizienter	-12.0608
▁Afghan	-12.0608
▁disc	-12.0611
▁Amerikas	-12.0612
▁Kommunikations	-12.0616
▁geblieben	-12.0616
nge	-12.0617
▁Lehre	-12.062
size	-12.0624
▁shaped	-12.0625
baum	-12.0625
▁answered	-12.0627
▁beginne	-12.0628
▁Si	-12.0631
▁nutzten	-12.0633
Einen	-12.0633
▁bang	-12.0634
▁doors	-12.0637
▁Hinweis	-12.0637
treffen	-12.0639
▁panels	-12.064
fluss	-12.0642
▁rotate	-12.0648
▁radikale	-12.0649
▁furchtbar	-12.0652
lop	-12.0654
▁adopt	-12.0657
▁Fels	-12.0658
▁TEDTalks	-12.0659
▁positions	-12.066
ori	-12.0661
▁ökologische	-12.0667
▁Welle	-12.0668
▁Nährstoffe	-12.0671
▁Niemand	-12.0675
▁militärische	-12.0678
▁Chirurg	-12.0679
▁implement	-12.0679
Che	-12.0679
▁Alpha	-12.068
▁Internets	-12.0682
▁consistent	-12.0683
▁Fußball	-12.0685
▁resist	-12.0685
rechnung	-12.0686
dge	-12.0686
Allerdings	-12.0686
▁Pazifik	-12.0686
▁Philadelphia	-12.0686
▁abilities	-12.0686
▁bewältigen	-12.0686
▁buried	-12.0686
▁concentration	-12.0686
▁expedition	-12.0686
▁participation	-12.0686
▁scheitern	-12.0686
▁struggling	-12.0686
▁zwölf	-12.0686
▁begleitet	-12.0686
▁resilience	-12.0686
▁valley	-12.0686
▁verwandt	-12.0686
▁Norway	-12.0686
▁Anerkennung	-12.0686
▁umfasst	-12.0686
Später	-12.0686
▁Panik	-12.0686
▁Gleichheit	-12.0687
▁appearance	-12.0687
▁ooh	-12.0687
uanten	-12.0687
▁merely	-12.0687
▁forgotten	-12.0687
▁Effekte	-12.0688
▁unangenehm	-12.0688
ago	-12.0688
▁blicken	-12.0689
▁Ste	-12.0689
▁secrets	-12.069
▁Fischerei	-12.0691
▁spiele	-12.0691
▁slip	-12.0696
▁proposed	-12.0696
▁Tiger	-12.0696
▁emerged	-12.0697
▁Des	-12.0699
▁Elektronik	-12.0701
▁verblüffend	-12.0703
▁Islands	-12.0703
▁unmittelbar	-12.0706
▁Störungen	-12.0707
–	-12.0707
Unternehmen	-12.0707
▁Demonstration	-12.0709
▁impacts	-12.0709
India	-12.071
clock	-12.0711
tausch	-12.0712
▁aufregende	-12.0712
▁Orchester	-12.0713
▁gases	-12.0714
▁difficulty	-12.0716
▁miracle	-12.0716
▁ban	-12.0717
bringt	-12.0717
▁Apollo	-12.0717
▁victim	-12.0718
▁tribe	-12.0718
▁Sequenz	-12.072
Eins	-12.072
▁Figuren	-12.0722
▁cable	-12.0723
▁beliebige	-12.0725
cost	-12.0725
▁Taten	-12.0725
geräte	-12.0726
▁Elektronen	-12.073
ühl	-12.073
▁additional	-12.0733
eat	-12.0736
Tag	-12.0736
▁holds	-12.0737
thiopien	-12.0737
▁sendet	-12.0739
▁explaining	-12.0739
▁Oxytocin	-12.0742
▁hackers	-12.0748
rage	-12.0749
▁erweitert	-12.0749
rückt	-12.0753
Vi	-12.0755
nahme	-12.0756
▁Kauf	-12.0757
einander	-12.0763
▁einzig	-12.0767
änge	-12.0769
▁Your	-12.077
▁wachsende	-12.0771
▁Kredit	-12.0771
Großartig	-12.0772
▁Extrem	-12.0774
▁schönes	-12.0775
▁gefüllt	-12.0779
▁Miss	-12.0779
▁navigate	-12.0784
▁regional	-12.079
▁coole	-12.079
▁Genen	-12.0791
four	-12.0792
▁joint	-12.0792
effekt	-12.0803
▁entsprechend	-12.0803
▁refugees	-12.0806
Nimm	-12.081
Ben	-12.081
▁threats	-12.081
▁reiste	-12.0814
▁Institution	-12.0815
rap	-12.0815
▁Koch	-12.0815
▁institutional	-12.0821
atom	-12.0822
▁rüber	-12.0823
▁Gelände	-12.0823
▁Beinen	-12.0824
▁replicate	-12.0824
richtung	-12.0824
eit	-12.0825
▁chairs	-12.0825
▁recommend	-12.0827
▁targets	-12.0827
▁sisters	-12.0828
▁Beach	-12.0829
▁Ted	-12.0831
krebs	-12.0832
▁owner	-12.0832
stätte	-12.0833
▁Analogie	-12.0833
▁Tibet	-12.0833
Glücklicherweise	-12.0833
▁Balance	-12.0833
▁Kelly	-12.0833
▁NSA	-12.0833
▁Norwegen	-12.0833
▁October	-12.0833
▁Plätze	-12.0833
▁Schwerkraft	-12.0833
▁creator	-12.0833
▁devil	-12.0833
▁erstaunt	-12.0833
▁nördlich	-12.0833
▁Mühe	-12.0833
▁barrel	-12.0833
▁purchase	-12.0833
▁lenken	-12.0833
Offensichtlich	-12.0833
▁Arctic	-12.0833
▁supermarket	-12.0833
Somebody	-12.0833
▁Abendessen	-12.0834
▁Allgemeinen	-12.0834
▁Gift	-12.0834
▁Horizont	-12.0834
▁signature	-12.0834
▁Snowden	-12.0834
▁abgeschlossen	-12.0834
▁'90	-12.0835
▁friedlich	-12.0835
▁compassionate	-12.0836
▁sicherstellen	-12.0836
▁cake	-12.0836
▁hitting	-12.0836
▁Women	-12.0836
▁EU	-12.0838
▁sank	-12.0838
▁Hochzeit	-12.0839
▁weitermachen	-12.0839
▁werdet	-12.084
▁berechnet	-12.084
▁club	-12.0842
▁20.000	-12.0844
wende	-12.0845
▁suggested	-12.0847
▁luck	-12.0847
▁shocking	-12.0847
namen	-12.0849
eben	-12.0849
▁bewerten	-12.0849
▁strongly	-12.0851
▁photographed	-12.0854
▁Mill	-12.0854
strahl	-12.0855
▁Geheimnisse	-12.0858
▁auftreten	-12.0858
Charles	-12.0858
▁Konstruktion	-12.0859
rid	-12.086
▁wundervoll	-12.086
▁deck	-12.0861
▁frog	-12.0866
▁physician	-12.0866
▁dolphin	-12.0867
▁insect	-12.0867
▁competitive	-12.0869
▁Chi	-12.087
▁operations	-12.087
▁Alltag	-12.087
▁häufiger	-12.0871
gesellschaft	-12.0873
▁hydro	-12.0873
▁beschleunigt	-12.0877
▁supported	-12.0877
▁agent	-12.0878
AO	-12.0881
▁Veranstaltung	-12.0886
lick	-12.0886
▁fühlten	-12.0886
▁Cas	-12.0886
▁chemischen	-12.0889
▁wage	-12.0894
mate	-12.0894
teilung	-12.0894
▁Einkommens	-12.0896
wor	-12.09
▁muslimische	-12.0904
▁heal	-12.0905
♫	-12.0906
schi	-12.0908
▁west	-12.0908
▁echter	-12.0908
▁Journalist	-12.0909
heben	-12.0912
▁Institut	-12.0913
▁Station	-12.0913
▁hi	-12.0916
▁sticks	-12.0919
uring	-12.0922
▁prop	-12.0929
▁Flut	-12.0929
▁herab	-12.093
gingen	-12.0931
probleme	-12.0932
entwicklung	-12.0932
▁needle	-12.0933
▁Ring	-12.0936
▁partly	-12.0939
Bau	-12.094
▁Kreislauf	-12.094
▁medi	-12.094
zy	-12.0944
new	-12.0944
▁inneren	-12.095
werten	-12.0951
masse	-12.0951
▁Lücke	-12.0954
▁Köpfe	-12.0955
▁erfuhr	-12.0958
AS	-12.0961
drängt	-12.0961
▁schießen	-12.0963
▁startete	-12.0966
▁Take	-12.097
freund	-12.0971
▁perfekten	-12.0971
unterricht	-12.0972
▁blend	-12.0973
▁Pferde	-12.0973
▁Güte	-12.0975
▁regard	-12.0976
▁Gewinner	-12.098
▁reveals	-12.0981
▁transmit	-12.0982
▁Mögliche	-12.0982
ounce	-12.0982
Trotz	-12.0982
▁immediate	-12.0982
▁Council	-12.0983
▁Flughafen	-12.0983
▁hypothesis	-12.0983
▁vergleichbar	-12.0983
▁whatsoever	-12.0983
▁silly	-12.0983
▁unfair	-12.0983
▁finanzieren	-12.0983
▁Herkunft	-12.0983
▁Väter	-12.0983
▁expectancy	-12.0983
▁grausam	-12.0983
▁annual	-12.0983
▁Seife	-12.0983
▁stattfinden	-12.0983
gehoben	-12.0983
▁Wörterbuch	-12.0983
▁kidney	-12.0983
▁paralyzed	-12.0983
▁Fotograf	-12.0984
▁Mischung	-12.0984
▁native	-12.0985
▁Love	-12.0985
▁senken	-12.0985
▁Extra	-12.0985
take	-12.0985
▁Abstand	-12.0985
▁'70	-12.0986
▁nette	-12.0986
▁dumb	-12.0986
schneiden	-12.0986
▁aufwuchs	-12.0987
▁imaging	-12.0988
▁warning	-12.0989
▁Iranian	-12.0991
▁beantwortet	-12.0992
▁Dauer	-12.0993
▁ratio	-12.0993
ky	-12.0995
▁elephants	-12.0996
▁anzuschauen	-12.0998
yan	-12.0998
▁bucks	-12.1
▁measures	-12.1
▁diesmal	-12.1003
▁Zeichnungen	-12.1003
▁auftauchen	-12.1004
Boy	-12.1004
▁erzählten	-12.1005
▁vorkommen	-12.1008
ying	-12.1008
ieß	-12.1011
point	-12.1012
fully	-12.1012
▁viewer	-12.1015
▁vermute	-12.1016
Tom	-12.1017
▁Greek	-12.1017
▁schaffte	-12.1017
▁Like	-12.1018
▁camel	-12.1019
▁zweitens	-12.102
▁manual	-12.1021
▁glückliche	-12.1021
▁musician	-12.1022
▁writers	-12.1026
▁Mall	-12.1027
Leben	-12.103
lied	-12.103
▁bot	-12.103
▁lagen	-12.1032
stücke	-12.1032
krankheiten	-12.1032
▁Fabriken	-12.1035
▁Küsten	-12.1035
▁leeren	-12.1036
pre	-12.1037
▁verbreitete	-12.1038
zahlen	-12.1044
▁klare	-12.1044
▁aim	-12.1047
▁rats	-12.1048
▁Management	-12.1048
▁rivers	-12.1048
▁washing	-12.1052
▁fate	-12.1057
▁Intel	-12.1058
bus	-12.1058
▁gewöhnliche	-12.1058
▁Falle	-12.106
▁arise	-12.1061
▁headed	-12.1063
\"?"	-12.1064
▁Hä	-12.1064
tage	-12.1067
▁instructions	-12.1068
üsse	-12.1069
▁Symbole	-12.107
▁Held	-12.1073
▁studierte	-12.1077
sicher	-12.1077
Mach	-12.1078
ante	-12.1083
▁einziger	-12.1084
rabischen	-12.1088
grund	-12.1088
▁Leistungen	-12.1089
▁trage	-12.1093
▁cats	-12.1095
▁tollen	-12.1098
▁Ganz	-12.1101
ngste	-12.1102
▁Spannung	-12.1105
▁Tragödie	-12.1105
▁Einwohner	-12.1106
▁Ken	-12.1107
Lo	-12.1112
menge	-12.1115
▁erschien	-12.1116
▁außerordentlich	-12.1116
▁Hass	-12.1117
▁dung	-12.1117
▁demo	-12.1118
▁cr	-12.1118
▁complain	-12.1119
abend	-12.112
zwei	-12.112
gebiete	-12.1124
▁package	-12.1125
▁43	-12.1125
▁Williams	-12.1127
▁distinct	-12.1131
litz	-12.1131
▁instant	-12.1134
▁Stämme	-12.1134
▁incident	-12.1134
▁wrap	-12.1134
read	-12.1134
ifikation	-12.1134
▁Dezember	-12.1134
▁capabilities	-12.1134
▁choosing	-12.1134
▁closing	-12.1134
▁erledigt	-12.1134
▁structural	-12.1134
▁unbelievable	-12.1134
▁unprecedented	-12.1134
▁züchten	-12.1134
▁Gerüst	-12.1134
▁Italian	-12.1134
▁bedienen	-12.1134
▁konstruiert	-12.1134
▁unheimlich	-12.1134
▁Tendenz	-12.1134
▁Venus	-12.1134
▁vulnerability	-12.1134
▁Apparat	-12.1134
▁Mittagessen	-12.1134
▁Distanz	-12.1134
▁stieß	-12.1134
▁valid	-12.1134
▁Vielzahl	-12.1134
▁generell	-12.1134
▁pride	-12.1134
▁uncertainty	-12.1134
▁Stoffwechsel	-12.1134
▁smartphone	-12.1134
▁vereint	-12.1134
▁Sunday	-12.1134
▁irgendwas	-12.1134
▁Klick	-12.1135
▁träumen	-12.1135
▁exam	-12.1136
▁unsicher	-12.1136
▁5.000	-12.1137
▁zweieinhalb	-12.1137
▁selfish	-12.1137
▁detection	-12.1137
▁damn	-12.1138
Without	-12.1138
▁mining	-12.1139
▁Weltbank	-12.1142
▁uralte	-12.1142
▁homeless	-12.1143
▁fastest	-12.1143
▁shocked	-12.1144
▁Fo	-12.1146
▁Brüder	-12.1146
▁mixed	-12.1147
▁successfully	-12.115
▁dreimal	-12.115
▁Kreaturen	-12.1151
▁woke	-12.1153
▁entering	-12.1156
egel	-12.1158
▁palm	-12.1159
▁universelle	-12.116
▁grasp	-12.116
▁beobachtete	-12.1161
▁meme	-12.1162
▁cartoons	-12.1162
▁Chirurgen	-12.1164
onnen	-12.1164
▁volunteer	-12.1166
▁habit	-12.1167
▁historische	-12.1168
George	-12.1168
▁Verstehen	-12.117
▁completed	-12.117
virus	-12.117
▁liest	-12.1171
Show	-12.1171
▁philosopher	-12.1171
▁drone	-12.1172
▁trace	-12.1172
▁infection	-12.1172
▁logisch	-12.1172
▁Jay	-12.1173
powered	-12.1173
million	-12.1176
▁Meinungen	-12.1177
augen	-12.1177
▁Schild	-12.1177
▁körperlich	-12.1181
Neu	-12.1182
▁pit	-12.1182
▁Handels	-12.1184
labor	-12.1185
▁CD	-12.1186
gene	-12.1186
▁schließt	-12.119
▁Untersuchungen	-12.1192
▁süß	-12.1192
▁winning	-12.1193
▁freundlich	-12.1193
▁sits	-12.1197
▁interestingly	-12.1198
▁eigen	-12.1199
greifen	-12.1201
▁bewegte	-12.1201
▁tumors	-12.1202
▁stranger	-12.1204
▁sin	-12.1205
rank	-12.1208
ching	-12.1209
▁wertvolle	-12.1209
▁Peace	-12.1209
▁wundervollen	-12.1211
▁zahlreiche	-12.1219
▁rennen	-12.1222
▁Anreiz	-12.1223
▁zwingen	-12.1224
▁Schreibtisch	-12.1228
schritt	-12.1232
rücken	-12.1238
▁kauft	-12.1239
TB	-12.1239
▁funded	-12.1241
wal	-12.1243
pper	-12.1245
▁Elektro	-12.1255
▁Banken	-12.1257
▁erfand	-12.1259
▁Prototyp	-12.1259
▁Umfrage	-12.126
▁anhalten	-12.1262
▁bedeutende	-12.1263
▁compromise	-12.1265
code	-12.1267
ano	-12.1267
▁Gal	-12.1268
▁Rauch	-12.1268
▁lawyers	-12.1271
using	-12.1271
▁Nu	-12.1273
▁Geschlechts	-12.1275
▁Damit	-12.1277
Through	-12.1278
▁ego	-12.1278
▁12-	-12.1279
▁landete	-12.1279
▁Einige	-12.1279
feuer	-12.128
▁confront	-12.1281
ians	-12.1281
Scan	-12.1282
▁delight	-12.1283
▁fortunate	-12.1285
▁interessantes	-12.1286
schluss	-12.1286
fabrik	-12.1288
▁Arduino	-12.1288
▁December	-12.1288
▁Kansas	-12.1288
▁Optimismus	-12.1288
▁Pyramide	-12.1288
▁Reichweite	-12.1288
▁extension	-12.1288
▁geredet	-12.1288
▁kombinieren	-12.1288
▁kommerzielle	-12.1288
▁leather	-12.1288
▁microbial	-12.1288
▁multinational	-12.1288
▁methane	-12.1288
▁Court	-12.1288
▁bribe	-12.1288
▁Streben	-12.1288
▁gewissermaßen	-12.1288
▁stattfindet	-12.1288
▁ongoing	-12.1288
▁1995	-12.1288
▁stamp	-12.1288
ological	-12.1289
▁Nike	-12.1289
▁stoßen	-12.1289
▁Kurzem	-12.1289
▁genetically	-12.1289
▁gefährdet	-12.129
▁gelähmt	-12.129
▁durchzuführen	-12.129
▁homework	-12.1291
digit	-12.1291
▁confused	-12.1291
▁trainieren	-12.1291
▁improving	-12.1293
▁informed	-12.1293
▁Königin	-12.1293
▁healthier	-12.1294
▁realizing	-12.1294
▁adopted	-12.1294
▁50.000	-12.1296
▁Genie	-12.1296
▁suffered	-12.1299
hau	-12.13
schreiben	-12.1301
▁derzeitige	-12.1302
▁redet	-12.1303
Cha	-12.1304
▁entschlossen	-12.1304
▁unable	-12.1305
▁invested	-12.1305
▁angeschaut	-12.1306
▁upside	-12.1307
▁überlassen	-12.131
▁pad	-12.131
▁Kleider	-12.1311
▁classical	-12.1312
liches	-12.1315
▁pharmaceutical	-12.1316
swert	-12.132
▁Verbraucher	-12.132
▁melt	-12.1321
gänge	-12.1324
isierten	-12.1324
▁Magazine	-12.1325
▁Füßen	-12.1325
▁egg	-12.1326
Super	-12.1327
▁survived	-12.1327
▁judgment	-12.1327
Problem	-12.1327
▁elected	-12.1327
▁mosquito	-12.1328
world	-12.1328
geschrieben	-12.1328
▁tar	-12.1329
▁Zweiten	-12.1332
▁journal	-12.1334
▁beziehen	-12.1335
tub	-12.1336
field	-12.1337
sucht	-12.1338
fold	-12.134
öte	-12.1341
None	-12.1343
flug	-12.1345
▁Alice	-12.1349
▁shirt	-12.1349
some	-12.1352
▁Objekten	-12.1357
▁Vortrags	-12.1361
außergewöhnliche	-12.1363
▁Lewis	-12.1365
▁frühe	-12.1367
▁lehrt	-12.1368
▁Au	-12.1369
▁Ost	-12.1371
▁dick	-12.1374
▁Profit	-12.1374
▁daughters	-12.1375
▁suck	-12.1376
▁trainiert	-12.1376
▁exception	-12.1377
▁fusion	-12.1378
essel	-12.1382
gebaut	-12.1386
▁Welche	-12.1392
rey	-12.1393
▁34	-12.1397
▁bears	-12.1398
▁fressen	-12.1398
▁Flu	-12.14
▁kurzer	-12.1405
▁tracks	-12.1417
▁unabhängige	-12.1417
▁observe	-12.1421
kind	-12.1422
geholt	-12.1425
uf	-12.1429
zustand	-12.143
▁Genome	-12.1435
anlagen	-12.1437
horn	-12.1442
▁100-	-12.1443
▁horizon	-12.1444
▁Algorithmus	-12.1444
▁Ignoranz	-12.1444
▁Smartphone	-12.1444
▁Töchter	-12.1444
▁experiencing	-12.1444
▁hemisphere	-12.1444
▁magnitude	-12.1444
▁strategic	-12.1444
▁Immunsystem	-12.1444
▁bestätigt	-12.1444
▁chaotisch	-12.1444
▁iPad	-12.1444
▁Interpretation	-12.1444
▁Tafel	-12.1444
▁Hersteller	-12.1444
▁leaf	-12.1444
▁Tiefsee	-12.1444
▁Töne	-12.1444
▁1997	-12.1444
▁Supermarkt	-12.1444
▁authorities	-12.1444
▁tongue	-12.1444
▁wildlife	-12.1445
▁speichern	-12.1445
▁gods	-12.1445
▁gradually	-12.1445
▁marketplace	-12.1445
▁Methan	-12.1445
▁Versagen	-12.1445
▁friendship	-12.1445
▁Auflösung	-12.1446
▁campus	-12.1446
▁verfügen	-12.1447
▁Hawking	-12.1447
▁Tinte	-12.1447
▁Ausschnitt	-12.1447
▁workplace	-12.1448
▁Garage	-12.1448
▁Sturm	-12.1449
Time	-12.1449
▁Halb	-12.1449
▁vielerlei	-12.145
▁Abschnitt	-12.145
▁comedy	-12.1451
▁widely	-12.1453
▁profoundly	-12.1453
▁verständlich	-12.1454
▁import	-12.146
▁detailed	-12.1461
▁owned	-12.1463
▁included	-12.1464
▁Arzneimittel	-12.1464
▁Verletzungen	-12.1464
▁Energien	-12.1465
▁Programmierer	-12.1468
▁investing	-12.1469
▁Punkten	-12.1471
▁Privat	-12.1471
▁Eisen	-12.1474
glo	-12.1475
▁lokal	-12.1477
▁schau	-12.1478
▁geschlagen	-12.1478
gon	-12.1479
▁flows	-12.1479
▁wozu	-12.1482
fiel	-12.1483
▁Far	-12.1484
▁scenario	-12.1486
▁clue	-12.1486
▁assumption	-12.1487
▁biologist	-12.1487
▁economist	-12.1487
generation	-12.1488
▁Zentral	-12.1488
Mädchen	-12.1489
Gleich	-12.149
▁Schichten	-12.1492
▁auto	-12.1492
▁malen	-12.1493
▁Kim	-12.1493
▁grad	-12.1494
Hand	-12.1494
▁individuellen	-12.1496
▁mayor	-12.1498
inder	-12.1505
▁Erfindungen	-12.1506
ahr	-12.1511
▁tent	-12.1511
▁integriert	-12.1514
▁1,5	-12.1516
ography	-12.1517
▁ursprünglichen	-12.1519
▁beg	-12.152
versuch	-12.1521
▁Evan	-12.1522
legung	-12.1527
wege	-12.1528
▁tone	-12.1531
▁educated	-12.1535
▁poems	-12.1542
istisch	-12.1543
▁Play	-12.1547
99	-12.1549
▁metric	-12.1553
▁anstellen	-12.1554
▁Beobachtung	-12.1554
▁breaks	-12.1555
▁Besten	-12.1556
ump	-12.1557
▁Such	-12.1559
▁religiöse	-12.1562
▁affects	-12.1563
▁habits	-12.1563
▁praktische	-12.1564
ua	-12.1566
▁Charlie	-12.1567
▁scar	-12.1569
punkte	-12.157
▁aussah	-12.1575
▁Ameise	-12.1575
▁Schlange	-12.1575
▁Einrichtung	-12.1575
getragen	-12.1576
▁Merkmale	-12.1579
link	-12.158
▁Steine	-12.1583
▁Rasse	-12.1583
▁alarm	-12.1589
shi	-12.1592
▁"20	-12.1594
▁twist	-12.1597
▁Bergen	-12.1599
▁Februar	-12.16
öse	-12.1601
▁Disney	-12.1603
▁1994	-12.1603
▁Church	-12.1603
▁Poesie	-12.1603
▁Portugal	-12.1603
▁Zentimeter	-12.1603
▁beneath	-12.1603
▁beschleunigen	-12.1603
▁chamber	-12.1603
▁coordinate	-12.1603
▁curriculum	-12.1603
▁hybrid	-12.1603
▁miserable	-12.1603
▁tendency	-12.1603
▁überqueren	-12.1603
▁Hardware	-12.1603
▁Trinkwasser	-12.1603
▁Verwaltung	-12.1603
▁erheblich	-12.1603
▁tsunami	-12.1603
▁verarbeitet	-12.1603
▁verboten	-12.1603
▁verwirrt	-12.1603
▁Sudan	-12.1603
▁Tanzania	-12.1603
▁Bandbreite	-12.1603
▁Führungskräfte	-12.1603
▁optimism	-12.1603
▁LHC	-12.1603
▁Hilfsmittel	-12.1603
▁Unsicherheit	-12.1603
Krankenschwester	-12.1603
▁Treibhausgase	-12.1603
▁Königreich	-12.1603
▁prüfen	-12.1603
▁verheiratet	-12.1603
fähig	-12.1604
▁factories	-12.1604
▁ruft	-12.1604
Solche	-12.1604
▁Autobahn	-12.1604
▁subway	-12.1604
▁Vereinte	-12.1604
▁bored	-12.1605
▁verhält	-12.1605
▁450	-12.1606
▁instantly	-12.1606
▁morality	-12.1606
▁intersection	-12.1607
▁grösser	-12.1607
▁Pilot	-12.1608
▁Formel	-12.1608
▁Ego	-12.1609
▁präsentieren	-12.161
fische	-12.161
▁tiefen	-12.1611
▁agreement	-12.1611
▁Dick	-12.1612
▁widmen	-12.1612
▁eingeschlossen	-12.1613
▁Menschenrechte	-12.1614
▁logical	-12.1614
▁Kiste	-12.1616
zustellen	-12.1616
▁Abu	-12.1617
kette	-12.1619
▁jumped	-12.1621
▁Studierenden	-12.1623
▁formt	-12.1623
▁Oklahoma	-12.1623
▁Einzelnen	-12.1624
▁betreten	-12.1625
Wait	-12.1626
▁psychopath	-12.1628
▁zahlt	-12.1628
lief	-12.1629
zing	-12.1631
▁uniform	-12.1632
▁Acht	-12.1632
▁mitteilen	-12.1633
▁Jordan	-12.1636
regen	-12.1638
▁aufgeben	-12.1638
▁approaches	-12.1639
ographic	-12.164
▁flowing	-12.1643
▁irgendeiner	-12.1643
▁improved	-12.1645
▁Francis	-12.1645
▁redesign	-12.1647
▁cluster	-12.1648
Bruno	-12.1649
lässt	-12.1651
place	-12.1651
▁Trade	-12.1652
▁expecting	-12.1652
▁finanziellen	-12.1654
firmen	-12.1654
▁meint	-12.1654
▁staying	-12.1656
▁shore	-12.1659
▁seas	-12.166
▁Messer	-12.1661
known	-12.1662
Turn	-12.1664
▁obstacles	-12.1666
Art	-12.1671
▁160	-12.1671
▁Brücken	-12.1672
▁"10	-12.1674
▁Motoren	-12.1674
▁comic	-12.1675
real	-12.1675
Somit	-12.1675
▁pairs	-12.1676
▁tu	-12.1676
▁einnehmen	-12.1677
▁Jet	-12.168
Big	-12.1681
▁Keith	-12.1682
▁traditions	-12.1683
▁einstellen	-12.1683
stall	-12.1685
▁Wale	-12.1686
eva	-12.1687
▁7.	-12.1688
▁Tausenden	-12.1689
▁geheime	-12.169
▁Papa	-12.1692
▁remembered	-12.1695
tiert	-12.1695
swachstum	-12.1699
hop	-12.1699
▁Unsere	-12.1702
▁Interessante	-12.1705
▁column	-12.1711
▁opens	-12.1719
▁beam	-12.1722
aufnahmen	-12.1723
▁ankommen	-12.1724
stiegen	-12.1726
▁behauptet	-12.1726
▁articles	-12.1727
vier	-12.1728
▁gaps	-12.1729
las	-12.1729
▁vorn	-12.1729
▁künstlich	-12.1732
▁motivieren	-12.1732
▁wüsste	-12.1736
kehr	-12.1739
▁Andere	-12.1742
▁Gründer	-12.1743
spiegel	-12.1749
▁Social	-12.175
▁effektiver	-12.1751
▁physicists	-12.1753
zieren	-12.1754
zuziehen	-12.1755
▁Zahn	-12.1763
▁Rollstuhl	-12.1763
aktivität	-12.1763
gebäude	-12.1764
▁Bescheid	-12.1764
Herangehensweise	-12.1764
▁Kosovo	-12.1764
▁Nachmittag	-12.1764
▁Namibia	-12.1764
▁Society	-12.1764
▁Türkei	-12.1764
▁Verzweiflung	-12.1764
▁Wünsche	-12.1764
▁burden	-12.1764
▁cosmic	-12.1764
▁facilities	-12.1764
▁gewohnt	-12.1764
▁glimpse	-12.1764
▁interior	-12.1764
▁probieren	-12.1764
▁reducing	-12.1764
▁remix	-12.1764
▁trajectory	-12.1764
▁versorgt	-12.1764
▁Offenheit	-12.1764
▁innocent	-12.1764
▁überwachen	-12.1764
▁Liberia	-12.1764
▁jahrelang	-12.1764
▁Wolfram	-12.1764
▁Rhythmus	-12.1764
▁generous	-12.1764
▁ähnelt	-12.1764
▁Doppel	-12.1764
▁marry	-12.1764
▁expertise	-12.1764
▁addiction	-12.1765
▁Unfälle	-12.1765
▁honey	-12.1765
▁programmiert	-12.1765
▁Mittelpunkt	-12.1765
▁membrane	-12.1765
▁Leone	-12.1766
▁Einführung	-12.1766
oma	-12.1767
▁February	-12.1767
Genauso	-12.1768
▁threatened	-12.1768
▁initially	-12.1769
▁neulich	-12.1769
▁Northern	-12.1771
▁Moon	-12.1771
▁gathered	-12.1773
▁Schlagzeilen	-12.1773
▁Aufzeichnungen	-12.1773
▁archive	-12.1774
▁delivery	-12.1775
▁Einzige	-12.1775
▁Fettleibigkeit	-12.1776
▁Line	-12.1777
▁überdenken	-12.1777
▁Every	-12.1778
▁burned	-12.1779
▁coin	-12.1781
▁ships	-12.1781
▁exponential	-12.1781
▁remaining	-12.1783
▁Skulptur	-12.1784
▁dünne	-12.1784
▁genaue	-12.1784
▁städtischen	-12.1786
▁Alternativen	-12.1788
zugeben	-12.1788
▁gewachsen	-12.1791
▁chips	-12.1794
▁covering	-12.1795
▁professionals	-12.1796
arian	-12.1797
▁influenced	-12.1798
▁Free	-12.18
▁Ufer	-12.1801
▁fatal	-12.1802
▁Impfstoff	-12.1803
▁spielten	-12.1806
Allein	-12.1807
▁odds	-12.181
ole	-12.1811
springen	-12.1812
▁Zum	-12.1815
related	-12.1817
Keiner	-12.1818
Talk	-12.1818
Zahl	-12.1819
looking	-12.1819
▁schickten	-12.182
phy	-12.1821
▁Auch	-12.1821
ummer	-12.1821
▁demographic	-12.1822
▁neuesten	-12.1823
▁Altern	-12.1824
▁Club	-12.1826
▁tunnel	-12.1826
oto	-12.1829
▁Verkehrs	-12.183
liste	-12.1831
▁besides	-12.1832
OS	-12.1833
eil	-12.1833
▁ankommt	-12.1836
▁gesucht	-12.1837
▁Flüchtlinge	-12.1845
▁jüngere	-12.1849
▁Data	-12.1851
▁breit	-12.1851
▁Mother	-12.1855
nny	-12.1855
therapie	-12.1858
▁Asian	-12.186
pin	-12.1861
▁tritt	-12.1867
▁basieren	-12.1868
▁wh	-12.1868
▁Cloud	-12.1872
▁Religionen	-12.1879
ektion	-12.1882
▁niedrige	-12.1883
handed	-12.1883
▁kannten	-12.1885
alle	-12.1886
▁drones	-12.1887
▁Tode	-12.1888
dom	-12.1888
▁bee	-12.189
▁schafften	-12.189
▁Best	-12.1894
▁award	-12.1896
▁Berechnung	-12.19
▁Glaube	-12.19
▁Amt	-12.1901
▁soup	-12.1902
MO	-12.1906
Mass	-12.1908
▁demands	-12.191
▁50-	-12.1911
▁Grundstück	-12.1911
▁schwach	-12.1911
▁Tra	-12.1911
mun	-12.1912
illa	-12.1914
▁Out	-12.1916
style	-12.1917
ogen	-12.1918
usch	-12.1918
▁visuell	-12.1919
▁appeal	-12.1919
▁zweites	-12.1919
turm	-12.192
ule	-12.1925
▁Nigerian	-12.1926
▁spark	-12.1926
medizin	-12.1926
gewalt	-12.1928
▁tragic	-12.1928
▁Phantom	-12.1928
Syndrom	-12.1928
▁Bangalore	-12.1928
▁Berührung	-12.1928
▁Getreide	-12.1928
▁Luxus	-12.1928
▁Zuhörer	-12.1928
▁akademische	-12.1928
▁beeindruckt	-12.1928
▁cricket	-12.1928
▁dilemma	-12.1928
▁enterprise	-12.1928
▁eröffnen	-12.1928
▁prosthetic	-12.1928
▁qualities	-12.1928
▁steigern	-12.1928
▁vergewaltigt	-12.1928
▁vergrößert	-12.1928
▁verstärkt	-12.1928
▁zutiefst	-12.1928
▁PowerPoint	-12.1928
▁Widerspruch	-12.1928
generating	-12.1928
▁pulse	-12.1928
▁darzustellen	-12.1928
▁Nepal	-12.1928
▁rubber	-12.1928
▁RNA	-12.1928
▁simultaneously	-12.1929
▁betonen	-12.1929
▁fence	-12.1929
▁foster	-12.1929
▁mapping	-12.193
▁flach	-12.193
▁'80	-12.1932
▁wodurch	-12.1932
▁quad	-12.1933
▁clothing	-12.1933
▁conducted	-12.1934
▁UV	-12.1934
▁Juli	-12.1937
▁wealthy	-12.1938
▁hierfür	-12.1938
▁beizubringen	-12.1939
▁reflection	-12.1939
▁significantly	-12.194
strecken	-12.1941
▁Kommentare	-12.1942
▁psycho	-12.1943
▁printed	-12.1943
▁someday	-12.1944
▁detector	-12.1945
▁Cape	-12.1945
▁Datenbank	-12.195
▁180	-12.1951
▁Angestellten	-12.1951
▁bezieht	-12.1953
▁140	-12.1954
▁Skulpturen	-12.1957
▁sichere	-12.196
Steve	-12.196
▁charges	-12.1962
▁Blasen	-12.1963
▁Sechs	-12.1963
▁Konzert	-12.1963
▁robotics	-12.1969
▁umsetzen	-12.197
▁errors	-12.1971
lern	-12.1971
▁ticket	-12.1978
▁crop	-12.198
▁bond	-12.198
uell	-12.1981
onen	-12.1981
▁Prozesses	-12.1982
ierende	-12.1983
▁occurs	-12.1986
▁hormone	-12.1987
▁Grundlagen	-12.1987
▁merkwürdig	-12.1988
school	-12.1989
▁Bahn	-12.1989
▁Israeli	-12.1989
▁reine	-12.1989
fertig	-12.1989
▁physisch	-12.1996
Ex	-12.1997
▁Point	-12.1999
▁supporting	-12.2
▁socially	-12.2002
▁Wissenschafts	-12.2003
gung	-12.2004
▁Protest	-12.2005
▁pound	-12.2008
▁geb	-12.201
AR	-12.2011
▁Dad	-12.2011
▁rape	-12.2013
bär	-12.2021
▁legten	-12.2027
pä	-12.2027
▁Spitzen	-12.2037
wat	-12.2039
▁bottles	-12.2042
▁sustain	-12.2045
▁rose	-12.2047
▁Za	-12.2049
anischen	-12.205
▁murder	-12.205
▁Bart	-12.2054
och	-12.2055
▁Golden	-12.2059
14	-12.206
▁lu	-12.2063
▁Kolonie	-12.2067
▁ähnliches	-12.2067
▁Lunge	-12.2067
▁inventor	-12.207
quellen	-12.2073
angle	-12.2074
▁forming	-12.2074
300	-12.2077
▁Bewegungs	-12.2078
Four	-12.2078
▁47	-12.2079
Isn	-12.2081
▁98	-12.2085
▁guarantee	-12.2085
▁distinguish	-12.2086
fri	-12.209
▁Robotern	-12.2091
ehe	-12.2092
▁moralisch	-12.2092
▁occasion	-12.2092
▁neat	-12.2092
bertragung	-12.2094
▁Diplomat	-12.2094
Little	-12.2095
▁Jazz	-12.2095
▁Jefferson	-12.2095
▁Nairobi	-12.2095
▁acoustic	-12.2095
▁clay	-12.2095
▁despair	-12.2095
▁eBay	-12.2095
▁endangered	-12.2095
▁ermutigt	-12.2095
▁frustrated	-12.2095
▁fröhlich	-12.2095
▁geprägt	-12.2095
▁glamorous	-12.2095
▁harness	-12.2095
▁sponsor	-12.2095
▁Engel	-12.2095
▁cotton	-12.2095
▁Dutch	-12.2095
▁garbage	-12.2095
▁Turkey	-12.2095
▁contemporary	-12.2095
▁Unabhängigkeit	-12.2095
▁Solarenergie	-12.2095
▁division	-12.2095
▁reproduce	-12.2095
▁ownership	-12.2095
▁Selbstmord	-12.2095
▁schlimmste	-12.2095
▁vielmals	-12.2095
▁pursuit	-12.2095
▁shipping	-12.2095
▁crew	-12.2095
▁sicherzustellen	-12.2096
▁nutrients	-12.2096
verlust	-12.2096
▁Blitz	-12.2096
▁Feier	-12.2097
▁Milk	-12.2097
▁comments	-12.2097
▁versetzt	-12.2098
▁Sklaven	-12.2098
▁Glaubens	-12.2099
fuse	-12.21
stheorie	-12.21
▁established	-12.2101
▁format	-12.2101
▁kritisch	-12.2102
▁filmmaker	-12.2103
▁restliche	-12.2103
▁hunting	-12.2103
karten	-12.2106
▁float	-12.2108
▁remained	-12.2108
▁Danny	-12.2109
▁aktiviert	-12.211
▁performed	-12.211
▁Kunststoff	-12.2111
▁chronic	-12.2111
▁Kiribati	-12.2111
▁Liter	-12.2112
phon	-12.2114
▁chances	-12.2116
▁channels	-12.2116
▁Vorhersagen	-12.2117
▁rent	-12.2118
opfer	-12.2118
▁Salz	-12.2118
▁spezifische	-12.2118
▁zugeben	-12.2119
▁Blogs	-12.212
▁Vernunft	-12.2121
▁Automobil	-12.2121
▁bush	-12.2123
▁rolling	-12.2124
▁transportiert	-12.2125
▁engines	-12.2125
▁friendly	-12.2126
▁Bildungssystem	-12.2126
▁shit	-12.2127
Whatever	-12.2129
cheln	-12.2129
Mal	-12.2129
▁shots	-12.213
▁wedding	-12.213
▁bombs	-12.2133
▁Up	-12.2135
▁eingestellt	-12.2136
▁geringer	-12.214
▁lauter	-12.2143
▁Journal	-12.2143
▁arabische	-12.2144
table	-12.2147
▁rainforest	-12.2147
▁medication	-12.2148
▁psychologist	-12.2148
▁ritual	-12.2148
▁Emily	-12.2149
▁panel	-12.2149
▁connects	-12.2152
▁teenager	-12.2155
▁Rettung	-12.2157
▁Slums	-12.2157
rechnen	-12.2157
▁badly	-12.2158
Source	-12.2159
▁caves	-12.216
Peter	-12.2161
Amerikaner	-12.2161
▁Vorbild	-12.2162
▁dreidimensional	-12.2166
reisen	-12.2167
Geben	-12.2167
▁Interface	-12.2168
▁serving	-12.2169
aci	-12.2171
▁Sylvia	-12.2173
▁lions	-12.2175
▁lass	-12.2176
gging	-12.2176
▁jünger	-12.2176
atten	-12.2178
▁slums	-12.218
▁globaler	-12.218
▁Buches	-12.2181
leiten	-12.2182
kamen	-12.2185
▁tie	-12.2186
▁Klimawandels	-12.2186
Us	-12.2188
Sc	-12.2189
▁Klassen	-12.2191
▁fließen	-12.2191
▁blogs	-12.2194
▁alternatives	-12.2196
haut	-12.2199
▁Geburts	-12.2199
▁Rettungs	-12.2202
hielt	-12.2204
träge	-12.2206
▁mutig	-12.2208
rium	-12.2209
szeit	-12.2209
▁reactions	-12.2209
fähigkeit	-12.2213
agen	-12.222
verbrauch	-12.2224
▁würdest	-12.2234
krat	-12.2234
▁drawings	-12.2235
▁Strecke	-12.2236
ites	-12.2237
▁Emissionen	-12.224
▁cur	-12.2241
decke	-12.2242
▁üblich	-12.2249
aving	-12.225
▁tight	-12.2251
zulegen	-12.2256
▁establish	-12.2257
▁sketch	-12.2259
still	-12.226
qualität	-12.2261
schläge	-12.2263
▁Erscheinung	-12.2264
Ungefähr	-12.2264
▁Carnegie	-12.2264
▁Jäger	-12.2264
▁Kalorien	-12.2264
▁Michigan	-12.2264
▁Selektion	-12.2264
▁Stabilität	-12.2264
▁Venezuela	-12.2264
▁Währung	-12.2264
▁Zimbabwe	-12.2264
▁kosmische	-12.2264
▁reliable	-12.2264
▁ubiquitous	-12.2264
▁Expedition	-12.2264
▁Käse	-12.2264
▁Schöpfung	-12.2264
▁befragt	-12.2264
▁beängstigend	-12.2264
▁garantiert	-12.2264
▁jazz	-12.2264
▁schwanger	-12.2264
▁vergrößern	-12.2264
▁Motto	-12.2264
▁konsumieren	-12.2264
▁Reihenfolge	-12.2264
▁Wohnzimmer	-12.2264
blatt	-12.2264
▁Hafen	-12.2265
▁investors	-12.2265
▁gentleman	-12.2265
▁representative	-12.2265
zentren	-12.2265
▁drüber	-12.2265
▁getrieben	-12.2265
▁Kino	-12.2265
▁Redner	-12.2266
▁Regal	-12.2266
▁Darm	-12.2266
▁nearby	-12.2266
▁Spain	-12.2267
▁analogy	-12.2269
▁bun	-12.2269
▁ausländische	-12.2269
▁graphics	-12.2269
▁Khan	-12.227
▁Cal	-12.2271
▁previously	-12.2272
▁niemandem	-12.2273
▁30,000	-12.2273
▁Gel	-12.2274
▁Bären	-12.2275
▁intensiv	-12.2275
▁March	-12.2275
▁crystal	-12.2279
stände	-12.2281
▁fur	-12.2282
▁Bedauern	-12.2286
▁angemessen	-12.2288
▁aufzunehmen	-12.229
▁Oma	-12.2291
▁offering	-12.2292
▁lese	-12.2294
▁gro	-12.2295
▁currency	-12.2296
▁transforming	-12.2296
▁pigs	-12.2296
▁anzunehmen	-12.2297
▁tägliche	-12.2298
▁verbrennen	-12.2299
▁markiert	-12.2301
▁nukleare	-12.2304
Step	-12.231
▁Umgebungen	-12.231
foto	-12.2311
▁komische	-12.2316
flu	-12.2316
Music	-12.2317
▁strike	-12.232
▁pond	-12.2321
▁ernste	-12.2324
adding	-12.2327
▁armed	-12.2328
Voice	-12.2334
ona	-12.2335
Krieg	-12.2335
Nummer	-12.2337
bleiben	-12.2338
▁blieben	-12.2339
▁recall	-12.234
Glauben	-12.2344
ologen	-12.2344
▁restaurants	-12.2348
▁Leit	-12.235
▁Hyper	-12.235
▁großartiger	-12.2353
▁Food	-12.2354
dann	-12.2354
hü	-12.2356
▁Höhen	-12.2359
▁Anders	-12.236
menschen	-12.236
Con	-12.2361
▁Bruce	-12.2363
76	-12.2364
ae	-12.2367
Stat	-12.2369
▁custom	-12.2375
▁kills	-12.2376
▁Geo	-12.2378
Laur	-12.2378
▁wirksam	-12.2383
▁Origami	-12.2383
▁tötet	-12.2387
Gl	-12.2388
ppel	-12.2391
▁gedreht	-12.2393
▁Pet	-12.2401
lehrer	-12.2405
▁Passwörter	-12.2408
▁Hallo	-12.2412
▁Two	-12.2413
Ca	-12.2415
▁dünn	-12.2416
istischen	-12.2419
geld	-12.2421
▁merkte	-12.2423
Mr	-12.2425
▁Dimension	-12.2425
dach	-12.2428
ston	-12.2429
▁Milo	-12.2431
▁classrooms	-12.2431
▁fool	-12.2431
▁Wochenende	-12.2432
▁Knoten	-12.2432
▁sorgt	-12.2433
▁Hypothese	-12.2435
▁Zoo	-12.2435
▁naive	-12.2436
ao	-12.2436
▁Photo	-12.2437
Although	-12.2437
Dankeschön	-12.2437
Government	-12.2437
verschmutzung	-12.2437
▁Bakterium	-12.2437
▁Erlaubnis	-12.2437
▁Schizophrenie	-12.2437
▁Tokyo	-12.2437
▁Tropfen	-12.2437
▁Tsunami	-12.2437
▁anzuwenden	-12.2437
▁awkward	-12.2437
▁beteiligen	-12.2437
▁categories	-12.2437
▁dokumentiert	-12.2437
▁dopamine	-12.2437
▁precious	-12.2437
▁Princeton	-12.2437
▁delay	-12.2437
▁mutual	-12.2437
▁auswählen	-12.2437
▁gelingt	-12.2437
▁stattfand	-12.2437
▁Rekord	-12.2437
▁canopy	-12.2437
▁earliest	-12.2437
▁streiten	-12.2437
▁triangle	-12.2437
▁Fußgänger	-12.2437
▁Vegas	-12.2437
▁impressive	-12.2437
▁excitement	-12.2437
▁Zehen	-12.2437
▁MoMA	-12.2437
▁falten	-12.2437
▁Freizeit	-12.2437
▁tätig	-12.2437
▁Rennen	-12.2437
achtet	-12.2438
▁witzig	-12.2438
▁occasionally	-12.2438
▁Raumschiff	-12.2438
▁visualization	-12.2438
▁Gramm	-12.2438
▁transportieren	-12.2438
schlaf	-12.2439
▁coach	-12.2439
▁located	-12.2439
sweise	-12.2439
▁hiding	-12.244
25	-12.244
aktiv	-12.244
Until	-12.244
▁Profil	-12.2441
▁200,000	-12.2443
matic	-12.2443
▁Ernte	-12.2444
▁Diego	-12.2446
▁upward	-12.2448
▁rasch	-12.2448
▁accounts	-12.245
▁perceived	-12.245
▁Lügen	-12.245
▁Felder	-12.245
appen	-12.2452
zusetzen	-12.2453
artigen	-12.2453
▁aufhört	-12.2454
▁Impuls	-12.2455
▁glasses	-12.2458
rennen	-12.246
▁Archiv	-12.2461
Hast	-12.2461
▁Erbe	-12.2462
▁Amsterdam	-12.2464
Erzähler	-12.2465
▁wüssten	-12.2467
▁closest	-12.2468
▁counting	-12.2468
▁Gordon	-12.2469
Both	-12.247
▁Dir	-12.247
sparen	-12.2471
▁Weißen	-12.2471
▁LKW	-12.2473
▁Kommentar	-12.2474
▁dating	-12.2474
▁lobe	-12.2475
▁langfristige	-12.2477
▁freely	-12.2477
losigkeit	-12.2478
führer	-12.2479
Einfach	-12.248
▁profits	-12.2482
rass	-12.2483
page	-12.2485
▁Schwein	-12.2485
smittel	-12.2486
▁ungewöhnliche	-12.2488
arch	-12.2488
App	-12.249
wissen	-12.249
▁corporations	-12.2491
farben	-12.2495
Same	-12.2495
▁pill	-12.2495
▁chimpanzee	-12.2496
▁incentive	-12.2496
▁evolutionäre	-12.2497
▁loan	-12.2498
▁millimeter	-12.2498
▁traits	-12.2499
Bring	-12.2499
▁Affe	-12.25
▁Wüsten	-12.2501
iness	-12.2502
water	-12.2509
▁versions	-12.2509
▁landscapes	-12.2513
▁conc	-12.2513
Einstein	-12.2519
▁Dave	-12.2519
▁52	-12.252
Liebe	-12.2521
▁einzigartigen	-12.2521
▁jagen	-12.2522
▁Laptops	-12.2522
träger	-12.253
▁irgend	-12.2532
▁items	-12.2532
▁wiegt	-12.2535
▁bell	-12.2535
▁pointing	-12.2537
▁acid	-12.254
▁kluge	-12.2541
▁Entschuldigung	-12.2543
eurer	-12.2545
mile	-12.2545
▁gate	-12.2546
▁shifting	-12.2546
gemeinschaft	-12.2547
start	-12.255
läufe	-12.2553
ied	-12.2553
▁veröffentlichte	-12.2554
▁camps	-12.2555
▁rituals	-12.2556
energie	-12.2557
▁schrecklichen	-12.256
frei	-12.2561
▁IT	-12.2564
▁Think	-12.2569
▁Roll	-12.2569
▁Susan	-12.2569
▁Korean	-12.2572
Drittens	-12.2574
▁Nature	-12.2579
▁Kontroll	-12.2579
▁Eve	-12.2584
▁trauma	-12.2586
▁gemeint	-12.2586
▁portrait	-12.2587
▁1:	-12.2587
▁irre	-12.2588
rude	-12.2589
▁hunt	-12.2591
Sicher	-12.2591
▁purposes	-12.2592
▁Indiens	-12.2592
suche	-12.2592
kap	-12.2593
[...]
