<unk>	0
<s>	0
</s>	0
<pad>	0
,	-2.51703
▁"	-2.6589
":	-3.34769
."	-3.49727
▁	-3.73452
input	-4.04033
output	-4.04052
{	-4.0409
▁}	-4.0409
▁the	-4.27446
s	-4.45776
▁in	-4.67485
'	-4.73551
▁to	-4.74033
▁of	-4.80646
▁die	-4.86763
▁and	-4.86782
▁a	-4.87839
▁und	-4.99577
▁that	-5.0853
.	-5.2889
▁der	-5.29741
▁ist	-5.40031
▁I	-5.40299
▁is	-5.4113
▁you	-5.42654
▁it	-5.48037
▁das	-5.50686
▁zu	-5.51519
▁we	-5.56626
▁ich	-5.68023
▁wir	-5.68393
-	-5.68676
▁was	-5.75283
:	-5.75329
▁es	-5.76457
And	-5.83217
en	-5.84886
▁this	-5.85102
t	-5.87377
n	-5.87915
▁ein	-5.90862
▁sie	-5.92227
▁von	-5.98771
▁--	-5.98982
▁nicht	-6.00482
▁an	-6.02949
▁eine	-6.0355
▁dass	-6.04018
▁so	-6.08154
▁\"	-6.08228
?"	-6.14692
▁den	-6.15582
e	-6.18905
▁for	-6.20036
▁Sie	-6.20612
▁mit	-6.21489
▁are	-6.25627
Und	-6.26272
▁auf	-6.27174
▁have	-6.27476
▁they	-6.31488
▁on	-6.32343
▁with	-6.367
▁wie	-6.40057
▁sich	-6.40173
▁can	-6.41816
re	-6.42475
So	-6.42674
▁sind	-6.45558
▁be	-6.46486
▁what	-6.4924
▁für	-6.50256
▁haben	-6.51184
▁about	-6.51237
▁all	-6.53579
Ich	-6.56184
▁man	-6.56276
I	-6.57731
▁war	-6.60303
▁at	-6.66094
m	-6.67002
▁not	-6.6827
▁als	-6.69096
▁do	-6.6953
▁um	-6.7077
▁as	-6.71981
▁there	-6.76744
er	-6.77655
▁one	-6.79297
▁diese	-6.79712
▁people	-6.80689
▁like	-6.81642
▁dem	-6.82573
▁im	-6.82632
▁from	-6.82641
▁my	-6.83386
Das	-6.86413
.\""	-6.86571
▁uns	-6.89706
▁also	-6.90979
▁wenn	-6.91855
▁einen	-6.92829
▁aus	-6.92981
▁but	-6.93633
It	-6.9438
Es	-6.94712
d	-6.9641
▁our	-6.97535
▁just	-6.98683
▁können	-6.99058
Wir	-6.9939
▁or	-6.99506
▁werden	-7.00712
▁über	-7.01575
ing	-7.02617
▁oder	-7.03195
▁er	-7.03598
▁hat	-7.04653
▁out	-7.05869
▁these	-7.05922
▁very	-7.06099
▁if	-7.06867
▁des	-7.07597
▁me	-7.07912
But	-7.08879
We	-7.10291
▁know	-7.11183
The	-7.1219
▁by	-7.12386
▁auch	-7.13829
▁einer	-7.14203
▁going	-7.14214
▁aber	-7.14227
▁up	-7.14312
▁them	-7.144
Sie	-7.15148
",	-7.15547
▁einem	-7.15849
▁he	-7.16615
▁kann	-7.16647
▁when	-7.18038
\"	-7.18123
r	-7.19039
▁more	-7.19907
▁because	-7.21043
ve	-7.21235
▁think	-7.22572
▁nur	-7.22681
▁had	-7.23205
▁wird	-7.23433
▁see	-7.2417
▁sehr	-7.24185
▁which	-7.26959
▁your	-7.2791
▁how	-7.28018
▁who	-7.28068
▁their	-7.28522
▁Menschen	-7.2955
▁–	-7.3002
▁were	-7.30458
▁will	-7.30571
▁hier	-7.30868
▁really	-7.30968
Die	-7.31265
Aber	-7.31591
▁get	-7.31755
▁would	-7.31916
▁mich	-7.32032
▁gibt	-7.33328
▁sein	-7.37725
▁dann	-7.37898
▁us	-7.3889
▁world	-7.40224
ed	-7.40314
▁time	-7.41141
▁here	-7.4221
In	-7.42718
▁has	-7.43067
▁nach	-7.43975
?	-7.44397
▁etwas	-7.45005
▁noch	-7.45743
▁♫	-7.4578
▁into	-7.47841
▁some	-7.48764
▁sehen	-7.49687
▁habe	-7.50143
▁way	-7.50315
▁actually	-7.51279
▁don	-7.51409
▁dieser	-7.51485
▁then	-7.52193
This	-7.52348
▁mir	-7.52421
▁vor	-7.52476
es	-7.54655
▁Welt	-7.55436
▁years	-7.55807
▁things	-7.56441
▁where	-7.56596
You	-7.57052
▁mehr	-7.58273
▁now	-7.58334
▁other	-7.58633
▁go	-7.58921
▁want	-7.59998
▁S	-7.62309
▁bei	-7.62706
▁could	-7.62825
▁make	-7.63393
Now	-7.63582
▁alle	-7.64977
▁been	-7.65962
;	-7.66428
▁wurde	-7.70765
▁am	-7.72509
▁said	-7.72588
▁durch	-7.72633
Wenn	-7.7407
▁Ihnen	-7.75697
▁something	-7.76176
They	-7.7637
▁zum	-7.76868
▁machen	-7.77092
▁two	-7.78214
▁right	-7.78397
▁T	-7.7844
▁wirklich	-7.78945
▁than	-7.79167
▁no	-7.79812
▁much	-7.8011
▁meine	-7.81199
▁immer	-7.8163
▁those	-7.82412
▁first	-7.82691
ll	-7.82721
▁over	-7.84961
▁thing	-7.85299
▁little	-7.85393
▁tun	-7.85884
▁weil	-7.86004
▁got	-7.86747
▁back	-7.86826
▁look	-7.8751
▁unsere	-7.88518
▁his	-7.89399
▁say	-7.90409
▁viel	-7.91216
▁da	-7.9131
▁hatte	-7.92323
▁work	-7.9265
▁Zeit	-7.93069
▁life	-7.93644
▁ihre	-7.93796
▁keine	-7.94944
▁only	-7.95462
▁need	-7.96302
▁dieses	-7.97034
▁Leben	-7.97411
Also	-7.97521
▁she	-7.98116
▁most	-7.98451
▁diesem	-7.98619
▁her	-7.98695
ly	-8.00128
▁müssen	-8.00333
▁kind	-8.00457
▁Leute	-8.01092
▁viele	-8.01704
▁take	-8.02189
▁wo	-8.0226
▁even	-8.0232
▁new	-8.02469
▁wissen	-8.03137
?\""	-8.03157
y	-8.03193
▁many	-8.04207
▁lot	-8.04224
▁Dinge	-8.04772
▁zwei	-8.04983
▁einfach	-8.05106
▁sagte	-8.05384
▁sagen	-8.05401
▁waren	-8.05437
That	-8.05444
▁Jahren	-8.05943
▁Ich	-8.05993
▁diesen	-8.06842
▁bin	-8.07087
▁Art	-8.07603
▁andere	-8.08056
Er	-8.08677
▁good	-8.08716
▁around	-8.09149
▁did	-8.09411
▁different	-8.11576
▁Talk	-8.11793
▁jetzt	-8.12005
▁ihr	-8.12102
TED	-8.12129
▁anderen	-8.12639
in	-8.12643
Was	-8.13086
▁down	-8.13136
What	-8.14559
ranscript	-8.15419
ubtitles	-8.15594
▁through	-8.15633
▁eines	-8.16513
▁zur	-8.17269
▁würde	-8.17392
▁du	-8.20122
▁same	-8.20202
▁selbst	-8.20274
There	-8.20396
▁alles	-8.20567
▁damit	-8.21109
▁Und	-8.21142
▁come	-8.21645
▁every	-8.21787
▁use	-8.2188
▁bis	-8.22346
▁Jahre	-8.24432
▁geht	-8.24932
▁being	-8.25105
▁-	-8.26156
▁doing	-8.26587
▁put	-8.27522
▁three	-8.27834
▁gut	-8.29452
▁muss	-8.30209
▁day	-8.31766
▁wieder	-8.32107
Well	-8.32817
He	-8.33892
▁well	-8.33934
Der	-8.33943
If	-8.34229
▁10	-8.34593
A	-8.34833
▁schon	-8.35096
▁talk	-8.35626
▁called	-8.35892
▁human	-8.36184
▁mein	-8.37364
▁percent	-8.37826
▁any	-8.37836
▁find	-8.3906
▁made	-8.39941
▁ihnen	-8.40077
▁möchte	-8.40114
▁vielleicht	-8.4025
▁Das	-8.40368
▁denn	-8.41299
st	-8.41839
▁why	-8.42064
▁Geschichte	-8.42323
▁tell	-8.42736
▁Kinder	-8.43459
▁davon	-8.44125
▁fact	-8.44283
▁change	-8.45064
Wie	-8.45264
▁Es	-8.46453
▁year	-8.46495
▁ganz	-8.47439
Man	-8.47548
▁should	-8.47965
▁idea	-8.48316
▁great	-8.48488
a	-8.48534
▁heute	-8.48662
▁ob	-8.48716
▁own	-8.48719
Nun	-8.49381
"	-8.50203
▁today	-8.50318
al	-8.50668
▁drei	-8.50701
▁hatten	-8.50909
l	-8.50992
S	-8.51275
▁didn	-8.51307
▁ihn	-8.52229
▁einige	-8.52258
▁last	-8.52403
▁seine	-8.52681
▁könnte	-8.52696
te	-8.53255
▁started	-8.53806
▁let	-8.54016
▁ab	-8.54301
Diese	-8.54389
▁Jahr	-8.54795
▁after	-8.5539
▁dort	-8.55391
▁20	-8.55713
▁thought	-8.55875
▁zurück	-8.55979
▁big	-8.56013
▁might	-8.56134
▁course	-8.56353
▁wollen	-8.56429
▁darüber	-8.57194
▁paar	-8.57329
▁better	-8.57369
▁give	-8.57428
▁before	-8.57866
▁still	-8.5801
▁went	-8.58071
▁important	-8.58376
▁genau	-8.58868
▁wurden	-8.59163
▁meiner	-8.59196
▁gehen	-8.59408
▁problem	-8.59831
▁nun	-8.59894
▁another	-8.6044
▁off	-8.60546
▁brain	-8.60987
▁werde	-8.61475
▁part	-8.61759
Hier	-8.61945
▁story	-8.62006
▁never	-8.62283
▁system	-8.63097
▁tatsächlich	-8.63142
▁start	-8.63519
▁neue	-8.64108
▁unserer	-8.64237
▁show	-8.64399
▁able	-8.64547
▁sondern	-8.66113
▁ago	-8.6635
▁next	-8.66375
▁unter	-8.66505
▁Problem	-8.66642
▁him	-8.66706
▁Beispiel	-8.66824
▁weiter	-8.66851
▁gab	-8.66861
▁water	-8.67013
▁"\"	-8.67036
▁Wir	-8.67354
▁Teil	-8.67543
▁bit	-8.67664
▁together	-8.67695
▁dazu	-8.68449
▁vom	-8.68636
▁place	-8.68698
▁wäre	-8.68855
▁long	-8.69325
▁does	-8.69507
▁few	-8.69721
ung	-8.69787
k	-8.69844
▁came	-8.69958
c	-8.71113
o	-8.71469
▁dies	-8.7169
▁A	-8.71978
▁again	-8.72047
▁technology	-8.7257
▁sogar	-8.72651
▁denke	-8.72655
▁finden	-8.72688
▁macht	-8.72899
▁kein	-8.7296
▁denken	-8.73658
▁kommen	-8.73794
▁each	-8.73942
▁mean	-8.73995
▁between	-8.74151
▁zwischen	-8.74414
▁used	-8.74865
▁end	-8.75197
▁Tag	-8.7595
▁love	-8.76327
▁weiß	-8.76335
▁gemacht	-8.76623
▁found	-8.76848
▁Ihre	-8.76857
▁question	-8.76876
▁einmal	-8.76972
▁denen	-8.76998
▁gerade	-8.77021
▁real	-8.77375
▁its	-8.77533
▁data	-8.77785
▁zusammen	-8.77853
Dies	-8.78061
▁It	-8.78084
▁Internet	-8.78085
▁Frage	-8.78172
Als	-8.78576
▁too	-8.79163
▁glaube	-8.79264
▁Wasser	-8.79377
▁geben	-8.79552
de	-8.79593
▁Arbeit	-8.79747
▁ohne	-8.79857
▁kommt	-8.79901
▁women	-8.79996
▁example	-8.80003
▁live	-8.80386
▁looking	-8.80406
g	-8.80796
When	-8.81029
▁point	-8.81129
▁New	-8.81182
▁Frauen	-8.81339
▁unser	-8.81535
▁ihren	-8.81848
▁zeigen	-8.81852
▁sort	-8.82553
▁done	-8.82606
▁understand	-8.82626
▁dafür	-8.831
▁doesn	-8.83537
Ein	-8.83835
▁passiert	-8.83908
▁würden	-8.84453
▁TED	-8.84538
▁Land	-8.8464
▁nie	-8.85008
▁konnte	-8.85082
▁ersten	-8.8519
▁ganze	-8.85281
▁sieht	-8.85923
▁call	-8.86077
ten	-8.86531
▁wanted	-8.86702
▁verstehen	-8.8687
▁million	-8.8727
▁Die	-8.87447
▁whole	-8.87611
▁warum	-8.87866
▁jeder	-8.88084
▁In	-8.88287
▁daran	-8.88417
▁während	-8.88484
▁school	-8.88486
▁four	-8.88646
▁ever	-8.88855
▁Prozent	-8.89072
▁working	-8.8911
f	-8.89339
▁Millionen	-8.89366
▁believe	-8.89371
und	-8.89683
den	-8.89899
▁etwa	-8.90254
▁help	-8.9026
▁trying	-8.90324
▁erste	-8.90392
▁person	-8.90614
▁un	-8.90868
▁mal	-8.91107
▁lassen	-8.91165
Because	-8.91395
▁always	-8.91666
▁may	-8.91699
▁ver	-8.91913
▁away	-8.91967
!"	-8.92027
▁große	-8.9211
▁sagt	-8.92157
▁ja	-8.92192
▁feel	-8.92246
▁design	-8.9242
th	-8.92623
▁children	-8.92675
▁welche	-8.92698
▁sollte	-8.92754
▁try	-8.92842
▁Idee	-8.93239
▁sollten	-8.93278
▁letzten	-8.93345
▁30	-8.93471
Thank	-8.94013
▁Daten	-8.94254
▁So	-8.94735
▁Gehirn	-8.94933
▁B	-8.94946
▁leben	-8.95674
▁könnten	-8.95889
▁besser	-8.95955
▁Er	-8.96006
▁ihrer	-8.96271
▁meisten	-8.96298
▁country	-8.96354
▁fast	-8.96524
▁using	-8.97267
▁Mal	-8.97382
▁wollte	-8.97655
▁meinen	-8.97826
▁create	-8.98097
▁meinem	-8.98285
▁Weg	-8.9829
▁50	-8.98367
▁power	-8.98501
▁dabei	-8.9874
▁Bild	-8.98783
▁The	-8.98928
h	-8.99162
▁ziemlich	-8.99335
▁sprechen	-8.99851
▁kids	-8.99899
▁space	-9.00306
▁ging	-9.00588
▁pro	-9.00632
▁Geld	-9.00884
▁high	-9.01121
▁natürlich	-9.01162
i	-9.01367
▁thinking	-9.01382
▁five	-9.01394
▁bekommen	-9.01766
▁means	-9.01808
▁become	-9.01818
▁arbeiten	-9.01894
▁information	-9.02055
▁took	-9.02274
!	-9.02296
]	-9.02437
▁best	-9.02445
B	-9.02652
an	-9.02799
▁number	-9.03089
▁everything	-9.03613
▁wichtig	-9.03621
▁Ende	-9.03715
▁kam	-9.03731
▁money	-9.03754
▁maybe	-9.03767
ern	-9.03793
▁100	-9.03918
▁home	-9.04165
▁future	-9.04249
▁small	-9.04273
▁darauf	-9.04675
▁food	-9.04844
▁And	-9.05011
▁light	-9.05148
▁U	-9.05279
▁hin	-9.05343
▁nichts	-9.05431
▁nehmen	-9.05579
,\"	-9.05799
▁E	-9.05933
▁left	-9.06039
be	-9.06217
▁old	-9.07024
▁We	-9.07148
▁Grund	-9.07174
▁weniger	-9.07242
Eine	-9.07368
▁sense	-9.07659
How	-9.0767
▁hard	-9.07946
▁heraus	-9.07977
▁kleinen	-9.08123
▁enough	-9.08156
▁doch	-9.08219
▁second	-9.08582
▁getting	-9.08774
▁quite	-9.08835
▁social	-9.08847
▁energy	-9.09368
z	-9.09747
▁Dollar	-9.10158
▁bedeutet	-9.10225
▁Technologie	-9.1097
▁unseren	-9.11299
▁15	-9.11353
▁China	-9.11357
ic	-9.11511
▁vier	-9.11992
▁comes	-9.12159
▁probably	-9.12452
▁building	-9.12887
▁eigentlich	-9.12955
▁happened	-9.12971
▁Raum	-9.13178
▁build	-9.13214
▁less	-9.13235
▁says	-9.13599
▁making	-9.13634
▁ihm	-9.13692
▁kleine	-9.13925
▁play	-9.14069
▁bringen	-9.14777
▁interesting	-9.14777
▁Sache	-9.14792
▁talking	-9.14907
▁half	-9.14961
▁dachte	-9.15304
▁stuff	-9.15343
▁Dank	-9.15424
▁brauchen	-9.15478
▁body	-9.15555
ste	-9.16018
Da	-9.16103
▁[	-9.16185
These	-9.16358
▁science	-9.16421
▁gesehen	-9.1646
▁without	-9.16503
▁Aber	-9.166
le	-9.17052
ers	-9.17163
▁ask	-9.17402
▁zeigt	-9.17475
▁lives	-9.1748
▁jemand	-9.18038
D	-9.18199
▁hand	-9.1827
▁countries	-9.1832
▁großen	-9.18466
▁♪	-9.18518
▁Weise	-9.18528
▁simple	-9.1855
▁Zukunft	-9.18809
▁such	-9.18814
▁Computer	-9.19278
One	-9.19471
▁told	-9.19528
▁York	-9.19676
My	-9.19729
K	-9.19736
▁Seite	-9.19838
▁moment	-9.19852
▁pretty	-9.20049
▁coming	-9.20221
▁times	-9.20551
▁dollars	-9.20975
▁anything	-9.21052
sten	-9.21185
▁across	-9.21317
▁learn	-9.2163
on	-9.21732
▁happen	-9.21851
▁Stadt	-9.22309
u	-9.2294
▁ganzen	-9.2308
▁side	-9.23371
Im	-9.23391
▁makes	-9.2382
b	-9.24323
▁living	-9.24334
▁Africa	-9.24438
▁Mann	-9.24525
Here	-9.24665
▁experience	-9.24793
to	-9.24921
p	-9.25072
▁gegen	-9.2523
▁jeden	-9.25402
▁keinen	-9.25632
All	-9.2583
▁Menge	-9.25848
▁bad	-9.26235
▁global	-9.26266
▁room	-9.26279
▁else	-9.26307
▁open	-9.26381
▁später	-9.26414
▁hätte	-9.26466
▁gesagt	-9.26662
▁Ort	-9.26671
▁seit	-9.26676
▁You	-9.26722
▁far	-9.26789
.\"	-9.26801
▁versuchen	-9.26827
E	-9.2695
▁Person	-9.26971
▁care	-9.2708
▁car	-9.271
▁later	-9.27131
▁Energie	-9.27295
▁saw	-9.27341
▁glauben	-9.27743
▁move	-9.27841
▁Frau	-9.27967
▁seen	-9.28036
’	-9.28182
ü	-9.28212
▁asked	-9.28341
▁lernen	-9.28344
▁computer	-9.28408
▁Körper	-9.28626
or	-9.28747
▁goes	-9.28844
▁case	-9.28934
▁mind	-9.28989
For	-9.2918
▁beim	-9.2921
▁„	-9.29374
▁funktioniert	-9.29398
ge	-9.29594
Let	-9.29624
▁seiner	-9.29668
She	-9.29906
▁reason	-9.2994
▁happens	-9.29977
▁picture	-9.30225
▁eigenen	-9.30264
▁having	-9.30369
▁vielen	-9.30604
▁health	-9.30629
▁sicher	-9.30872
▁family	-9.31016
▁men	-9.31345
▁Kind	-9.31394
▁schnell	-9.3152
Dann	-9.3156
▁stellen	-9.3194
▁schaffen	-9.32057
▁Ein	-9.32408
▁city	-9.32499
▁konnten	-9.32586
▁Earth	-9.32732
▁heißt	-9.32819
▁inside	-9.32929
▁ways	-9.33027
▁problems	-9.33117
▁business	-9.33233
▁process	-9.33394
▁single	-9.33458
▁wenig	-9.33461
▁Moment	-9.33613
▁Erde	-9.34001
▁set	-9.34028
▁per	-9.34209
em	-9.34402
▁Fall	-9.34511
▁book	-9.34568
▁wahrscheinlich	-9.346
▁C	-9.34617
▁Probleme	-9.34723
▁nutzen	-9.34758
▁möglich	-9.34982
▁richtig	-9.35072
T	-9.35073
▁gute	-9.35177
▁top	-9.35223
▁helfen	-9.35254
▁planet	-9.35278
it	-9.3545
▁days	-9.35731
▁yet	-9.35861
▁System	-9.36157
Warum	-9.36304
▁project	-9.36385
ie	-9.36426
▁lange	-9.36494
▁while	-9.36563
▁possible	-9.36936
▁young	-9.37008
▁fünf	-9.37276
▁almost	-9.37331
▁neuen	-9.37394
▁USA	-9.37835
▁once	-9.37928
▁six	-9.38015
▁basically	-9.38025
▁G	-9.38122
▁both	-9.38177
▁bring	-9.38236
▁jedes	-9.38292
▁40	-9.38437
ur	-9.38511
▁saying	-9.38613
▁hope	-9.39108
As	-9.39209
▁guy	-9.3928
▁—	-9.39492
▁wrong	-9.39729
▁matter	-9.3989
▁answer	-9.40251
▁Mutter	-9.40283
▁whether	-9.40338
▁sah	-9.40368
▁Natur	-9.40419
Why	-9.40812
▁ideas	-9.40899
▁nothing	-9.40963
▁billion	-9.40965
▁history	-9.41156
ro	-9.41316
▁keep	-9.41349
▁already	-9.41361
ch	-9.41396
▁community	-9.41994
▁unserem	-9.42069
▁someone	-9.42098
ig	-9.42234
Okay	-9.42289
▁Lebens	-9.42641
▁cancer	-9.42643
▁under	-9.42696
▁DNA	-9.42724
▁hoch	-9.42787
ar	-9.42877
▁genug	-9.4302
Oh	-9.43064
▁true	-9.43125
▁erzählen	-9.43135
▁nächsten	-9.43204
▁form	-9.43342
▁looked	-9.43415
▁Licht	-9.43434
▁within	-9.43549
▁public	-9.43627
▁ge	-9.43695
▁often	-9.44047
C	-9.4435
▁remember	-9.44662
▁couple	-9.44922
▁lang	-9.45042
ion	-9.45138
▁begann	-9.45251
▁child	-9.45663
▁order	-9.45693
▁cells	-9.45791
▁self	-9.45818
▁myself	-9.45886
▁bauen	-9.45897
▁jede	-9.46202
▁read	-9.46345
▁je	-9.46371
▁imagine	-9.46451
▁looks	-9.46454
▁music	-9.46455
▁heard	-9.46639
▁Was	-9.46773
▁video	-9.46885
▁3	-9.46923
▁words	-9.47007
el	-9.47116
▁face	-9.47162
▁universe	-9.47177
▁Planeten	-9.47234
▁allen	-9.47325
ieren	-9.4735
▁built	-9.47358
▁Buch	-9.4739
▁seinen	-9.47403
▁turn	-9.47718
▁beautiful	-9.47805
▁Ideen	-9.47831
CA	-9.47873
▁sei	-9.4801
▁sure	-9.48034
▁He	-9.48072
▁Wie	-9.48333
▁United	-9.4861
▁Schule	-9.48616
▁verändern	-9.48806
Denn	-9.4883
▁ungefähr	-9.48841
No	-9.48847
▁language	-9.48914
▁Hand	-9.49179
▁anders	-9.49481
▁age	-9.49586
▁control	-9.49604
▁amazing	-9.49688
▁liegt	-9.50145
ist	-9.50254
▁stories	-9.50284
▁Ihr	-9.50368
▁group	-9.50535
2	-9.50707
ation	-9.50854
▁ihrem	-9.51041
▁bisschen	-9.51197
▁months	-9.51204
indem	-9.51204
Jetzt	-9.51408
▁head	-9.51495
▁government	-9.51596
▁Projekt	-9.51637
▁herum	-9.5205
▁Wenn	-9.52066
▁Informationen	-9.52106
▁piece	-9.52166
il	-9.52229
▁Entwicklung	-9.52229
▁weit	-9.52246
ne	-9.52263
▁run	-9.52528
\"."	-9.52535
▁Design	-9.52587
w	-9.52724
▁gehört	-9.5282
▁überall	-9.53037
▁species	-9.53186
▁job	-9.53438
▁research	-9.53498
▁Leuten	-9.53612
ä	-9.5384
▁past	-9.5395
▁12	-9.5399
▁nature	-9.54071
▁...	-9.54296
▁education	-9.54297
▁line	-9.54755
▁Antwort	-9.54845
▁until	-9.55003
▁kennen	-9.55077
▁Punkt	-9.55114
ra	-9.55211
is	-9.55359
▁model	-9.55517
▁stehen	-9.55547
▁darum	-9.55723
▁Auto	-9.55768
▁Augen	-9.55927
der	-9.56058
▁gleich	-9.56392
▁everybody	-9.56427
▁stop	-9.56591
▁works	-9.56628
▁heart	-9.56665
ness	-9.56889
ter	-9.56919
▁Milliarden	-9.57026
▁Form	-9.57072
▁completely	-9.57155
▁sagten	-9.57172
▁musste	-9.5718
▁Männer	-9.57206
▁erst	-9.57281
▁Be	-9.57391
▁study	-9.57418
Mit	-9.57435
▁nennen	-9.57487
▁places	-9.57539
▁friends	-9.57571
▁dich	-9.5761
▁decided	-9.57662
▁entwickelt	-9.57688
▁large	-9.57823
▁klar	-9.57845
▁Fragen	-9.58043
▁Musik	-9.58177
▁art	-9.58317
▁taking	-9.58358
▁reden	-9.58383
F	-9.58406
▁hear	-9.58648
▁word	-9.58792
▁became	-9.58846
▁share	-9.58889
man	-9.58951
Vielen	-9.58952
▁animals	-9.59031
▁stand	-9.59076
▁exactly	-9.5922
▁students	-9.59501
▁weg	-9.59528
▁must	-9.59545
▁since	-9.59707
▁itself	-9.59716
▁game	-9.59991
▁bereits	-9.60025
able	-9.60063
▁gar	-9.60092
Meine	-9.60106
▁though	-9.60169
▁Geschichten	-9.60233
▁night	-9.60285
▁States	-9.60324
▁spielen	-9.60382
▁18	-9.60424
▁Arten	-9.60531
▁happening	-9.60831
▁Wissenschaft	-9.60888
▁America	-9.60951
▁euch	-9.60951
▁learned	-9.6104
▁Minuten	-9.61059
um	-9.61119
▁Afrika	-9.61137
▁erkennen	-9.61207
▁Gesellschaft	-9.61224
▁ourselves	-9.61326
▁60	-9.61448
▁Familie	-9.61536
▁society	-9.61704
▁Kopf	-9.61798
▁bevor	-9.61822
▁knew	-9.61829
▁Kunst	-9.62094
▁woman	-9.62179
▁erreichen	-9.62222
▁level	-9.62269
▁Mädchen	-9.62272
▁de	-9.62315
▁besonders	-9.62352
▁minutes	-9.62551
▁fragen	-9.62625
▁halten	-9.62761
▁India	-9.62846
▁steht	-9.63123
▁company	-9.63227
▁themselves	-9.63227
▁against	-9.63289
ity	-9.63495
▁somebody	-9.63614
▁name	-9.63691
▁Ver	-9.6379
▁Der	-9.63848
▁benutzen	-9.63906
▁verschiedene	-9.63913
us	-9.64265
▁namens	-9.64391
▁25	-9.64668
▁anderes	-9.6469
▁oft	-9.64964
▁along	-9.64979
▁questions	-9.65089
▁hören	-9.65612
▁gerne	-9.6565
▁state	-9.6566
▁sechs	-9.65688
▁rather	-9.65689
▁darin	-9.65853
▁sound	-9.65948
▁huge	-9.66062
▁front	-9.66072
▁Man	-9.66093
▁hätten	-9.66105
▁created	-9.66138
▁turns	-9.66178
sch	-9.66447
▁environment	-9.66621
▁disease	-9.66779
▁machte	-9.66793
and	-9.66804
▁hours	-9.6702
▁Bilder	-9.67056
▁kinds	-9.67135
et	-9.67271
▁Macht	-9.67345
▁oben	-9.67412
zu	-9.67426
▁Unternehmen	-9.6746
▁80	-9.67578
▁Gruppe	-9.67768
▁Haus	-9.67919
▁wer	-9.68008
▁braucht	-9.68128
▁Google	-9.68171
▁OK	-9.68282
▁schwer	-9.68464
▁least	-9.68481
▁air	-9.68485
▁entwickeln	-9.68751
▁Film	-9.68823
▁menschliche	-9.68884
▁won	-9.68962
▁jedem	-9.69188
▁What	-9.69212
▁God	-9.69297
▁K	-9.69298
▁Gefühl	-9.69383
iert	-9.69468
▁mother	-9.6964
▁wasn	-9.69854
▁sometimes	-9.699
▁third	-9.70131
▁close	-9.70158
▁figure	-9.70371
▁F	-9.70384
▁American	-9.70444
▁early	-9.70667
▁worked	-9.70887
Für	-9.70893
▁happy	-9.70974
▁shows	-9.7115
▁particular	-9.71182
Danke	-9.71197
Mein	-9.71247
▁Spiel	-9.71252
▁thousands	-9.71347
ver	-9.71445
▁Patienten	-9.71782
Ja	-9.71821
▁gesamte	-9.71911
▁Angst	-9.71931
▁guys	-9.71977
▁Sprache	-9.72038
▁gave	-9.72191
▁oil	-9.72207
▁everyone	-9.7234
An	-9.72351
▁couldn	-9.72513
▁deal	-9.72693
▁Möglichkeit	-9.72746
▁instead	-9.72751
▁isn	-9.72932
▁Hause	-9.72949
seinem	-9.72971
▁natural	-9.73182
▁vorstellen	-9.73189
▁land	-9.73252
▁erhalten	-9.73489
▁soll	-9.73523
▁free	-9.73555
▁Roboter	-9.7362
▁market	-9.73741
▁cell	-9.73827
▁Du	-9.73865
Dieses	-9.73935
▁D	-9.74136
▁Vater	-9.74176
ta	-9.74177
R	-9.74304
▁learning	-9.74319
▁outside	-9.74617
▁house	-9.74713
▁Stunden	-9.74806
▁Ja	-9.74927
▁online	-9.74949
▁einigen	-9.75055
P	-9.75105
▁entire	-9.7514
▁news	-9.75179
▁manchmal	-9.75318
▁beiden	-9.7532
▁verschiedenen	-9.75385
▁systems	-9.75427
▁machine	-9.75535
▁bewegen	-9.75624
▁ändern	-9.75872
▁cool	-9.7592
▁irgendwie	-9.76188
up	-9.76253
▁difference	-9.76344
▁2	-9.7639
▁They	-9.764
▁full	-9.76448
Vor	-9.76569
▁Indien	-9.76646
▁aller	-9.76651
▁gets	-9.768
Auf	-9.76822
▁Wort	-9.76875
▁menschlichen	-9.76904
ma	-9.76995
▁einzige	-9.77038
▁%	-9.77172
▁M	-9.77172
▁behind	-9.77406
▁moving	-9.77539
▁seven	-9.77643
▁Luft	-9.77852
ö	-9.77905
Or	-9.7809
▁besten	-9.7813
▁powerful	-9.78218
▁changed	-9.78309
Then	-9.78436
▁wollten	-9.7845
Bei	-9.78598
▁verändert	-9.78812
▁HIV	-9.79026
▁Regierung	-9.79074
▁others	-9.79103
▁taken	-9.79144
▁ocean	-9.79241
▁nämlich	-9.79294
▁dir	-9.79495
▁area	-9.79761
▁verwenden	-9.79764
▁Eltern	-9.79771
▁black	-9.79939
▁culture	-9.8004
▁century	-9.80225
▁rest	-9.80276
▁local	-9.80318
▁leave	-9.80407
▁team	-9.80664
▁common	-9.80927
▁beginning	-9.80961
▁eher	-9.8097
▁middle	-9.80982
▁lots	-9.81045
▁Sachen	-9.81049
▁Gebäude	-9.81121
▁fand	-9.81152
▁Kindern	-9.81178
▁alt	-9.81207
▁unglaublich	-9.81227
▁easy	-9.81421
Um	-9.81716
▁cities	-9.81729
▁perhaps	-9.81882
▁sage	-9.81943
▁Vortrag	-9.81953
year	-9.82121
▁führen	-9.82139
lich	-9.82188
▁innerhalb	-9.82191
ische	-9.82192
▁pay	-9.82256
▁yourself	-9.82403
▁That	-9.82567
▁media	-9.82568
▁population	-9.826
▁fish	-9.82643
▁eyes	-9.82673
▁test	-9.8275
▁turned	-9.83054
Vielleicht	-9.83067
▁wohl	-9.83217
▁given	-9.8323
To	-9.8354
▁Gott	-9.83681
▁An	-9.83701
▁difficult	-9.83714
▁began	-9.83776
▁normal	-9.83801
▁size	-9.83916
▁cost	-9.84094
▁paper	-9.84168
▁takes	-9.84247
▁getan	-9.84288
▁überhaupt	-9.84539
▁Ab	-9.85037
▁Glück	-9.85046
▁Sinn	-9.85071
▁wegen	-9.85081
▁walk	-9.85129
ck	-9.85135
▁image	-9.85158
▁Länder	-9.8528
▁This	-9.85285
▁Ziel	-9.85301
▁terms	-9.85487
▁groß	-9.85522
▁wonderful	-9.8562
▁nächste	-9.85663
▁view	-9.85793
▁Krebs	-9.85905
▁Video	-9.85946
ive	-9.85968
▁Universum	-9.85974
▁economic	-9.85995
▁versucht	-9.86011
▁Lage	-9.8607
▁finally	-9.8615
▁stellt	-9.86224
old	-9.86251
▁zwar	-9.86298
▁Herausforderung	-9.86619
Doch	-9.86658
as	-9.86799
▁treffen	-9.87069
▁beginnen	-9.87171
▁..."	-9.87206
▁gleichen	-9.87212
▁90	-9.87339
▁grow	-9.87512
▁certain	-9.8772
▁simply	-9.87757
▁schauen	-9.87769
▁Stück	-9.87799
▁seeing	-9.87852
▁cannot	-9.87948
▁R	-9.8797
▁Tiere	-9.88103
▁Erfahrung	-9.88184
during	-9.88189
▁companies	-9.88413
?\"	-9.88447
▁eight	-9.88567
▁hands	-9.8866
▁spend	-9.88714
▁Thank	-9.88717
▁behavior	-9.88787
ul	-9.8883
dem	-9.88961
▁realized	-9.89167
▁Freunde	-9.89401
▁mag	-9.89436
▁Da	-9.8945
▁neu	-9.89528
ia	-9.89662
▁allem	-9.89699
▁parts	-9.89896
ment	-9.89931
▁needs	-9.90218
Oder	-9.9037
▁Vor	-9.90377
▁longer	-9.90455
▁amount	-9.90471
▁Gesundheit	-9.9053
▁200	-9.90569
Do	-9.90599
▁eigene	-9.90614
▁Anfang	-9.9069
▁Hilfe	-9.90747
▁P	-9.90775
at	-9.90799
▁weitere	-9.90806
▁fühlen	-9.91067
▁H	-9.9139
▁short	-9.91434
ol	-9.91509
▁death	-9.91514
▁Wirtschaft	-9.9154
▁needed	-9.91681
▁reality	-9.91781
H	-9.92129
▁wusste	-9.92162
▁schön	-9.92247
▁whatever	-9.92348
▁parents	-9.92371
▁fest	-9.9241
▁complex	-9.92437
▁Verhalten	-9.92439
▁völlig	-9.92615
▁ones	-9.92623
▁Auf	-9.9264
▁mussten	-9.92994
▁lässt	-9.93215
▁poor	-9.93303
▁hinter	-9.93422
▁tried	-9.93484
▁World	-9.93632
ant	-9.93964
▁growth	-9.94117
▁quickly	-9.94188
▁low	-9.94206
▁solche	-9.94208
▁wahr	-9.94228
▁Vorstellung	-9.94235
▁green	-9.94281
▁tut	-9.94319
▁felt	-9.94345
▁value	-9.94423
isch	-9.94588
▁kamen	-9.94605
▁letzte	-9.94638
▁interested	-9.94906
▁father	-9.9494
▁Grunde	-9.94981
▁Dingen	-9.95004
▁week	-9.95052
ab	-9.95208
▁Unterschied	-9.95256
▁phone	-9.95279
▁Liebe	-9.95292
ce	-9.95551
N	-9.95577
▁scale	-9.95608
▁red	-9.95805
▁bringt	-9.95834
▁buy	-9.95885
▁ability	-9.95922
▁friend	-9.95928
▁okay	-9.95932
▁spent	-9.95932
▁unten	-9.95976
▁animal	-9.96019
x	-9.9609
▁5	-9.961
▁jedoch	-9.9611
▁political	-9.96254
▁Kultur	-9.96308
▁eat	-9.96382
▁Möglichkeiten	-9.96472
▁write	-9.96485
▁gone	-9.96551
▁humans	-9.96672
At	-9.96739
▁direkt	-9.96771
▁Wissenschaftler	-9.96915
▁How	-9.96917
▁falsch	-9.96978
▁Lösung	-9.96988
vi	-9.97005
▁blue	-9.97033
▁field	-9.97079
▁Gedanken	-9.97085
ach	-9.97322
▁gleiche	-9.97705
▁lost	-9.97788
▁Thema	-9.98101
▁z	-9.98185
▁feet	-9.98282
▁worden	-9.98329
▁führt	-9.98337
▁lösen	-9.98477
1	-9.98574
me	-9.9858
▁personal	-9.98619
▁opportunity	-9.9863
▁schreiben	-9.98774
▁economy	-9.98812
▁kurz	-9.98876
▁Essen	-9.99107
▁damals	-9.99179
the	-9.99283
Some	-9.99322
li	-9.99421
▁wären	-9.99683
▁result	-9.99695
▁Lehrer	-9.99699
▁dessen	-9.99732
▁Wochen	-10.0002
▁Tage	-10.0009
▁surface	-10.001
▁sitting	-10.0029
▁step	-10.0034
▁weeks	-10.0039
Du	-10.0054
▁program	-10.0055
gen	-10.0059
▁1	-10.0061
▁obwohl	-10.0067
▁Tages	-10.0071
▁No	-10.0073
▁Boden	-10.0085
▁größte	-10.0085
▁14	-10.0093
▁bleiben	-10.0095
▁either	-10.0103
▁O	-10.0115
▁modern	-10.0115
▁niemand	-10.0129
▁challenge	-10.0146
la	-10.015
▁realize	-10.0151
▁attention	-10.0159
▁Selbst	-10.0166
▁incredible	-10.0178
▁Al	-10.018
▁Staaten	-10.0192
▁Namen	-10.0192
▁suchen	-10.0193
▁Wissen	-10.0197
▁individual	-10.021
▁fragte	-10.0215
▁sollen	-10.0224
▁Nacht	-10.0237
▁ground	-10.0243
▁meines	-10.0256
▁70	-10.0258
▁South	-10.0272
▁bottom	-10.0278
ha	-10.0289
▁besteht	-10.0294
G	-10.0298
▁teilen	-10.0303
▁Woche	-10.0306
▁recht	-10.0327
▁areas	-10.0328
▁morning	-10.0329
▁climate	-10.0334
▁betrachten	-10.0351
ir	-10.0356
▁Monate	-10.0362
mal	-10.0364
People	-10.0377
▁structure	-10.0384
▁genauso	-10.0388
▁sea	-10.0404
▁known	-10.0421
▁Umwelt	-10.0432
▁access	-10.0445
▁average	-10.0445
▁patients	-10.0447
▁based	-10.0452
ate	-10.0466
▁Ländern	-10.0479
▁zuvor	-10.0502
▁bewusst	-10.0525
▁Labor	-10.0535
ting	-10.0544
▁speak	-10.0548
ton	-10.0551
▁Mensch	-10.0557
▁physical	-10.0578
▁gefunden	-10.0591
▁zweite	-10.0605
▁deep	-10.0625
▁Dr	-10.063
un	-10.0633
▁Prozess	-10.0634
▁Krieg	-10.0651
▁Fähigkeit	-10.0651
Nein	-10.0658
!\""	-10.0661
▁interessant	-10.067
se	-10.067
▁clear	-10.0676
▁Zellen	-10.0678
▁forward	-10.0679
▁brought	-10.0679
▁met	-10.0681
▁growing	-10.0682
▁numbers	-10.0689
Zum	-10.071
▁key	-10.0722
▁feeling	-10.073
▁17	-10.0731
▁fly	-10.0737
▁Markt	-10.0744
W	-10.0752
Am	-10.0753
Weil	-10.0753
▁Bewegung	-10.0754
▁nice	-10.0756
▁developed	-10.0769
land	-10.077
▁dark	-10.0783
▁material	-10.0786
▁born	-10.079
▁sterben	-10.0795
▁knowledge	-10.0805
▁Modell	-10.0807
▁verbunden	-10.0819
ischen	-10.0827
▁understanding	-10.083
▁16	-10.0831
▁sieben	-10.0837
▁Also	-10.0838
▁map	-10.0848
▁images	-10.0864
▁"♫	-10.0873
▁fun	-10.0878
▁scheint	-10.0879
▁film	-10.0887
▁positive	-10.0904
▁soziale	-10.0905
▁English	-10.0906
▁bitte	-10.0914
▁watch	-10.0919
▁Ihren	-10.0924
▁audience	-10.0925
▁theory	-10.0927
▁London	-10.0937
▁kaufen	-10.0941
im	-10.0945
4	-10.095
▁force	-10.0952
igen	-10.0956
▁cut	-10.096
▁Autos	-10.0962
▁non	-10.0969
▁white	-10.097
▁Publikum	-10.0978
▁wouldn	-10.0985
▁seems	-10.0989
▁giving	-10.0991
▁Revolution	-10.0995
▁gelernt	-10.1001
▁lesen	-10.1001
▁nimmt	-10.1001
▁changes	-10.101
▁genannt	-10.1017
▁technologies	-10.1022
▁erschaffen	-10.1023
▁Gemeinschaft	-10.1027
▁gebaut	-10.1033
▁running	-10.1042
▁center	-10.1044
▁Schritt	-10.1046
▁support	-10.1051
▁los	-10.1062
▁books	-10.1068
▁But	-10.1076
▁wrote	-10.1083
▁Sch	-10.1087
▁Verbindung	-10.1105
▁Öl	-10.1119
▁anderer	-10.1123
▁John	-10.1126
▁4	-10.1132
▁scientists	-10.1138
▁gives	-10.1145
▁literally	-10.1145
▁experiment	-10.1163
▁starting	-10.1164
▁erinnern	-10.1166
▁11	-10.1172
▁schwierig	-10.1183
▁tools	-10.1184
▁stage	-10.119
5	-10.1192
OK	-10.1199
▁bereit	-10.12
▁Herz	-10.1201
▁draußen	-10.1207
▁risk	-10.1215
▁ent	-10.1226
▁Technik	-10.1228
▁Mars	-10.1236
Our	-10.1239
▁creating	-10.1249
ke	-10.1249
▁anyone	-10.125
▁Reihe	-10.1263
▁erzählt	-10.1264
▁Zahl	-10.1272
▁San	-10.1274
▁West	-10.1287
▁Okay	-10.1292
di	-10.1297
▁funktionieren	-10.1302
▁Jahrhundert	-10.1302
▁Web	-10.1314
▁girl	-10.1332
▁erklären	-10.1336
▁focus	-10.1339
ry	-10.1347
▁Kraft	-10.1348
▁Bedeutung	-10.1354
▁save	-10.1366
▁Team	-10.1379
O	-10.1389
▁nahm	-10.139
/	-10.1391
au	-10.1393
▁hundreds	-10.1394
On	-10.1395
▁allow	-10.1395
▁schließlich	-10.1397
▁Afghanistan	-10.1397
▁alone	-10.1397
▁Medien	-10.1417
less	-10.1423
▁miles	-10.1426
L	-10.1434
▁gewesen	-10.144
br	-10.1457
▁City	-10.1457
▁passieren	-10.1461
▁solve	-10.1462
Nach	-10.1481
▁geworden	-10.1487
▁welches	-10.1489
▁telling	-10.1489
▁voice	-10.1495
ran	-10.1499
ein	-10.15
▁fanden	-10.1501
ren	-10.1533
▁hold	-10.1546
▁Reise	-10.1547
▁Technologien	-10.1554
▁blood	-10.1554
▁Wahrheit	-10.1561
▁unseres	-10.1563
bei	-10.1568
▁jemals	-10.1568
▁hast	-10.1569
▁Muster	-10.1571
▁schlecht	-10.1576
▁Familien	-10.1583
▁plötzlich	-10.159
▁development	-10.1593
▁issue	-10.1595
▁millions	-10.1597
▁kid	-10.1604
▁relationship	-10.1604
▁13	-10.1605
▁sehe	-10.1627
▁movement	-10.1628
▁guess	-10.1633
▁daraus	-10.1634
▁cars	-10.1634
▁stark	-10.1642
▁essen	-10.1643
ber	-10.1656
he	-10.1656
▁act	-10.1658
▁miteinander	-10.1658
▁discovered	-10.1658
▁co	-10.1663
Just	-10.1678
▁developing	-10.1689
am	-10.1708
▁größten	-10.171
▁color	-10.1723
ism	-10.1726
▁seem	-10.1726
▁Eine	-10.1735
▁Erfolg	-10.1738
ungen	-10.1739
▁National	-10.1745
▁playing	-10.1746
▁law	-10.1747
chen	-10.1758
▁deine	-10.176
▁meet	-10.1762
▁gezeigt	-10.1765
▁acht	-10.1765
▁glücklich	-10.1771
Be	-10.1774
▁leicht	-10.1786
▁beginnt	-10.1787
▁Aus	-10.1794
▁Mit	-10.1798
▁thank	-10.1801
▁500	-10.181
▁liebe	-10.1811
▁aussehen	-10.1813
▁send	-10.1815
▁Tier	-10.1817
▁begin	-10.1837
▁fear	-10.184
amp	-10.1844
▁Richtung	-10.1847
▁solution	-10.185
Unsere	-10.1858
▁nachdem	-10.1861
bar	-10.1864
M	-10.1877
8	-10.1886
pa	-10.1896
▁impact	-10.1898
▁bist	-10.1899
▁anfangen	-10.1899
Not	-10.1905
▁mache	-10.191
▁Rolle	-10.1918
▁innovation	-10.1919
▁verloren	-10.1921
▁deshalb	-10.1921
▁Studenten	-10.1922
▁Bildung	-10.1922
Heute	-10.1927
▁Meinung	-10.1937
▁Anzahl	-10.1943
▁Wahl	-10.1948
Viele	-10.1951
“	-10.1956
J	-10.196
▁chance	-10.1962
▁zehn	-10.1969
▁showed	-10.1972
▁patient	-10.1973
▁Umgebung	-10.1982
▁Realität	-10.1988
▁David	-10.1994
▁total	-10.1995
▁network	-10.1999
▁gegenüber	-10.2004
▁solar	-10.2011
▁Europe	-10.2014
▁Wert	-10.2029
▁major	-10.2032
▁industry	-10.2033
Tatsächlich	-10.2033
▁truth	-10.2038
▁Foto	-10.2041
▁Aufgabe	-10.205
▁shape	-10.2067
▁19	-10.2073
▁findet	-10.2089
▁möchten	-10.2091
ling	-10.2094
▁Veränderung	-10.2095
▁recently	-10.2103
▁type	-10.2107
▁hinein	-10.2109
art	-10.211
ien	-10.2115
▁rate	-10.2115
▁danach	-10.2125
▁Tat	-10.2137
▁Platz	-10.2139
▁absolutely	-10.2149
▁unterschiedlich	-10.2152
▁Gewalt	-10.2152
we	-10.2153
▁resources	-10.2162
▁eye	-10.2166
▁schrieb	-10.2169
▁medical	-10.217
▁robot	-10.2171
▁Städte	-10.2177
▁issues	-10.2178
▁CO	-10.2183
▁Bevölkerung	-10.2188
▁incredibly	-10.2193
▁frei	-10.2193
▁stellte	-10.2194
▁Forschung	-10.2202
▁Freund	-10.2213
Wissen	-10.2214
▁digital	-10.2218
▁vision	-10.2221
iv	-10.2225
▁evidence	-10.2239
▁tiny	-10.2239
▁Größe	-10.2239
...	-10.2241
▁lab	-10.225
▁designed	-10.225
▁produce	-10.2251
▁special	-10.226
los	-10.2261
▁ice	-10.2267
▁Material	-10.2271
Stellen	-10.2278
▁Hälfte	-10.2285
▁Facebook	-10.2291
▁asking	-10.2293
▁product	-10.2294
▁Rest	-10.23
die	-10.2301
▁provide	-10.2302
▁sch	-10.2302
ik	-10.2313
▁sun	-10.2316
▁Re	-10.2316
▁Ihrer	-10.2319
▁entfernt	-10.2322
▁tat	-10.2323
ci	-10.2324
▁verwendet	-10.2324
▁present	-10.2325
▁message	-10.2333
▁Sicherheit	-10.2333
▁Krankheit	-10.2338
▁War	-10.2339
▁kleiner	-10.2348
▁kleines	-10.2355
▁weltweit	-10.2361
▁Tatsache	-10.2368
▁bekannt	-10.2371
▁talked	-10.2372
Natürlich	-10.2372
▁Entscheidungen	-10.2379
▁guten	-10.2389
▁Ge	-10.2404
▁available	-10.2405
▁mass	-10.2408
▁changing	-10.2408
▁beide	-10.2411
▁falls	-10.2412
▁Z	-10.2421
▁choice	-10.2428
▁situation	-10.245
▁Chinese	-10.2454
▁soon	-10.2456
▁street	-10.2462
▁Studie	-10.2468
▁Teile	-10.2476
▁reasons	-10.2487
▁Stimme	-10.2494
▁baby	-10.2497
▁benutzt	-10.2498
com	-10.2506
keit	-10.2508
▁perfect	-10.2516
▁Situation	-10.253
▁L	-10.2532
▁writing	-10.2534
ich	-10.2545
▁All	-10.2548
▁hundred	-10.2548
▁bekommt	-10.2551
▁add	-10.2567
▁hinaus	-10.2568
ut	-10.2568
▁beyond	-10.2568
▁national	-10.2568
▁involved	-10.2569
ous	-10.2585
▁drive	-10.2593
est	-10.2595
ger	-10.26
▁teach	-10.2604
na	-10.2612
▁egal	-10.2616
▁raus	-10.2621
ner	-10.2626
▁beste	-10.2628
▁especially	-10.2664
▁p	-10.2666
id	-10.2671
▁sofort	-10.2679
▁komplett	-10.2683
3	-10.269
▁Preis	-10.2703
▁generation	-10.2705
▁Eis	-10.2713
▁There	-10.2729
▁yes	-10.2738
▁bigger	-10.2739
.“	-10.2747
▁deren	-10.2748
▁explain	-10.2757
▁niemals	-10.2761
▁nachdenken	-10.2764
Nicht	-10.28
▁erreicht	-10.2809
rs	-10.281
▁US	-10.2818
▁effect	-10.2819
▁schneller	-10.2822
▁box	-10.2823
▁Papier	-10.2834
▁Europa	-10.2841
▁break	-10.2844
▁allein	-10.2848
▁größer	-10.2853
▁alten	-10.2853
▁hoffe	-10.2854
▁länger	-10.2855
son	-10.2859
▁mögen	-10.286
co	-10.2868
▁einfache	-10.2869
▁arm	-10.2878
▁Blick	-10.2884
▁putting	-10.2887
▁ca	-10.2889
▁journey	-10.2908
▁bekam	-10.2909
▁Generation	-10.292
▁dead	-10.293
▁pick	-10.2952
▁computers	-10.2953
▁basic	-10.2958
age	-10.2962
Can	-10.2963
▁ständig	-10.2965
▁girls	-10.297
▁rules	-10.2983
▁fahren	-10.2984
▁lived	-10.2988
▁pictures	-10.2997
ah	-10.3
▁fire	-10.3009
▁Straße	-10.3012
▁approach	-10.3015
Wo	-10.3021
▁Vereinigte	-10.3033
▁300	-10.3034
▁likely	-10.3042
▁drug	-10.3042
▁reach	-10.3043
▁interessiert	-10.3044
▁nine	-10.3058
▁device	-10.3068
▁software	-10.3072
Ihr	-10.3083
▁similar	-10.3085
▁Chris	-10.3094
▁jemanden	-10.3096
▁becomes	-10.31
Einige	-10.3105
ler	-10.3107
▁several	-10.3108
▁Bereich	-10.3109
pe	-10.3112
▁richtige	-10.3116
by	-10.3118
▁statt	-10.3118
▁laufen	-10.3123
▁Mitte	-10.3125
▁hit	-10.3129
▁tend	-10.3137
▁sonst	-10.3139
lo	-10.3149
▁period	-10.3153
▁success	-10.3155
▁absolut	-10.3164
▁action	-10.3164
▁Sonne	-10.317
▁revolution	-10.3176
▁ziehen	-10.3178
▁Haupt	-10.318
▁zeige	-10.3182
▁gegeben	-10.3185
▁sex	-10.3208
▁Zahlen	-10.3219
▁langsam	-10.322
▁rein	-10.3229
▁Nachrichten	-10.3234
▁nennt	-10.3235
▁drugs	-10.3251
▁Mo	-10.3255
▁junge	-10.3256
▁develop	-10.3257
ated	-10.3261
▁Kosten	-10.3267
▁groups	-10.3267
▁Tod	-10.3269
▁spricht	-10.327
▁herauszufinden	-10.3286
▁Well	-10.3289
▁private	-10.3292
▁Beziehung	-10.3296
ies	-10.3303
Zu	-10.3305
▁Amerika	-10.3306
▁gingen	-10.3306
▁neues	-10.3315
▁daher	-10.3315
▁Fehler	-10.3317
▁gemeinsam	-10.3321
▁genommen	-10.3322
ier	-10.3326
▁fall	-10.3334
▁table	-10.3335
▁towards	-10.3337
▁geschieht	-10.3338
Maybe	-10.334
▁stimmt	-10.3354
▁setzen	-10.336
▁worth	-10.3362
▁tells	-10.3367
▁evolution	-10.3367
▁carbon	-10.3369
▁Hoffnung	-10.337
tra	-10.3377
Wer	-10.3388
▁links	-10.3391
By	-10.3392
▁post	-10.3403
▁wall	-10.341
▁Straßen	-10.3419
▁creative	-10.342
▁potential	-10.3426
▁brachte	-10.3431
▁geboren	-10.3436
▁Oberfläche	-10.3443
▁speed	-10.3443
▁Maschine	-10.3445
ho	-10.3447
▁object	-10.345
▁Fähigkeiten	-10.3453
▁sit	-10.3467
▁V	-10.3477
▁Danke	-10.3479
Ist	-10.3484
▁lead	-10.3488
▁Gesicht	-10.3493
▁Firma	-10.3506
▁Meter	-10.3508
ster	-10.351
▁onto	-10.3512
▁blind	-10.3513
▁sounds	-10.3518
▁Ergebnis	-10.3519
▁wichtiger	-10.3519
▁000	-10.352
▁Japan	-10.3529
▁wichtige	-10.3538
▁University	-10.3546
▁particularly	-10.3553
ri	-10.3561
▁office	-10.3572
bald	-10.3573
lt	-10.3574
▁Struktur	-10.3584
▁Mittel	-10.3588
▁wind	-10.3592
▁scientific	-10.3599
▁De	-10.36
▁machten	-10.3617
▁quality	-10.3625
▁gleichzeitig	-10.3626
▁moved	-10.3627
▁stay	-10.3627
▁La	-10.363
▁meaning	-10.3643
▁extrem	-10.3652
▁anybody	-10.3652
▁fundamental	-10.3654
▁sozialen	-10.367
▁student	-10.3673
▁einzelne	-10.3674
▁materials	-10.3674
▁projects	-10.3701
Jeder	-10.3711
▁ähnlich	-10.3718
▁Oh	-10.3722
▁liegen	-10.3736
nen	-10.3738
▁Information	-10.3739
▁happiness	-10.3743
▁wish	-10.3748
▁21	-10.3754
▁games	-10.3769
▁follow	-10.3789
▁showing	-10.381
bau	-10.3812
▁anstatt	-10.3817
▁results	-10.3821
▁Karte	-10.3832
▁TV	-10.3836
▁among	-10.3838
aus	-10.3847
▁Medizin	-10.3848
▁oh	-10.3848
ert	-10.3855
▁camera	-10.3865
▁biggest	-10.3868
▁schools	-10.387
▁largest	-10.3873
▁super	-10.3873
6	-10.3874
▁screen	-10.3879
▁nein	-10.3896
▁North	-10.3903
ized	-10.3905
sa	-10.3908
ige	-10.3908
wohl	-10.3914
▁vorher	-10.3918
▁bessere	-10.3932
▁violence	-10.3956
▁bestimmt	-10.3957
▁geschrieben	-10.3964
▁walking	-10.3965
▁begannen	-10.3969
▁Innovation	-10.397
▁compassion	-10.3977
▁zuerst	-10.3978
▁Alter	-10.398
▁general	-10.3983
Look	-10.3985
▁Experiment	-10.3996
▁lieben	-10.4002
▁teachers	-10.4002
▁exciting	-10.4005
▁obviously	-10.4007
▁pattern	-10.4008
Während	-10.4012
ind	-10.4016
▁tragen	-10.4017
go	-10.4024
▁sprach	-10.4026
▁security	-10.4027
äu	-10.403
▁poverty	-10.4032
▁memory	-10.4032
7	-10.4034
▁certainly	-10.4038
▁24	-10.405
▁Aufmerksamkeit	-10.406
Of	-10.4061
▁democracy	-10.4062
▁gesprochen	-10.4065
▁fight	-10.4073
▁strong	-10.4078
▁offensichtlich	-10.4081
▁role	-10.4082
▁haven	-10.4088
▁Schulen	-10.4095
▁dachten	-10.4104
▁examples	-10.4109
▁month	-10.411
▁everywhere	-10.4116
▁Menschheit	-10.4116
▁totally	-10.412
▁led	-10.4121
▁Orte	-10.4122
▁W	-10.413
▁smart	-10.4132
v	-10.4133
▁Produkt	-10.4137
▁notice	-10.4137
▁Ding	-10.4139
ismus	-10.414
▁leaders	-10.4142
▁measure	-10.4161
▁fliegen	-10.4169
▁großer	-10.4169
▁Diese	-10.417
▁nobody	-10.4172
▁extremely	-10.4174
▁bewegt	-10.4177
▁Bau	-10.4178
Deshalb	-10.4184
▁Evolution	-10.4187
▁response	-10.4196
hand	-10.4196
▁Pflanzen	-10.4206
ize	-10.421
▁skin	-10.4211
op	-10.4212
▁mehrere	-10.4213
heit	-10.4214
schen	-10.4214
▁Seiten	-10.4216
ko	-10.4223
▁Konzept	-10.4224
▁Entscheidung	-10.4233
▁Demokratie	-10.424
▁Kontrolle	-10.4245
▁Gruppen	-10.4246
fe	-10.4247
▁listen	-10.4249
fi	-10.4254
▁verlassen	-10.4259
▁pre	-10.4266
▁continue	-10.4273
▁X	-10.4274
ian	-10.4283
▁passierte	-10.4284
▁further	-10.4284
▁Zugang	-10.4285
▁plan	-10.4287
▁mine	-10.4292
▁higher	-10.4303
▁la	-10.4304
▁hour	-10.4324
▁dream	-10.4324
▁favorite	-10.4339
▁Typ	-10.4339
▁Bücher	-10.4355
▁Uhr	-10.436
▁lose	-10.4361
ken	-10.4364
▁Job	-10.4369
▁verbessern	-10.437
▁vorbei	-10.4377
▁Warum	-10.4384
Even	-10.4388
▁Regeln	-10.4389
▁beobachten	-10.4401
▁class	-10.4402
her	-10.4403
▁Künstler	-10.4421
▁wachsen	-10.4421
▁sahen	-10.4422
▁list	-10.4425
▁jobs	-10.4426
Alle	-10.4428
▁bald	-10.4429
▁gern	-10.4437
▁expect	-10.4445
▁6	-10.4445
Most	-10.4445
▁Einfluss	-10.4456
▁safe	-10.4474
▁gearbeitet	-10.4475
▁code	-10.4475
▁c	-10.4477
.000	-10.4482
▁bestimmten	-10.4512
▁protect	-10.4526
ze	-10.4529
▁sitzen	-10.453
▁cause	-10.453
▁door	-10.4531
▁Ka	-10.4532
Sehen	-10.4536
▁including	-10.4543
▁village	-10.4543
▁ready	-10.4552
▁sleep	-10.4563
▁spread	-10.4563
▁Software	-10.4573
▁song	-10.4573
▁versuchte	-10.4573
▁road	-10.4577
▁medicine	-10.458
men	-10.4584
▁objects	-10.4585
▁starts	-10.4586
▁international	-10.4591
▁thousand	-10.4601
▁context	-10.4601
▁extraordinary	-10.4602
▁watching	-10.4614
▁Mitgefühl	-10.4622
▁aren	-10.4623
▁Fisch	-10.4625
system	-10.4626
▁worse	-10.4631
▁record	-10.4647
▁erlaubt	-10.4653
▁massive	-10.466
▁Strom	-10.4665
▁ansehen	-10.4675
▁etc	-10.4676
▁gas	-10.468
▁late	-10.4687
▁sent	-10.4691
▁Krankheiten	-10.4696
▁♫"	-10.47
Alles	-10.4703
▁Grenzen	-10.4706
▁connected	-10.4708
zeit	-10.4719
▁choose	-10.4719
▁eventually	-10.4719
▁Armut	-10.472
▁Politik	-10.4722
▁named	-10.4724
▁finding	-10.4732
▁trees	-10.4735
▁plant	-10.4736
ka	-10.4741
After	-10.4746
▁perspective	-10.4749
▁activity	-10.4749
▁bleibt	-10.475
ally	-10.475
▁Sicht	-10.4751
▁doctor	-10.4752
▁source	-10.4755
▁Monaten	-10.4762
▁finde	-10.4767
▁communities	-10.4779
▁individuals	-10.4782
▁nuclear	-10.4787
ph	-10.4788
▁visual	-10.4792
▁rich	-10.48
▁Monat	-10.4805
▁near	-10.4805
▁mental	-10.4808
▁außer	-10.4808
▁crazy	-10.4808
▁grew	-10.4809
▁hospital	-10.4812
▁f	-10.4823
▁klein	-10.4831
time	-10.4838
▁studies	-10.4839
▁bunch	-10.4839
▁teacher	-10.4839
▁goal	-10.4849
▁Versuch	-10.4849
▁recognize	-10.4859
▁moral	-10.4869
Chris	-10.487
stand	-10.4872
▁Los	-10.4872
▁movie	-10.4873
sp	-10.4881
ft	-10.4882
▁bed	-10.4888
Every	-10.4899
▁essentially	-10.49
With	-10.49
▁rise	-10.4902
▁See	-10.4909
▁faster	-10.4921
▁African	-10.4926
▁tool	-10.4926
▁position	-10.4928
▁2000	-10.4931
▁arbeitet	-10.4933
▁hohe	-10.4934
▁Gebiet	-10.4954
▁plants	-10.4956
▁taught	-10.4959
▁truly	-10.4959
▁Stelle	-10.4962
First	-10.4962
os	-10.4965
▁boy	-10.4966
ine	-10.4966
▁Beispiele	-10.4966
Yes	-10.4967
▁Twitter	-10.4968
▁Sinne	-10.4974
▁wonder	-10.4977
om	-10.4983
▁content	-10.4989
▁models	-10.5013
▁suddenly	-10.5022
bi	-10.503
▁conditions	-10.5038
▁draw	-10.5044
▁extra	-10.5044
ben	-10.5045
▁bilden	-10.5052
▁vergessen	-10.5053
▁denkt	-10.5067
▁wussten	-10.507
,000	-10.5077
▁site	-10.5078
▁voller	-10.5079
▁Orten	-10.5089
▁trust	-10.5097
▁manche	-10.5099
▁Studien	-10.5109
▁hot	-10.5111
▁Spaß	-10.5112
▁Über	-10.5115
▁England	-10.5118
out	-10.5121
▁fertig	-10.5125
▁search	-10.5128
▁Iran	-10.513
▁meant	-10.5138
▁buildings	-10.5142
▁impossible	-10.5143
▁nachzudenken	-10.5143
▁Wirklichkeit	-10.5143
▁verlieren	-10.5144
▁Schüler	-10.516
▁brains	-10.5165
▁East	-10.5173
▁college	-10.5174
▁St	-10.5174
▁erzeugen	-10.5179
▁crisis	-10.518
ty	-10.5185
▁pain	-10.5196
▁Zeug	-10.5197
▁above	-10.5205
▁unmöglich	-10.5205
▁complicated	-10.5205
▁Ergebnisse	-10.5213
▁price	-10.5213
▁traditional	-10.5234
▁products	-10.5235
▁supposed	-10.5236
▁zumindest	-10.5236
▁Vergangenheit	-10.5236
▁indeed	-10.5236
▁Blut	-10.5239
▁Washington	-10.5243
▁shown	-10.5264
▁somewhere	-10.5268
▁Ozean	-10.5273
▁Wind	-10.5275
mo	-10.528
▁Nicht	-10.5283
▁pull	-10.5286
▁larger	-10.5287
▁lower	-10.5289
▁exist	-10.529
▁retten	-10.5299
▁Programm	-10.5308
▁möglichen	-10.531
mp	-10.531
▁minute	-10.531
▁entscheiden	-10.5312
Schauen	-10.5314
▁arbeitete	-10.5325
▁35	-10.5326
ug	-10.5328
▁killed	-10.5336
▁anschauen	-10.5341
▁Morgen	-10.5342
▁Why	-10.5342
▁fine	-10.5343
▁wait	-10.5347
▁Sohn	-10.5356
▁kill	-10.5358
Today	-10.5363
▁allowed	-10.5371
▁kannst	-10.5371
▁conversation	-10.5372
▁urban	-10.538
▁forms	-10.5382
▁Tagen	-10.5391
▁progress	-10.5391
▁bestimmte	-10.5393
▁globalen	-10.5395
▁Nachricht	-10.5396
▁knows	-10.5403
Hey	-10.5404
▁näher	-10.5406
▁Un	-10.541
Those	-10.5428
▁Spezies	-10.543
▁gebracht	-10.5432
ating	-10.5438
9	-10.5449
▁Worte	-10.5452
▁main	-10.5455
▁aussieht	-10.5458
ip	-10.5467
▁decision	-10.5469
▁Mathematik	-10.5472
form	-10.5476
▁8	-10.548
▁reading	-10.5483
▁architecture	-10.5489
▁increase	-10.5491
▁training	-10.5494
▁treat	-10.5494
▁erklärt	-10.5494
▁dis	-10.5502
kommen	-10.5506
▁Firmen	-10.5507
auf	-10.5509
▁Y	-10.5518
▁bacteria	-10.5519
▁Bakterien	-10.5521
▁alive	-10.5521
▁series	-10.5521
▁dritte	-10.5524
ging	-10.5527
▁führte	-10.5529
▁Behandlung	-10.5532
▁Denn	-10.5532
▁sell	-10.5532
▁interest	-10.5539
▁voll	-10.5542
▁wife	-10.5553
▁gewinnen	-10.5553
▁robots	-10.5554
▁Hände	-10.5557
▁Personen	-10.556
▁Landes	-10.5569
Von	-10.5572
Nur	-10.5573
kon	-10.5578
gt	-10.5581
▁ended	-10.5581
▁Ebene	-10.5589
liche	-10.5597
end	-10.5608
ring	-10.5612
▁MIT	-10.5618
▁usually	-10.5619
▁hilft	-10.562
▁Gerät	-10.5623
no	-10.5624
▁produzieren	-10.5625
▁allows	-10.5632
▁riesige	-10.5634
▁current	-10.5647
▁bodies	-10.565
▁families	-10.5651
▁died	-10.5651
Lass	-10.5651
▁critical	-10.5652
▁Theorie	-10.5655
mi	-10.5656
▁range	-10.5657
▁Kamera	-10.5659
▁performance	-10.5666
▁Park	-10.5669
▁Druck	-10.5672
▁specific	-10.5675
▁successful	-10.568
▁trotzdem	-10.5683
▁slow	-10.5686
▁traf	-10.5689
▁Sex	-10.5693
▁healthy	-10.5694
▁ermöglicht	-10.5701
▁standing	-10.5707
▁großes	-10.5707
per	-10.5708
▁peace	-10.5709
▁neben	-10.5715
▁physics	-10.5715
▁excited	-10.5716
▁verbinden	-10.5717
▁Wand	-10.5719
▁erfahren	-10.5722
▁career	-10.5729
▁tree	-10.5731
▁mobile	-10.5741
▁path	-10.5742
▁medizinische	-10.5748
▁kaum	-10.5748
▁region	-10.5754
▁consider	-10.5764
▁treatment	-10.5764
▁Sekunden	-10.5767
▁older	-10.5767
▁Gene	-10.5773
▁She	-10.578
▁electricity	-10.5781
zi	-10.5783
▁400	-10.5785
▁Dorf	-10.5785
ad	-10.579
Auch	-10.5806
Which	-10.5814
▁alte	-10.5815
▁befinden	-10.5818
▁patterns	-10.5821
är	-10.5822
ende	-10.5831
▁web	-10.5832
da	-10.5835
▁legal	-10.5849
▁untersuchen	-10.585
▁versuche	-10.5852
▁floor	-10.5854
▁Richard	-10.5857
▁wants	-10.5866
ib	-10.5874
▁ihres	-10.5878
▁heutzutage	-10.588
▁solchen	-10.5882
▁Englisch	-10.5885
▁Chance	-10.5886
▁Objekt	-10.5888
▁square	-10.5888
▁sorts	-10.5889
▁spielt	-10.5891
▁Ressourcen	-10.5892
▁race	-10.5909
▁Universität	-10.5914
▁somehow	-10.5915
rin	-10.5916
▁interessante	-10.5921
if	-10.593
▁cases	-10.5939
Where	-10.5941
▁page	-10.5945
▁biology	-10.5947
▁Anderson	-10.5947
▁travel	-10.5949
▁geschehen	-10.5954
▁Baby	-10.5959
▁Yeah	-10.5976
▁serious	-10.5977
▁doctors	-10.5977
▁upon	-10.5979
▁neurons	-10.598
▁entdecken	-10.5981
▁himself	-10.5981
Aus	-10.5981
▁cold	-10.5981
▁großartige	-10.5985
▁einzelnen	-10.5985
do	-10.5986
wie	-10.599
▁service	-10.599
▁sodass	-10.5994
Eines	-10.6005
▁emotional	-10.6005
▁police	-10.6014
▁written	-10.6014
▁ehrlich	-10.6015
▁Kampf	-10.6016
▁zeigte	-10.6016
▁anywhere	-10.6017
▁ex	-10.6019
▁150	-10.6024
▁N	-10.6027
▁Bewusstsein	-10.6041
▁wild	-10.6041
▁organization	-10.6045
▁yeah	-10.6048
▁kept	-10.6048
▁dangerous	-10.6048
▁nenne	-10.6054
▁Freiheit	-10.6058
▁waste	-10.6059
▁rund	-10.6085
des	-10.6087
▁gekommen	-10.6089
▁math	-10.6089
▁train	-10.6093
▁version	-10.6103
▁Wachstum	-10.6104
sche	-10.6109
Denken	-10.6116
▁military	-10.6116
▁freedom	-10.6116
▁irgendwo	-10.6118
▁runter	-10.6118
▁Fotos	-10.6119
▁pieces	-10.612
▁son	-10.612
▁town	-10.6122
du	-10.6126
▁aufgrund	-10.6126
▁School	-10.6134
▁points	-10.6134
▁smaller	-10.6137
▁neun	-10.614
▁decide	-10.6141
▁Arm	-10.6152
▁gefragt	-10.6157
▁Recht	-10.6166
▁AIDS	-10.6169
▁Designer	-10.6179
▁lines	-10.6181
▁Arzt	-10.6184
▁Ordnung	-10.6184
&	-10.6185
▁gestellt	-10.619
▁Auswirkungen	-10.6192
▁folgen	-10.6196
▁Formen	-10.6198
▁Architektur	-10.6199
▁Bürger	-10.62
▁Kollegen	-10.6203
▁decisions	-10.6206
▁address	-10.6213
▁Museum	-10.6218
▁Times	-10.6219
▁Bill	-10.6221
▁lebt	-10.6225
▁please	-10.6244
▁Bühne	-10.6244
▁Gen	-10.6244
cy	-10.625
▁stars	-10.6255
▁becoming	-10.6256
▁Netzwerk	-10.6256
ever	-10.6258
▁connect	-10.6258
▁Nein	-10.6259
▁humanity	-10.626
▁Linie	-10.626
▁Israel	-10.6261
▁skills	-10.6269
▁My	-10.6281
so	-10.6283
▁touch	-10.6285
▁weight	-10.6286
▁sub	-10.6286
ard	-10.629
▁globale	-10.6293
▁listening	-10.6299
▁Amerikaner	-10.6309
▁subject	-10.631
ted	-10.6311
▁hab	-10.6315
▁actual	-10.6319
▁Regierungen	-10.632
Re	-10.6324
▁wann	-10.6327
▁Plan	-10.6328
▁jungen	-10.6336
▁concept	-10.6343
▁Organisation	-10.6347
log	-10.6348
▁zero	-10.6349
▁Risiko	-10.6357
▁anymore	-10.6358
▁dadurch	-10.6358
Yeah	-10.6363
▁sammeln	-10.6367
▁betrachtet	-10.6383
▁expensive	-10.6392
▁herausfinden	-10.6393
▁toll	-10.6394
▁Himmel	-10.6416
▁Pro	-10.6419
▁hörte	-10.6424
▁leisten	-10.6428
▁legs	-10.6438
▁handelt	-10.6446
▁policy	-10.6463
▁beauty	-10.6463
▁instance	-10.6463
▁schützen	-10.6463
▁öffentlichen	-10.6465
▁Beziehungen	-10.6467
ak	-10.6481
▁Na	-10.6486
▁strange	-10.6487
▁Flugzeug	-10.6488
▁eben	-10.6491
▁entdeckt	-10.6496
Imagine	-10.6498
▁Wesen	-10.65
▁verstanden	-10.6509
▁Go	-10.6516
▁Methode	-10.6524
Who	-10.653
ex	-10.6533
▁machines	-10.6533
▁danke	-10.6534
Another	-10.6534
▁sat	-10.6543
▁läuft	-10.6544
▁Gründe	-10.6546
▁explore	-10.6551
▁loved	-10.6561
▁genes	-10.6564
▁final	-10.6567
▁Bezug	-10.6569
▁normalerweise	-10.657
mm	-10.657
▁trade	-10.657
▁win	-10.657
▁erzählte	-10.6578
▁Prinzip	-10.6584
▁Geist	-10.659
▁einander	-10.6591
▁zweiten	-10.6595
▁Bank	-10.6599
▁earlier	-10.6605
▁familiar	-10.6605
▁fantastic	-10.6605
▁intelligence	-10.6605
▁pressure	-10.6605
▁Artikel	-10.6611
▁mom	-10.6612
ierung	-10.662
▁Wege	-10.6623
▁entschieden	-10.6626
▁forest	-10.663
ki	-10.6632
▁greater	-10.6634
tion	-10.6642
▁production	-10.6642
▁fit	-10.6642
▁solutions	-10.6648
ure	-10.6651
▁flow	-10.6653
ag	-10.6656
▁practice	-10.6659
▁store	-10.666
▁seconds	-10.6663
▁funny	-10.6677
▁throughout	-10.668
▁income	-10.6682
▁Meer	-10.6683
▁clearly	-10.6683
▁dog	-10.6683
▁diejenigen	-10.6683
▁September	-10.6683
▁7	-10.6687
▁früher	-10.6694
▁Projekte	-10.6694
▁nahe	-10.6695
▁arbeite	-10.6696
▁Hier	-10.6698
▁Million	-10.6698
▁Bo	-10.6703
▁shot	-10.6704
▁Nahrung	-10.6714
▁fing	-10.6714
▁Reaktion	-10.672
▁Systeme	-10.6724
▁teaching	-10.6726
▁tief	-10.6729
▁Ma	-10.6738
▁sky	-10.6739
▁famous	-10.6746
▁Tür	-10.6747
▁außerhalb	-10.6749
lin	-10.6765
pf	-10.6773
▁Netz	-10.6777
▁decade	-10.6779
▁lag	-10.6779
Don	-10.678
ator	-10.6781
▁geschaffen	-10.6785
▁ebenso	-10.6786
▁Krankenhaus	-10.6798
ru	-10.6799
Daher	-10.6801
▁Beginn	-10.6802
▁erfolgreich	-10.681
V	-10.6812
▁website	-10.6815
▁fallen	-10.6821
▁befindet	-10.6824
tor	-10.6828
▁Ent	-10.6829
▁Büro	-10.6834
▁clean	-10.6834
zen	-10.6836
▁board	-10.6843
▁except	-10.6857
▁greatest	-10.6862
▁beings	-10.6862
▁willing	-10.6863
▁Interesse	-10.6867
▁übrigens	-10.6869
▁hält	-10.6882
▁warten	-10.6884
ary	-10.6893
▁rechts	-10.6898
▁Auge	-10.6905
▁dein	-10.6909
Ver	-10.6909
Right	-10.6915
▁hell	-10.6916
▁artist	-10.6917
▁Unter	-10.692
▁feed	-10.6922
▁Ärzte	-10.6925
▁Gehirns	-10.6928
▁extreme	-10.6929
▁therefore	-10.6932
▁Harvard	-10.6939
▁Tisch	-10.6939
▁meeting	-10.6942
▁waiting	-10.6943
Menschen	-10.6957
U	-10.6963
▁effective	-10.6966
▁unique	-10.6966
▁erzeugt	-10.6969
▁Telefon	-10.6984
▁messen	-10.699
▁Vielen	-10.7005
▁45	-10.7009
▁fuel	-10.7015
▁Schlüssel	-10.7019
▁Herzen	-10.7021
▁driving	-10.7026
▁conflict	-10.7026
▁negative	-10.7027
Können	-10.7028
ish	-10.7028
▁Maschinen	-10.7034
▁Jungen	-10.7035
▁connection	-10.7041
▁Verständnis	-10.7044
▁einzigen	-10.7048
plan	-10.7049
▁welcher	-10.7052
▁Punkte	-10.7054
▁direction	-10.7056
▁costs	-10.7057
▁Right	-10.7062
like	-10.7068
▁Farbe	-10.7071
▁improve	-10.7079
▁Kern	-10.7079
▁geschah	-10.7081
▁decades	-10.7088
▁Liste	-10.7093
▁Erfahrungen	-10.7109
▁amerikanischen	-10.7111
Unser	-10.7114
▁remarkable	-10.7119
▁environmental	-10.7123
▁Bei	-10.7125
▁forth	-10.7129
▁Zeitpunkt	-10.7131
▁walked	-10.7133
Z	-10.7136
▁sign	-10.7137
▁dance	-10.7151
▁Feuer	-10.7158
▁herstellen	-10.7159
▁levels	-10.7162
▁taten	-10.7166
▁talks	-10.7168
▁values	-10.718
▁Name	-10.7186
▁Haut	-10.7191
▁babies	-10.7194
▁entweder	-10.7194
durchschnittlich	-10.7195
▁Freude	-10.7198
▁Americans	-10.7201
▁Abend	-10.7203
▁heutigen	-10.7206
lichen	-10.7206
Ihre	-10.7209
mon	-10.7211
schaft	-10.7216
ierte	-10.722
▁genetic	-10.7221
▁survive	-10.7223
▁George	-10.7224
▁secret	-10.7227
▁quick	-10.7229
▁plastic	-10.7229
ba	-10.7235
▁invented	-10.7235
▁politics	-10.7236
▁erwarten	-10.7237
▁selben	-10.7237
▁star	-10.7239
▁»	-10.7242
▁minds	-10.7258
▁großartig	-10.7259
▁magic	-10.7266
▁Leidenschaft	-10.7276
▁erleben	-10.728
▁institutions	-10.7283
▁Nigeria	-10.7283
▁rule	-10.7289
▁foot	-10.7292
▁Westen	-10.7292
▁Lösungen	-10.7294
ap	-10.7301
▁Ton	-10.7303
▁ahead	-10.7308
▁Test	-10.7309
izing	-10.7309
▁getroffen	-10.7309
▁Verantwortung	-10.731
▁dar	-10.7314
▁wenige	-10.7317
▁check	-10.7318
ow	-10.7323
▁km	-10.7324
▁push	-10.7332
▁offen	-10.7333
▁sand	-10.7345
▁original	-10.7346
das	-10.7346
▁immediately	-10.7348
▁aid	-10.7356
▁fühlte	-10.7375
▁unterstützen	-10.7379
▁Fuß	-10.7385
▁dasselbe	-10.7386
▁Traum	-10.7391
▁Stunde	-10.7396
▁Paul	-10.7399
hi	-10.7401
▁Dies	-10.7412
▁Suche	-10.7415
▁jene	-10.7417
▁schlechte	-10.7419
▁helped	-10.7424
▁produziert	-10.7425
▁Wo	-10.7428
▁join	-10.7429
▁unglaubliche	-10.7441
▁services	-10.7442
▁k	-10.7444
▁ran	-10.7445
ium	-10.7451
▁Werte	-10.7458
▁choices	-10.746
▁obvious	-10.746
▁popular	-10.7464
wir	-10.7465
▁Ko	-10.7466
io	-10.748
▁rock	-10.7481
▁whose	-10.7485
▁types	-10.7488
▁hair	-10.7493
▁höher	-10.7497
▁Chicago	-10.7503
▁various	-10.7503
▁Francisco	-10.7503
▁Lernen	-10.7505
▁Medikamente	-10.7505
▁tolle	-10.7509
▁function	-10.7511
▁Now	-10.7511
▁engineering	-10.7513
gel	-10.7515
▁following	-10.7516
▁fix	-10.7516
▁politische	-10.7517
ot	-10.752
▁flying	-10.752
▁Nach	-10.7524
▁existiert	-10.7531
▁heat	-10.7533
▁California	-10.7546
▁Mond	-10.7549
▁guter	-10.7549
▁El	-10.7564
▁useful	-10.7572
▁shared	-10.7572
▁Geschäft	-10.7578
▁beeinflusst	-10.7581
▁communicate	-10.7581
▁Co	-10.7583
▁apply	-10.7583
▁governments	-10.7587
▁challenges	-10.7588
▁Veränderungen	-10.7592
▁Schönheit	-10.7592
▁Einstein	-10.7596
▁Grad	-10.7597
▁öffentliche	-10.7603
▁passion	-10.7605
▁Um	-10.7607
▁James	-10.7609
▁2008	-10.761
▁financial	-10.7617
▁recent	-10.7618
▁Schul	-10.762
▁societies	-10.7621
00	-10.7624
▁summer	-10.7624
Na	-10.7626
ga	-10.7636
▁Jahrhunderts	-10.764
▁effects	-10.7649
igkeit	-10.7651
▁keiner	-10.7656
▁Gesetz	-10.7657
▁Nähe	-10.766
▁einfachen	-10.7661
▁capital	-10.7682
▁term	-10.7684
▁attack	-10.7689
▁raise	-10.7694
▁photo	-10.7694
▁Li	-10.7695
▁Fortschritt	-10.7695
▁verrückt	-10.7697
▁erinnere	-10.77
▁Opfer	-10.77
▁Neuro	-10.7702
▁purpose	-10.7704
▁uses	-10.7704
▁fällt	-10.7714
▁hundert	-10.7719
▁Wörter	-10.772
les	-10.7721
▁Als	-10.7722
▁slide	-10.7728
▁Do	-10.773
que	-10.7733
▁citizens	-10.7735
▁enormous	-10.7737
▁behandeln	-10.774
▁anyway	-10.7743
arbeit	-10.7747
▁ha	-10.7754
▁bar	-10.7755
▁Worten	-10.7774
▁creativity	-10.778
▁terrible	-10.778
▁worst	-10.778
▁Gesundheits	-10.7782
▁press	-10.7787
▁Denken	-10.779
bild	-10.7801
▁Produkte	-10.7806
▁weren	-10.781
▁standard	-10.7811
▁bisher	-10.7814
▁although	-10.7821
▁television	-10.7821
▁conference	-10.7821
va	-10.783
Einer	-10.7833
of	-10.7844
line	-10.7845
▁schicken	-10.7846
▁reduce	-10.7852
▁genutzt	-10.7861
▁ebenfalls	-10.7861
▁verkaufen	-10.7861
▁possibly	-10.7866
▁below	-10.7866
▁religion	-10.7867
▁Polizei	-10.787
ful	-10.787
innen	-10.7871
▁gutes	-10.7876
▁Leistung	-10.788
▁Religion	-10.7891
one	-10.7897
▁erfunden	-10.7902
▁behandelt	-10.7902
▁Sommer	-10.7903
▁event	-10.7905
▁wählen	-10.7905
▁Le	-10.7909
Pa	-10.791
Manche	-10.7914
ni	-10.7919
▁complete	-10.793
kt	-10.7934
▁halbe	-10.7942
▁gedacht	-10.7943
▁Ahnung	-10.7943
▁nahmen	-10.7944
▁Teilen	-10.7945
vor	-10.7946
▁atmosphere	-10.7947
▁female	-10.7949
▁Gefängnis	-10.7949
Is	-10.7953
▁größere	-10.7957
▁Tieren	-10.7959
▁Bienen	-10.7959
▁virus	-10.796
▁Weil	-10.7967
▁track	-10.7981
▁Karriere	-10.7984
▁infrastructure	-10.7984
▁Fenster	-10.7984
▁Drogen	-10.7985
▁jemandem	-10.7988
Genau	-10.7991
▁male	-10.8007
▁echte	-10.8014
▁apart	-10.8025
▁Zustand	-10.8025
▁supply	-10.8025
än	-10.803
▁Städten	-10.8034
▁Eigenschaften	-10.8036
▁Nummer	-10.8041
▁aware	-10.8042
▁respect	-10.8051
Sch	-10.8058
▁Western	-10.8068
▁radio	-10.8068
▁Zeiten	-10.8078
▁bio	-10.8079
Lasse	-10.8079
▁Partner	-10.8079
▁cultural	-10.8082
gehen	-10.8094
▁prison	-10.8095
▁diseases	-10.8096
▁Am	-10.8098
▁trouble	-10.8098
▁slightly	-10.8108
Are	-10.8109
▁konzentrieren	-10.811
▁rights	-10.8111
▁nation	-10.8119
▁fair	-10.8125
▁predict	-10.8132
war	-10.8148
%	-10.8149
▁Verfügung	-10.8149
▁straight	-10.8149
leben	-10.8151
▁directly	-10.8151
▁Osten	-10.8159
Many	-10.8167
▁zer	-10.817
▁komme	-10.8174
▁Mr	-10.8177
▁Antworten	-10.8181
Erstens	-10.8183
▁pass	-10.819
▁understood	-10.8191
▁colleagues	-10.8192
▁affect	-10.8193
▁ließ	-10.8194
▁verbringen	-10.8196
▁YouTube	-10.8198
▁flu	-10.8199
▁NASA	-10.8205
▁Männern	-10.8205
▁frühen	-10.8228
▁hervor	-10.8236
▁capacity	-10.8242
▁gehe	-10.8259
▁lernte	-10.8265
▁hole	-10.827
Y	-10.8272
▁birth	-10.8275
▁Materialien	-10.8276
▁kontrollieren	-10.8276
▁If	-10.8278
▁One	-10.8285
▁email	-10.8286
▁Regel	-10.8288
pt	-10.8289
▁paid	-10.8299
▁agree	-10.8306
▁Freunden	-10.8315
▁iPhone	-10.8318
▁Biologie	-10.8318
▁öffnen	-10.832
rum	-10.8327
▁temperature	-10.8329
▁relationships	-10.8332
▁Bio	-10.8334
▁sp	-10.8334
Seit	-10.8347
▁Wunder	-10.8348
▁boys	-10.8352
▁eigenes	-10.8356
▁surprising	-10.8357
▁trifft	-10.836
▁ermöglichen	-10.836
▁überzeugt	-10.836
▁Wandel	-10.8361
wissenschaftlich	-10.8362
▁angefangen	-10.8363
▁Kreativität	-10.8367
▁Vertrauen	-10.8368
▁Spitze	-10.8375
desto	-10.8389
▁Center	-10.8394
▁forces	-10.8398
▁Darwin	-10.8399
▁Geschwindigkeit	-10.8403
▁sustainable	-10.8403
▁programs	-10.8413
▁laws	-10.8416
▁Region	-10.8417
▁mostly	-10.8419
▁hart	-10.8427
▁stress	-10.8429
▁interact	-10.8436
▁causes	-10.8446
▁published	-10.8448
▁fossil	-10.8451
▁ball	-10.8453
▁Street	-10.8454
▁überleben	-10.8455
▁afford	-10.8455
ku	-10.8459
▁Gelegenheit	-10.846
Jedes	-10.8461
▁speaking	-10.8466
▁Gesetze	-10.847
▁Wahrscheinlich	-10.8478
welt	-10.8482
Instead	-10.8489
▁bestehen	-10.849
▁Vergleich	-10.849
▁Islam	-10.8491
▁forget	-10.8496
▁Dann	-10.8497
▁fangen	-10.8498
▁noticed	-10.8504
▁ändert	-10.8508
▁ideal	-10.8511
▁workers	-10.8513
..."	-10.8515
▁Physik	-10.8524
▁character	-10.8531
▁mission	-10.8534
▁Fluss	-10.8541
▁Berg	-10.8544
▁task	-10.8547
▁answers	-10.8548
▁helping	-10.8552
▁Wald	-10.8554
▁mountain	-10.8555
▁Charles	-10.8559
bu	-10.8561
▁b	-10.857
▁campaign	-10.8576
▁reagieren	-10.8576
▁surgery	-10.8576
▁hört	-10.8577
Nehmen	-10.8578
▁Kommunikation	-10.8582
▁spreche	-10.8585
▁gegangen	-10.8587
cht	-10.8588
▁evolved	-10.8588
teil	-10.8588
▁Verbindungen	-10.8593
erweise	-10.8598
▁photograph	-10.8599
▁closer	-10.86
▁Flug	-10.8601
▁respond	-10.8604
▁scientist	-10.8606
▁gewisse	-10.8606
▁Unterschiede	-10.8606
▁2010	-10.8609
▁Pakistan	-10.8609
aber	-10.861
spiel	-10.8612
▁Tochter	-10.8619
▁kämpfen	-10.862
▁vast	-10.862
▁herzustellen	-10.8621
▁meters	-10.8623
che	-10.8629
▁Klima	-10.8632
▁quote	-10.8637
▁Ansatz	-10.864
▁Werkzeuge	-10.8653
▁früh	-10.8656
▁biological	-10.866
▁Vielfalt	-10.8663
▁geschafft	-10.8663
▁imagination	-10.8663
▁oxygen	-10.8663
▁begonnen	-10.8663
▁lack	-10.8664
▁Indian	-10.867
ca	-10.8677
ität	-10.8677
▁J	-10.868
▁veröffentlicht	-10.8684
Like	-10.8687
▁experiments	-10.8689
▁discover	-10.8689
▁amerikanische	-10.869
Dort	-10.8692
▁größeren	-10.8701
hu	-10.8704
▁twice	-10.8707
▁dying	-10.8708
▁riesigen	-10.8708
▁Michael	-10.8708
▁High	-10.871
▁chemical	-10.871
▁organizations	-10.8726
▁verursacht	-10.8733
▁endlich	-10.8738
▁echt	-10.8738
▁played	-10.8742
▁carry	-10.8745
▁politischen	-10.875
▁Farben	-10.875
▁central	-10.8751
▁Ausdruck	-10.8752
lichkeit	-10.8756
▁Infrastruktur	-10.8765
▁alternative	-10.8769
▁highly	-10.8773
▁wichtigsten	-10.878
▁Let	-10.8782
▁einfacher	-10.8789
▁states	-10.8789
ina	-10.8793
▁Sauerstoff	-10.8796
▁beeinflussen	-10.8796
▁park	-10.8799
▁networks	-10.8802
▁Zelle	-10.8802
▁missing	-10.8803
▁aufgenommen	-10.8805
▁condition	-10.8805
▁relevant	-10.881
▁Rede	-10.881
ff	-10.8828
▁corner	-10.8836
▁differences	-10.8838
▁catch	-10.884
▁afraid	-10.8841
▁giant	-10.8841
▁Ausbildung	-10.8841
▁stopped	-10.8841
▁seines	-10.8854
▁drop	-10.8858
▁broken	-10.8859
▁gebe	-10.8867
▁2007	-10.8872
▁achieve	-10.8873
▁speech	-10.888
▁Qualität	-10.8886
▁Finger	-10.8886
▁Angeles	-10.8887
tz	-10.8887
▁Jobs	-10.8888
▁stick	-10.8894
▁daughter	-10.8904
▁communication	-10.8904
▁Junge	-10.8905
▁irgendeine	-10.8906
▁worry	-10.8923
▁brauchte	-10.8926
▁glass	-10.8926
▁fühlt	-10.8927
▁brilliant	-10.8927
▁engage	-10.8932
▁brand	-10.8938
▁na	-10.8939
bel	-10.8939
▁College	-10.8943
▁active	-10.8946
▁produced	-10.8949
ssystem	-10.8955
\"-	-10.8961
▁basis	-10.8964
▁sick	-10.8968
▁fragt	-10.8976
▁Zeichen	-10.8976
▁handeln	-10.8977
▁inspired	-10.898
ists	-10.8981
▁markets	-10.8983
▁throw	-10.8984
▁differently	-10.8985
▁text	-10.8989
▁Klimawandel	-10.8996
eren	-10.9001
▁gotten	-10.9007
wa	-10.9011
▁Gefühle	-10.9016
▁75	-10.9016
▁absolute	-10.902
ja	-10.9021
▁bought	-10.9021
▁responsibility	-10.9021
ale	-10.9028
▁Konferenz	-10.9029
bo	-10.9032
dimensional	-10.904
▁streets	-10.9042
0	-10.9045
▁Wunsch	-10.9045
▁definition	-10.9046
▁deutlich	-10.9049
▁hielt	-10.9056
▁separate	-10.9057
▁Materie	-10.9067
▁diversity	-10.9067
▁sogenannte	-10.9069
▁nearly	-10.9072
▁Boston	-10.9078
▁window	-10.9082
▁Arbeits	-10.9089
▁Industrie	-10.909
based	-10.9094
▁Klasse	-10.9095
▁notion	-10.9096
del	-10.9097
▁As	-10.91
Manchmal	-10.9101
▁argue	-10.9103
▁Botschaft	-10.9107
▁intelligent	-10.911
▁&	-10.9112
▁easily	-10.9113
▁consciousness	-10.9113
▁dorthin	-10.9114
▁weiterhin	-10.9116
▁Großbritannien	-10.9119
▁Version	-10.9122
▁designers	-10.9127
▁seemed	-10.9129
▁Mikro	-10.9142
▁entstehen	-10.9144
pro	-10.915
▁multi	-10.9154
▁fühle	-10.9158
▁argument	-10.9158
▁Intelligenz	-10.9159
▁ancient	-10.9159
▁entlang	-10.9159
▁weird	-10.9159
St	-10.9172
▁kostet	-10.9177
enden	-10.918
▁Online	-10.9183
▁Bäume	-10.9191
▁studying	-10.9193
▁Gemeinde	-10.9194
▁shift	-10.9195
unterschiedliche	-10.9196
▁Robert	-10.9197
Damit	-10.9197
▁molecules	-10.9199
▁trotz	-10.9205
▁earth	-10.9206
▁desire	-10.9206
▁complexity	-10.9207
▁10,000	-10.9209
▁depend	-10.9217
▁experiences	-10.9218
▁kenne	-10.9222
▁Norden	-10.9222
▁Kilometer	-10.9223
tel	-10.9226
▁Baum	-10.9227
▁seien	-10.9234
▁jump	-10.9237
▁verbreitet	-10.9237
▁significant	-10.9248
▁erlauben	-10.9252
▁gilt	-10.9252
▁clever	-10.9252
▁Atmosphäre	-10.9252
▁Einsatz	-10.9252
qui	-10.9259
▁creatures	-10.9265
▁praktisch	-10.9269
▁genome	-10.9275
▁eating	-10.9276
▁9	-10.9288
▁elektrische	-10.9294
▁22	-10.9294
▁schaut	-10.9297
▁Gewicht	-10.9298
▁Paris	-10.9299
▁degrees	-10.9301
▁Neuronen	-10.9303
▁Identität	-10.9305
▁Waffen	-10.9309
▁Gesellschaften	-10.9312
▁erstaunlich	-10.9324
▁cover	-10.9324
▁Vision	-10.9326
▁23	-10.9337
▁bat	-10.934
▁planets	-10.9344
▁Bildschirm	-10.9346
▁core	-10.9346
▁Zu	-10.9346
▁Loch	-10.9346
▁micro	-10.9348
▁erforschen	-10.935
▁birds	-10.9353
▁erstellen	-10.9355
▁creates	-10.9361
▁Kontakt	-10.9366
▁anti	-10.9372
▁bloß	-10.9372
hilfe	-10.9377
▁hearing	-10.938
▁Se	-10.9387
Two	-10.9389
led	-10.9389
Again	-10.9393
▁GPS	-10.9393
▁stellten	-10.9393
▁dagegen	-10.9395
▁balance	-10.9399
▁enjoy	-10.9404
▁boat	-10.9404
▁Insekten	-10.9408
▁dad	-10.941
ud	-10.9417
▁calls	-10.9418
▁landscape	-10.9418
▁sowie	-10.9425
▁Dan	-10.943
sh	-10.9436
From	-10.9436
▁Lieblings	-10.9439
Actually	-10.944
▁Unterstützung	-10.944
▁Komplexität	-10.944
▁entsteht	-10.944
▁cross	-10.9443
iz	-10.9445
▁Wikipedia	-10.9453
tic	-10.9457
▁Position	-10.9459
▁nehme	-10.9459
ub	-10.9464
▁spending	-10.9466
Über	-10.9475
▁Feld	-10.9484
Think	-10.9485
▁identity	-10.9488
▁background	-10.9488
äh	-10.9489
▁durchgeführt	-10.949
▁wohin	-10.949
▁Kunden	-10.9493
Haben	-10.9493
▁Universums	-10.9497
▁alleine	-10.9498
▁signal	-10.9499
▁To	-10.9504
▁entschied	-10.9507
▁influence	-10.9511
uch	-10.9512
▁Objekte	-10.9512
industrie	-10.9513
▁langen	-10.9515
▁Zentrum	-10.9519
▁Stein	-10.9522
▁transform	-10.9527
▁erinnert	-10.9527
▁Steve	-10.953
▁Schutz	-10.9532
▁Zusammenhang	-10.9535
▁Zusammenarbeit	-10.9536
Zwei	-10.9537
ance	-10.954
fall	-10.9545
ization	-10.9552
▁represent	-10.9555
▁"[	-10.9556
▁Institute	-10.956
▁knowing	-10.9566
org	-10.9571
▁none	-10.9573
▁stem	-10.9574
▁fascinating	-10.9584
▁benötigen	-10.9586
eln	-10.9588
▁Soldaten	-10.9589
▁verkauft	-10.959
▁commercial	-10.9596
▁beschäftigt	-10.9599
▁Ziele	-10.9602
▁Bett	-10.9602
▁European	-10.9604
ng	-10.9606
▁zufällig	-10.9606
▁Big	-10.9615
▁visit	-10.9617
▁Virus	-10.9617
raum	-10.9618
▁manage	-10.962
tes	-10.9626
▁tremendous	-10.9628
term	-10.9651
▁steckt	-10.9653
▁trial	-10.9662
▁con	-10.9665
▁sharing	-10.967
▁Not	-10.9671
▁surprise	-10.9671
▁Titel	-10.9679
▁coffee	-10.968
▁opportunities	-10.968
▁Holz	-10.9681
▁1,000	-10.9681
▁investieren	-10.9682
Your	-10.9688
▁Handy	-10.9694
▁focused	-10.9694
▁tausende	-10.9698
ical	-10.9709
▁Gold	-10.971
▁labor	-10.971
▁deliver	-10.9711
tag	-10.9724
▁count	-10.9726
▁Ra	-10.9726
▁schafft	-10.9729
▁Typen	-10.973
▁davor	-10.9734
▁Bedingungen	-10.9735
▁neuer	-10.9736
▁wert	-10.9737
▁Middle	-10.9747
▁feels	-10.9747
▁saß	-10.9749
▁Sekunde	-10.975
▁Sand	-10.9751
▁Po	-10.9753
▁Can	-10.9753
▁devices	-10.9759
setzen	-10.9764
gi	-10.9767
▁gaben	-10.9773
▁betrifft	-10.9778
▁begeistert	-10.9778
▁kommunizieren	-10.9778
▁Im	-10.9781
▁Life	-10.9784
▁Basis	-10.9788
BG	-10.9791
▁Werkzeug	-10.9793
\"]	-10.9797
▁shares	-10.98
▁forever	-10.9807
▁failure	-10.981
▁fully	-10.981
▁noise	-10.9831
▁Thomas	-10.9834
▁fort	-10.9837
▁members	-10.9859
▁museum	-10.9862
▁99	-10.9862
▁turning	-10.9868
▁Jahres	-10.987
▁random	-10.9873
▁dreht	-10.9874
▁husband	-10.9877
▁phenomenon	-10.9877
▁chinesische	-10.9883
▁gewonnen	-10.9885
ray	-10.9893
▁Asia	-10.9898
▁rational	-10.9902
▁legen	-10.9907
▁Ho	-10.991
▁Nun	-10.991
▁prevent	-10.9917
▁Präsident	-10.9917
▁entwickelten	-10.9918
▁pop	-10.9919
▁bees	-10.9925
▁Knochen	-10.9927
▁ernst	-10.9929
▁Spiele	-10.9931
▁passed	-10.9934
▁klingt	-10.9937
▁umgehen	-10.9944
ob	-10.9946
punkt	-10.9946
ue	-10.9948
▁Phänomen	-10.9954
▁Frieden	-10.9955
▁dahin	-10.9956
▁effort	-10.9961
▁Great	-10.9962
red	-10.9962
rk	-10.9972
▁Bar	-10.9973
▁benefit	-10.9973
▁Science	-10.9974
nce	-10.9974
▁modernen	-10.9975
▁competition	-10.9977
▁opposite	-10.9977
▁unbedingt	-10.9977
▁Band	-10.9977
▁lautet	-10.998
▁fairly	-10.9981
▁beschreiben	-10.9984
▁artists	-10.9984
len	-10.9985
off	-10.9988
▁geführt	-10.9992
▁Fernsehen	-10.9993
▁täglich	-11.0008
schaftliche	-11.0008
▁abge	-11.0017
▁außergewöhnlich	-11.0022
▁vollständig	-11.0025
▁Zwei	-11.0025
▁possibility	-11.0027
▁gestalten	-11.0027
lei	-11.0029
▁leider	-11.0035
▁Code	-11.0036
▁religious	-11.0036
▁stolz	-11.0037
▁At	-11.0038
▁Aufgaben	-11.0039
▁1990	-11.004
▁Erinnerung	-11.0049
\""	-11.005
bare	-11.0059
buch	-11.006
berg	-11.0062
▁habt	-11.0068
▁loss	-11.0075
▁Hintergrund	-11.0077
▁leadership	-11.0078
▁schöne	-11.0083
▁laut	-11.0086
▁brings	-11.0096
▁Höhe	-11.0098
▁Lebensmittel	-11.0101
▁herunter	-11.0109
▁King	-11.0112
od	-11.0114
▁bitten	-11.0115
Ge	-11.0118
!\"	-11.0124
▁farmers	-11.0124
▁virtual	-11.0125
▁buchstäblich	-11.0128
▁coast	-11.0128
▁breast	-11.0128
isten	-11.0129
▁lucky	-11.0129
▁inter	-11.0137
rie	-11.0141
mit	-11.0143
▁sold	-11.0146
▁Sport	-11.0158
▁party	-11.0163
▁Glas	-11.0164
arten	-11.0166
▁painting	-11.0174
über	-11.0175
▁weiss	-11.0176
▁advantage	-11.0179
▁1960	-11.0179
▁moon	-11.0181
▁Forscher	-11.0181
▁selber	-11.0182
sie	-11.0182
▁Affen	-11.0188
▁foreign	-11.0189
▁benefits	-11.0195
▁mouth	-11.0204
haus	-11.0205
▁warm	-11.0205
▁describe	-11.0208
▁roll	-11.0208
▁letztes	-11.021
gang	-11.0213
isieren	-11.0216
▁perfekt	-11.0217
▁cheap	-11.0219
▁Boot	-11.0222
▁Masse	-11.0228
▁ausge	-11.023
▁Gewebe	-11.0231
▁vermutlich	-11.0231
▁Valley	-11.0231
▁despite	-11.0231
▁herausgefunden	-11.0231
▁Drittel	-11.0231
band	-11.0231
▁held	-11.0232
▁industrial	-11.0234
▁suffering	-11.0236
▁Spielen	-11.0239
ziehen	-11.0242
▁verdienen	-11.0243
ped	-11.0247
▁Geräte	-11.0247
▁Fällen	-11.0251
▁report	-11.0252
▁era	-11.0253
bringing	-11.0254
▁benötigt	-11.0256
lan	-11.0257
▁gefährlich	-11.0257
▁date	-11.0265
▁natürliche	-11.027
▁double	-11.0273
▁Organisationen	-11.0273
▁glaubt	-11.0276
bringen	-11.028
▁events	-11.0281
▁Higgs	-11.0282
▁Kontext	-11.0282
▁weiteres	-11.0282
▁vollkommen	-11.0282
▁Brot	-11.0282
▁hinweg	-11.0283
Zweitens	-11.0286
ping	-11.0293
▁Obama	-11.0298
▁wesentlich	-11.0298
▁Sozial	-11.0299
ities	-11.0299
▁leading	-11.03
▁dieselbe	-11.0306
▁block	-11.0322
ps	-11.0323
▁Adam	-11.0331
▁falsche	-11.0333
▁Golf	-11.0334
▁easier	-11.0334
▁sorgen	-11.0334
▁dreams	-11.0337
way	-11.0337
▁Sterne	-11.034
▁heran	-11.0341
▁lief	-11.0342
▁British	-11.0346
▁Karten	-11.0347
▁Gang	-11.0353
tu	-11.0354
▁edge	-11.0365
▁Ba	-11.0368
▁tissue	-11.0374
▁rechten	-11.0374
▁Begriff	-11.0375
con	-11.0379
▁Me	-11.0381
▁illegal	-11.0383
▁erwartet	-11.0384
▁yellow	-11.0386
▁Großteil	-11.0386
▁außerdem	-11.0387
▁structures	-11.0387
▁Kindheit	-11.0388
▁übertragen	-11.039
▁universal	-11.0391
▁particles	-11.0391
Once	-11.0391
▁besitzen	-11.0393
▁Ghana	-11.0394
for	-11.0396
▁Landwirtschaft	-11.0398
▁raised	-11.0398
▁tr	-11.0399
▁hängt	-11.0402
▁27	-11.041
▁aufzu	-11.0411
▁remind	-11.0411
▁Hund	-11.0413
▁card	-11.0416
▁charge	-11.0417
▁Fische	-11.042
▁Professor	-11.0421
▁figured	-11.0422
▁Iraq	-11.0429
▁bird	-11.043
▁weapons	-11.0437
▁responsible	-11.0438
Zuerst	-11.0438
ight	-11.044
▁drehen	-11.0441
▁distance	-11.0443
▁sorry	-11.0448
▁lights	-11.0448
▁wiederum	-11.0448
▁Plastik	-11.0449
▁entirely	-11.0451
▁professional	-11.0457
ehr	-11.0462
tin	-11.0469
▁600	-11.0471
\".	-11.0479
▁bridge	-11.048
tri	-11.0489
▁French	-11.0491
▁Irak	-11.0492
za	-11.0492
▁Laden	-11.0494
▁avoid	-11.0498
▁bezahlen	-11.0498
▁creation	-11.0508
▁collect	-11.0519
▁2009	-11.052
▁engine	-11.0521
▁importantly	-11.0531
▁krank	-11.0537
▁lesson	-11.0541
▁spaces	-11.0542
▁darf	-11.0543
Sometimes	-11.0544
isierung	-11.0544
▁childhood	-11.0544
▁2005	-11.0545
ari	-11.0548
▁sicherlich	-11.0548
cher	-11.0553
▁beat	-11.0555
▁contact	-11.0556
▁gene	-11.0558
▁stecken	-11.0559
▁Ca	-11.056
▁Milliarde	-11.0569
Selbst	-11.0571
▁return	-11.0571
▁usw	-11.0572
▁Ameisen	-11.0575
richtigen	-11.0582
▁Sun	-11.0586
▁Gründen	-11.0587
▁base	-11.0587
▁brother	-11.0588
▁Schlaf	-11.0592
▁wealth	-11.0594
▁debate	-11.0597
was	-11.0597
▁sitzt	-11.0597
▁letztendlich	-11.0598
However	-11.06
▁Mexico	-11.0604
▁deeply	-11.0606
▁When	-11.0625
▁Don	-11.0627
▁anderem	-11.0635
▁Beine	-11.0641
▁moments	-11.0648
▁mindestens	-11.0651
▁scheinen	-11.0651
▁Apple	-11.0652
▁kümmern	-11.0653
stellen	-11.0655
▁werfen	-11.0655
▁fragten	-11.0657
ris	-11.0659
▁wider	-11.0659
Go	-11.066
Bis	-11.0662
▁Haiti	-11.0665
▁Einkommen	-11.0665
▁Bildern	-11.0667
▁einsetzen	-11.068
▁g	-11.0684
▁oceans	-11.0689
all	-11.0689
qua	-11.069
▁einzu	-11.0698
▁hohen	-11.0701
▁hauptsächlich	-11.0704
▁necessarily	-11.0704
▁verwandeln	-11.0704
▁proud	-11.0706
▁entwerfen	-11.0706
Ma	-11.0707
▁Yes	-11.0707
▁häufig	-11.0712
▁überrascht	-11.0722
▁metaphor	-11.073
▁elements	-11.0733
ell	-11.0734
rit	-11.0738
▁bomb	-11.0742
▁efficient	-11.0744
▁For	-11.0749
▁Hirn	-11.0753
▁überzeugen	-11.0753
▁Satz	-11.0754
ble	-11.0754
▁bread	-11.0755
hm	-11.0755
▁dürfen	-11.0758
▁Schluss	-11.0758
▁versus	-11.0759
▁names	-11.0759
▁stammt	-11.0759
▁Jetzt	-11.0761
▁Themen	-11.0761
▁gelangen	-11.0767
druck	-11.0774
Ha	-11.0776
Mir	-11.0785
sehen	-11.0794
▁pounds	-11.0797
▁fail	-11.0798
▁insects	-11.0801
▁flight	-11.0805
▁investment	-11.0805
▁sector	-11.0805
▁hinzu	-11.0806
▁Island	-11.0807
▁civil	-11.0812
é	-11.0813
▁necessary	-11.0813
▁sozusagen	-11.0813
▁studied	-11.0813
▁ultimately	-11.0815
▁Filme	-11.0817
▁photos	-11.0821
▁spirit	-11.0821
▁Fleisch	-11.0825
▁1980	-11.0826
ör	-11.0829
▁bestimmen	-11.0831
▁desert	-11.0832
▁soil	-11.0832
▁Staat	-11.0837
▁Gefahr	-11.0838
▁Wal	-11.0839
zellen	-11.0842
▁plus	-11.0843
▁Nutzen	-11.0844
▁General	-11.0845
▁wunderbare	-11.0849
▁opened	-11.085
▁Glauben	-11.0851
▁cloud	-11.0861
▁leg	-11.0865
car	-11.0866
▁hurt	-11.0867
▁interagieren	-11.0867
▁getötet	-11.0867
▁adults	-11.087
▁discovery	-11.0871
▁Strukturen	-11.0872
▁Sorgen	-11.0881
▁fighting	-11.0885
▁Ben	-11.0885
ors	-11.0886
▁holding	-11.089
▁aktiv	-11.0891
▁Babys	-11.0893
▁river	-11.0894
Un	-11.0901
Over	-11.0903
▁designer	-11.0912
▁Problemen	-11.0912
▁Rahmen	-11.0922
▁Wahrnehmung	-11.0922
▁töten	-11.0922
▁mouse	-11.0922
▁halte	-11.0924
▁daß	-11.0925
▁failed	-11.0928
▁lieber	-11.0944
rat	-11.0961
Noch	-11.0962
▁drink	-11.0971
▁o	-11.0972
See	-11.0972
kommt	-11.0976
▁traffic	-11.0977
▁depression	-11.0978
▁verfolgen	-11.0978
▁lunch	-11.0978
▁wächst	-11.0978
▁hidden	-11.0978
▁Verstand	-11.0979
▁Beweis	-11.098
▁account	-11.0989
▁click	-11.099
▁eingesetzt	-11.099
schw	-11.0999
▁leads	-11.1001
▁erstaunliche	-11.1002
His	-11.1003
▁trick	-11.1013
▁sequence	-11.1018
Gut	-11.1023
▁invest	-11.1026
▁smell	-11.1028
▁civilization	-11.1028
▁irgendwann	-11.1033
▁offer	-11.104
▁voraus	-11.1044
▁fashion	-11.1051
▁wirtschaftliche	-11.1051
arm	-11.1071
lau	-11.1072
▁letter	-11.1073
David	-11.1074
▁vote	-11.108
ok	-11.1081
▁collective	-11.1086
▁ship	-11.1087
50	-11.1088
▁stuck	-11.1089
▁verhindern	-11.1089
▁Zimmer	-11.1089
▁möglicherweise	-11.109
▁nötig	-11.1093
▁dollar	-11.11
isiert	-11.1115
▁believed	-11.112
▁verantwortlich	-11.1121
▁Ecke	-11.1129
▁erhält	-11.113
▁helps	-11.113
▁saving	-11.1133
▁detail	-11.1136
▁equal	-11.1137
▁express	-11.1138
▁finish	-11.1139
▁wichtigste	-11.114
▁adult	-11.1142
▁wisdom	-11.1145
▁leaving	-11.1145
▁Gegenteil	-11.1145
▁unfortunately	-11.1146
▁concerned	-11.1149
▁wirst	-11.1151
▁rain	-11.1161
▁billions	-11.1162
▁electric	-11.1165
chte	-11.1165
▁Institutionen	-11.1172
▁Mission	-11.1172
▁verbracht	-11.1173
fahren	-11.1174
▁degree	-11.1174
▁related	-11.1177
▁Gut	-11.118
▁halb	-11.1181
▁lay	-11.1188
▁struggle	-11.1192
Take	-11.1198
▁profound	-11.1199
▁Bruder	-11.1202
▁Dinosaurier	-11.1202
▁caught	-11.1202
▁grand	-11.1203
▁Wirtschafts	-11.1203
▁justice	-11.1206
▁Per	-11.121
king	-11.1213
▁Geburt	-11.1214
▁schließen	-11.1217
▁colors	-11.1218
aff	-11.1219
▁Because	-11.1221
mittel	-11.1225
▁graph	-11.1227
▁Modelle	-11.1232
skraft	-11.1235
▁basiert	-11.1239
▁Schmerz	-11.124
▁inner	-11.1243
eh	-11.1245
Durch	-11.1246
▁testen	-11.1251
ierten	-11.1252
▁farm	-11.1255
▁university	-11.1258
▁bieten	-11.1258
Außerdem	-11.1259
▁Augenblick	-11.1259
DH	-11.126
▁tue	-11.1264
lose	-11.1265
▁Lied	-11.1266
▁Stellen	-11.127
▁grundlegende	-11.1277
▁faith	-11.1278
▁Sprachen	-11.1278
▁protein	-11.1279
lang	-11.1282
▁Martin	-11.13
material	-11.1305
▁Rand	-11.1306
ya	-11.1309
▁sudden	-11.1312
ick	-11.1313
▁neighborhood	-11.1314
▁coral	-11.1314
▁pump	-11.1319
▁slowly	-11.1321
▁sexual	-11.1324
▁Kalifornien	-11.1325
▁kurze	-11.1328
▁paint	-11.1328
▁pure	-11.1337
▁20.	-11.1338
▁matters	-11.1339
▁besseren	-11.134
▁tough	-11.1361
▁Frank	-11.1364
Wow	-11.1365
▁band	-11.1368
▁mathematics	-11.1373
▁strategy	-11.1373
▁epidemic	-11.1373
▁1950	-11.1373
▁row	-11.1375
▁kurzen	-11.1377
▁interessieren	-11.1379
▁bone	-11.138
▁65	-11.1382
▁motion	-11.1387
▁Funktion	-11.1388
▁lustig	-11.1389
▁weder	-11.139
▁multiple	-11.139
jährige	-11.1394
ative	-11.1397
▁strength	-11.1402
ding	-11.1408
▁Konflikt	-11.1411
▁Öffentlichkeit	-11.1431
▁vorhanden	-11.1431
▁Zitat	-11.1431
▁interaction	-11.1432
▁constantly	-11.1433
▁everyday	-11.1433
More	-11.1435
ang	-11.1437
▁bemerkt	-11.1439
▁compared	-11.1441
▁Videos	-11.1444
▁circle	-11.1448
▁Folge	-11.1451
▁capable	-11.1452
sta	-11.1453
▁link	-11.1454
▁Militär	-11.1454
ide	-11.1476
▁principles	-11.1477
ology	-11.1479
▁verfügbar	-11.1483
▁gehabt	-11.1489
▁teuer	-11.1489
eb	-11.1493
▁ants	-11.1495
▁gr	-11.1496
▁invisible	-11.1497
▁nutzt	-11.1498
▁Standard	-11.1502
▁typical	-11.1504
▁Charakter	-11.1508
▁Tumor	-11.151
▁State	-11.1514
▁walls	-11.1517
▁Aktivität	-11.1519
▁starb	-11.152
▁weiteren	-11.1522
▁Erkenntnis	-11.1525
▁Temperatur	-11.1528
▁closed	-11.1529
▁emotions	-11.1534
▁Wi	-11.1535
▁launch	-11.1541
Video	-11.1543
▁gäbe	-11.1547
▁quantum	-11.1547
▁feedback	-11.1548
▁classroom	-11.1548
▁sister	-11.1549
▁setzt	-11.1552
▁rid	-11.1553
▁Rätsel	-11.1557
▁trained	-11.1558
▁majority	-11.1559
▁nächstes	-11.1561
▁managed	-11.1564
▁Microsoft	-11.1567
nehmen	-11.1572
▁Ne	-11.1573
▁Jungs	-11.1575
ged	-11.1576
▁meat	-11.1577
▁lebte	-11.1578
ei	-11.1588
▁32	-11.1589
Jede	-11.16
▁enable	-11.16
▁target	-11.1602
▁vertraut	-11.1606
▁Stanford	-11.1606
▁operating	-11.1606
▁otherwise	-11.1607
hin	-11.1608
▁deinen	-11.161
ions	-11.161
▁erzähle	-11.161
▁factory	-11.1611
▁Gespräch	-11.1613
▁finished	-11.1613
lon	-11.1614
▁Kaffee	-11.1614
▁described	-11.1617
▁begins	-11.1619
▁bezahlt	-11.1627
▁Pat	-11.163
▁Nation	-11.1635
▁eure	-11.1635
▁sing	-11.1639
nd	-11.1646
▁spezielle	-11.1651
▁versuchten	-11.1651
▁ride	-11.1651
▁cycle	-11.1654
▁engineers	-11.1655
▁toward	-11.1657
▁honest	-11.1659
▁Tom	-11.1659
▁schlimmer	-11.1664
▁Laufe	-11.1665
▁entworfen	-11.1665
▁zugänglich	-11.1665
Everybody	-11.1666
▁bank	-11.1667
▁gemeinsame	-11.1669
▁chair	-11.167
▁organisms	-11.1675
▁erstes	-11.1676
▁followed	-11.1679
▁seat	-11.168
ons	-11.1688
weise	-11.1696
mat	-11.17
▁hunderte	-11.17
▁Experimente	-11.1702
▁Gas	-11.1702
▁faces	-11.1703
▁schwarze	-11.1709
▁grown	-11.1709
▁Yorker	-11.1713
▁auszu	-11.1716
▁Händen	-11.1718
▁Haufen	-11.1725
▁worried	-11.1725
tung	-11.1726
▁komplexe	-11.1726
▁smile	-11.1726
▁Mund	-11.1732
▁höhere	-11.1734
▁mid	-11.1736
▁Kreis	-11.1736
▁consumption	-11.1737
ory	-11.174
ise	-11.1744
▁Inhalt	-11.1744
▁"19	-11.1746
▁Di	-11.1747
▁Website	-11.1751
▁dauert	-11.1752
▁älter	-11.1756
Would	-11.1757
▁nannte	-11.1757
▁Minute	-11.1757
▁paying	-11.1759
▁frage	-11.176
▁starke	-11.1764
rag	-11.1764
cken	-11.1774
▁trip	-11.1775
sicht	-11.1783
▁Vogel	-11.1784
▁1970	-11.1785
▁unterscheiden	-11.1785
▁beantworten	-11.1786
▁perfectly	-11.1793
▁serve	-11.1796
▁belief	-11.1796
▁Stress	-11.1799
▁schönen	-11.1799
▁Ist	-11.1799
jährigen	-11.18
day	-11.1801
ability	-11.1803
▁Herr	-11.1804
▁genauer	-11.1811
▁morgen	-11.1814
▁Entdeckung	-11.1816
▁businesses	-11.182
▁phones	-11.182
▁transformation	-11.1822
▁Radio	-11.1824
▁Experten	-11.1826
▁wenigen	-11.1831
▁miss	-11.1832
▁wave	-11.1835
▁untersucht	-11.1841
▁cure	-11.1842
▁dinner	-11.1845
▁equivalent	-11.1845
▁irgendetwas	-11.1845
stein	-11.1846
▁hergestellt	-11.1847
▁Bush	-11.1847
▁fördern	-11.1847
▁wahre	-11.1848
▁gift	-11.1849
Did	-11.1849
▁magazine	-11.1849
▁surprised	-11.1857
▁Müll	-11.1858
▁normalen	-11.1862
▁Netzwerke	-11.1863
▁erster	-11.1864
▁wide	-11.1866
▁kennt	-11.1867
▁prove	-11.1872
▁somit	-11.1873
▁leader	-11.1877
▁Kräfte	-11.1877
▁notwendig	-11.1883
▁joy	-11.1887
▁persönliche	-11.1889
dass	-11.1896
▁stelle	-11.1897
▁moves	-11.1898
▁tausend	-11.19
▁Perspektive	-11.1905
▁Texas	-11.1906
▁unterstützt	-11.1906
▁allerdings	-11.1906
▁verteilt	-11.1906
▁Klang	-11.1907
Obwohl	-11.1907
▁anzu	-11.1908
▁detect	-11.1909
▁dennoch	-11.191
▁lernt	-11.1912
rate	-11.1915
▁app	-11.1919
nde	-11.192
▁Oder	-11.1924
▁entstanden	-11.1929
▁Nationen	-11.1935
▁nützlich	-11.1938
▁Gedanke	-11.1939
▁arms	-11.1941
▁users	-11.1942
▁Sea	-11.1942
feld	-11.1954
▁bedeuten	-11.1956
▁fiel	-11.1957
▁arbeiteten	-11.196
bt	-11.1962
▁marriage	-11.1967
▁weather	-11.1967
▁galaxies	-11.1967
▁Ausmaß	-11.1968
▁fell	-11.1971
▁sentence	-11.1973
▁currently	-11.1973
▁gehalten	-11.1974
▁Stand	-11.1978
▁gesund	-11.1982
hen	-11.1984
▁erkannte	-11.1984
▁Open	-11.1985
▁enorme	-11.1986
▁Project	-11.1989
▁Top	-11.199
▁schien	-11.1992
▁driver	-11.1992
ras	-11.1998
▁Kenya	-11.1999
▁harder	-11.2001
▁demand	-11.2008
▁holen	-11.2009
▁Australia	-11.2009
▁soldiers	-11.2016
▁innovative	-11.2016
Fi	-11.2017
▁Hunde	-11.2018
▁solid	-11.2019
▁spoke	-11.202
source	-11.2027
▁president	-11.2028
▁fresh	-11.2028
▁Kohlenstoff	-11.2028
▁planning	-11.2028
▁angesehen	-11.2028
▁limited	-11.2032
▁mentioned	-11.2033
▁seriously	-11.2034
▁vehicle	-11.2035
▁Manhattan	-11.2036
▁aufhören	-11.2037
▁spot	-11.204
▁treated	-11.204
ay	-11.204
▁Insel	-11.2044
▁effektiv	-11.2048
▁Massen	-11.2049
La	-11.2049
▁App	-11.2051
▁nochmal	-11.2053
▁Ball	-11.2058
▁interview	-11.206
▁Schwester	-11.2061
▁Landschaft	-11.2063
▁26	-11.2065
▁due	-11.2068
▁inspiriert	-11.2069
▁match	-11.2069
▁wunderbar	-11.2069
▁wear	-11.2072
▁linken	-11.2073
▁station	-11.2077
▁exchange	-11.2078
▁organic	-11.2079
▁climb	-11.208
▁existieren	-11.208
iger	-11.2081
▁bus	-11.2087
▁Planet	-11.2087
▁nah	-11.2088
▁Individuen	-11.209
▁galaxy	-11.209
▁entspricht	-11.209
▁dran	-11.2091
▁Regen	-11.2091
▁Zeitalter	-11.2092
▁enter	-11.2094
▁Maus	-11.2094
▁received	-11.2097
▁wichtigen	-11.2099
▁wearing	-11.2099
▁entwickelte	-11.2107
▁Gehirne	-11.2108
▁watched	-11.2108
▁Kohle	-11.2109
ete	-11.2109
▁Neu	-11.211
vo	-11.2112
ile	-11.2112
▁net	-11.2117
Falls	-11.212
▁Green	-11.2122
▁auseinander	-11.2122
weg	-11.2124
▁schaute	-11.2127
▁Super	-11.213
▁suggests	-11.2136
▁kürzlich	-11.2152
▁nervous	-11.2152
Everything	-11.2152
▁curious	-11.2152
▁fellow	-11.2152
▁vergleichen	-11.2152
▁Unterhaltung	-11.2153
▁collection	-11.2155
▁dritten	-11.2155
▁tens	-11.2155
▁100,000	-11.2156
▁partner	-11.2157
Gesundheitswesen	-11.2159
▁grandmother	-11.2159
▁continent	-11.216
▁molecule	-11.2161
▁abzu	-11.2163
▁könnt	-11.2164
▁erlebt	-11.2165
▁Zug	-11.2166
ana	-11.217
▁bright	-11.2173
▁theater	-11.2177
▁wieso	-11.2184
▁lie	-11.2188
▁Aspekt	-11.2191
▁threat	-11.2194
▁fill	-11.22
test	-11.22
▁Moleküle	-11.2202
▁müsste	-11.2204
▁plane	-11.2205
▁crowd	-11.2205
▁Vorteil	-11.2211
▁zerstört	-11.2212
▁Oxford	-11.2214
▁agriculture	-11.2214
▁hoffentlich	-11.2214
▁intellectual	-11.2214
Eigentlich	-11.2214
▁Gegensatz	-11.2214
▁distribution	-11.2215
▁awful	-11.2215
▁gender	-11.2215
wissenschaftler	-11.2216
▁capture	-11.2216
▁compare	-11.2218
▁dry	-11.2219
▁Elemente	-11.222
▁invited	-11.222
▁Brazil	-11.2222
board	-11.2226
▁Gleiche	-11.223
▁Stimmen	-11.2231
▁statistics	-11.2234
af	-11.2244
▁whom	-11.2245
zug	-11.2245
▁stärker	-11.225
▁Träume	-11.2251
▁ließen	-11.2258
▁besondere	-11.2258
ial	-11.2263
▁consequences	-11.2269
▁master	-11.2271
▁remote	-11.2274
▁ordinary	-11.2277
▁reduzieren	-11.2277
▁survival	-11.2277
▁erscheinen	-11.2277
▁Wirkung	-11.2277
▁aufbauen	-11.2278
▁married	-11.2278
▁Eindruck	-11.2278
▁Grenze	-11.2279
pp	-11.2279
▁erfinden	-11.228
▁grade	-11.2285
▁hide	-11.2285
▁release	-11.2287
▁crime	-11.2287
▁heads	-11.2289
▁battle	-11.2291
▁speziell	-11.2293
▁bekamen	-11.2293
▁visuelle	-11.2297
▁normale	-11.23
hy	-11.2302
▁Bewegungen	-11.2305
▁drawing	-11.2306
▁hate	-11.2307
▁Peter	-11.2309
fallen	-11.2311
▁zog	-11.2314
▁Wa	-11.232
▁Häuser	-11.2321
▁Methoden	-11.2328
▁Operation	-11.2329
▁Mark	-11.2335
▁Smith	-11.2341
▁verbreiten	-11.2341
ort	-11.2342
▁sad	-11.2343
▁increasingly	-11.2343
▁unless	-11.2345
▁Muslim	-11.2345
▁launched	-11.2347
▁Meilen	-11.2349
▁hoffen	-11.2352
▁flat	-11.2353
▁Medikament	-11.2353
▁relativ	-11.2353
▁fourth	-11.2355
▁killing	-11.2358
Wieso	-11.236
▁Sa	-11.2361
▁echten	-11.2362
wirtschaftlichen	-11.2363
▁trägt	-11.2365
▁steigen	-11.2377
▁gold	-11.2379
Co	-11.2381
ologie	-11.2382
fu	-11.2383
Je	-11.2388
▁expand	-11.2389
▁250	-11.2389
ischer	-11.2392
▁electrical	-11.2393
▁define	-11.2395
▁persönlichen	-11.2397
▁direct	-11.24
▁homes	-11.24
▁Definition	-11.2404
▁existence	-11.2404
▁equipment	-11.2404
▁highest	-11.2408
▁Politiker	-11.2408
dy	-11.2409
Keine	-11.2413
▁Informations	-11.2415
zahl	-11.2417
▁Beweise	-11.2421
schlag	-11.2421
Ok	-11.244
j	-11.2446
▁peak	-11.245
▁120	-11.2451
▁Mütter	-11.2452
▁v	-11.2453
▁Meeres	-11.2455
Mann	-11.2457
Welche	-11.2462
▁cognitive	-11.2465
▁breath	-11.2467
rad	-11.2467
▁beinhaltet	-11.2468
▁weibliche	-11.2469
▁construction	-11.2469
▁graduate	-11.2472
rüber	-11.2476
▁Fakten	-11.2477
▁accident	-11.2479
▁Kapital	-11.248
▁Uganda	-11.2482
Ru	-11.2482
▁credit	-11.2483
▁Wettbewerb	-11.2485
geht	-11.2486
ite	-11.2487
reich	-11.249
▁Schimpansen	-11.2492
▁testing	-11.2505
▁engineer	-11.2506
▁Wer	-11.251
▁Produktion	-11.251
▁geschickt	-11.2513
▁reicht	-11.2514
▁Anwendung	-11.2514
▁layer	-11.2517
ley	-11.2517
▁Sehen	-11.2523
▁roten	-11.2523
▁identify	-11.2524
▁Ganze	-11.2526
▁Motor	-11.2527
▁Krise	-11.2534
▁gestern	-11.2534
▁taste	-11.2536
▁brachten	-11.254
▁Zuhause	-11.2545
▁warming	-11.2545
▁chain	-11.2546
▁principle	-11.2547
▁gap	-11.255
Kann	-11.2552
▁verbessert	-11.2561
▁pages	-11.2564
cent	-11.2566
▁verbrachte	-11.257
▁mitten	-11.2571
▁zahlen	-11.2571
▁leiden	-11.2573
▁dealing	-11.2574
▁damage	-11.2588
mut	-11.2594
▁Foundation	-11.2598
▁stupid	-11.2598
▁verschwinden	-11.2598
▁rural	-11.2598
▁Mikroben	-11.2598
▁gelesen	-11.2598
▁Hoch	-11.26
▁daily	-11.26
▁eindeutig	-11.2602
▁shapes	-11.2604
▁Hinsicht	-11.2605
▁lifetime	-11.2606
▁Bauern	-11.2608
▁emotion	-11.261
▁normally	-11.2612
▁article	-11.2612
▁scene	-11.2612
▁mistake	-11.2612
▁tail	-11.2614
▁Amazon	-11.2617
▁mo	-11.2618
Hi	-11.2618
▁flag	-11.2618
▁Galaxien	-11.2621
▁selten	-11.2622
ank	-11.2624
▁languages	-11.2626
▁losing	-11.2627
▁spät	-11.2633
▁Gemeinden	-11.2638
▁exists	-11.2643
nden	-11.2648
▁blieb	-11.2651
oren	-11.2654
tech	-11.2657
▁perform	-11.2663
▁Alzheimer	-11.2663
▁Existenz	-11.2663
▁berührt	-11.2663
▁evil	-11.2663
▁microbes	-11.2663
▁wake	-11.2663
▁Lab	-11.2664
▁Gedicht	-11.2664
▁hopefully	-11.2664
▁abhängig	-11.2666
▁setting	-11.2666
▁schlagen	-11.2666
Naja	-11.2667
▁lies	-11.2667
▁Brasilien	-11.267
▁reward	-11.2672
▁Arbeiten	-11.2675
wand	-11.2675
▁economics	-11.2677
▁airplane	-11.2678
▁Details	-11.2679
eine	-11.2679
▁perfekte	-11.268
▁Abschluss	-11.2682
ix	-11.2682
▁Werk	-11.2685
▁Joe	-11.2687
▁soul	-11.2688
▁mothers	-11.2695
▁schlechter	-11.2696
▁Her	-11.2698
▁opening	-11.27
2-	-11.27
▁Ansicht	-11.2701
▁Ph	-11.2701
▁processes	-11.2701
▁brauche	-11.2702
▁Folgen	-11.2708
▁Beste	-11.2711
▁Teilchen	-11.2713
▁Cent	-11.2713
▁players	-11.2716
halten	-11.2717
▁Red	-11.2725
▁bietet	-11.2729
▁zerstören	-11.2729
▁sites	-11.2729
▁Schatten	-11.2729
▁corruption	-11.2729
▁poetry	-11.2729
▁comfortable	-11.2729
▁Umfeld	-11.273
▁verbindet	-11.273
▁2004	-11.2731
side	-11.2732
▁associated	-11.2732
▁Generationen	-11.274
▁rot	-11.2745
▁Gates	-11.2746
▁21.	-11.2747
▁2006	-11.2759
▁kilometers	-11.2759
▁filled	-11.2759
▁Fl	-11.277
stehen	-11.2777
▁brauchten	-11.278
net	-11.278
▁Tanz	-11.278
▁moderne	-11.2781
▁generations	-11.2782
▁Arab	-11.2791
▁suggest	-11.2792
▁Kombination	-11.2795
▁Lebewesen	-11.2795
▁gewählt	-11.2795
▁geändert	-11.2795
▁importance	-11.2795
▁safety	-11.2796
▁according	-11.2796
▁2,000	-11.2796
▁Vorfahren	-11.2798
▁studieren	-11.2799
▁solch	-11.2802
▁zunächst	-11.2805
▁Australien	-11.2806
▁beobachtet	-11.2813
▁Korruption	-11.2814
fen	-11.2816
kraft	-11.2816
▁caused	-11.2817
last	-11.2821
▁designing	-11.2823
▁Here	-11.2823
▁beschlossen	-11.2828
▁Tausende	-11.2828
ord	-11.283
▁übrig	-11.2833
▁Genom	-11.2833
▁Diskussion	-11.2833
daten	-11.284
▁switch	-11.2841
▁parallel	-11.2849
▁Linien	-11.285
sam	-11.285
▁li	-11.2852
▁introduce	-11.2852
▁unabhängig	-11.2858
▁technical	-11.2858
▁essential	-11.2859
▁Unternehmer	-11.286
▁Florida	-11.2862
▁yesterday	-11.2862
▁gestorben	-11.2862
▁sugar	-11.2862
▁property	-11.2862
▁method	-11.2862
▁Viren	-11.2862
▁gehören	-11.2866
Mail	-11.2869
▁covered	-11.2871
▁Mexiko	-11.2871
PM	-11.2872
▁Armen	-11.2873
▁finger	-11.2876
▁Ar	-11.2876
▁behalten	-11.2878
▁steps	-11.2879
▁kurzem	-11.288
▁Zeitung	-11.2881
▁tape	-11.2883
▁folks	-11.2884
▁Text	-11.2884
laden	-11.2887
verständlich	-11.2889
▁Sp	-11.2891
▁saved	-11.2892
▁forced	-11.2893
▁island	-11.2894
▁persönlich	-11.2901
▁shoes	-11.2902
▁Zweck	-11.2904
▁reichen	-11.2909
▁accept	-11.2913
▁professor	-11.2916
▁digitale	-11.2919
▁dimensions	-11.2922
▁Chemie	-11.2929
▁aufzubauen	-11.2929
▁stood	-11.2929
▁transparent	-11.2929
▁Viertel	-11.2929
lassen	-11.2931
▁details	-11.2933
▁TEDx	-11.2935
▁burn	-11.2939
De	-11.2939
▁analysis	-11.2941
▁fängt	-11.2941
sländern	-11.2942
▁Jahrzehnt	-11.2943
▁ma	-11.2948
▁Spieler	-11.2949
ep	-11.2958
▁signals	-11.2958
▁las	-11.2966
▁Erklärung	-11.2968
▁Folgendes	-11.297
▁10.000	-11.2976
programm	-11.2979
tisch	-11.2983
▁cat	-11.2984
▁Lern	-11.2985
platz	-11.299
▁researchers	-11.2993
▁exact	-11.2993
▁künstliche	-11.2994
▁artificial	-11.2996
▁Organismen	-11.2997
▁heavy	-11.2997
▁Germany	-11.2999
▁appear	-11.3001
Dr	-11.3001
▁coal	-11.3004
folge	-11.3008
▁Instrument	-11.3011
ere	-11.3013
Den	-11.3014
▁folgt	-11.3015
▁sample	-11.3017
▁Helden	-11.3025
▁print	-11.3028
▁musst	-11.3029
▁Dach	-11.3032
over	-11.3035
▁round	-11.3036
leg	-11.3038
▁meistens	-11.3041
▁natürlichen	-11.3045
Me	-11.3047
si	-11.305
▁counter	-11.3052
▁Mut	-11.3053
▁bear	-11.3054
▁Start	-11.3057
▁wood	-11.3062
▁combination	-11.3065
▁pleasure	-11.3065
▁Rio	-11.3068
▁SMS	-11.3068
▁signs	-11.3069
▁arrived	-11.307
▁correct	-11.3079
▁clinical	-11.308
▁Cha	-11.3083
▁fuhr	-11.3083
▁exercise	-11.3084
▁bottle	-11.3085
▁einiger	-11.3085
▁Malaria	-11.3086
▁meist	-11.31
▁spring	-11.3102
▁Post	-11.3109
▁Kerl	-11.311
▁leid	-11.3112
back	-11.3112
▁zählen	-11.3116
▁Körpers	-11.3118
▁movies	-11.3123
▁Spiegel	-11.3128
jo	-11.3128
▁regular	-11.313
▁rare	-11.3132
▁trillion	-11.3132
▁fasziniert	-11.3133
▁tomorrow	-11.3133
▁Japanese	-11.3133
▁automatisch	-11.3133
▁Anti	-11.3136
▁transition	-11.3137
▁beschäftigen	-11.3138
▁connections	-11.314
▁motor	-11.3144
▁considered	-11.3146
▁Anteil	-11.315
?“	-11.3151
▁interface	-11.3154
▁satellite	-11.3154
▁reaction	-11.3155
▁traditionellen	-11.3156
fach	-11.316
▁Rücken	-11.3161
Bitte	-11.3171
▁meiste	-11.3172
▁moralische	-11.3185
▁laugh	-11.3186
▁blaue	-11.3186
▁Ha	-11.3187
▁camp	-11.3189
▁Wein	-11.3193
▁copy	-11.3195
▁hasn	-11.3195
▁Signal	-11.3195
▁mention	-11.3198
▁Geheimnis	-11.3201
▁Brust	-11.3202
▁empty	-11.3202
▁flies	-11.3203
▁experienced	-11.3208
▁convinced	-11.3211
▁Elektrizität	-11.3215
▁definieren	-11.3216
▁wondering	-11.3222
▁resource	-11.3225
▁starten	-11.323
ekt	-11.3234
▁Korea	-11.3236
▁Kurs	-11.3245
▁beschloss	-11.3248
▁expression	-11.3255
▁28	-11.3259
▁shoot	-11.3263
▁Rück	-11.3264
▁schrecklich	-11.3264
▁honor	-11.3265
▁waves	-11.3267
▁quiet	-11.3268
▁wuchs	-11.3271
▁drüben	-11.3271
▁Saturn	-11.3272
▁Canada	-11.3272
▁healthcare	-11.3272
▁Bus	-11.3277
▁Schwierigkeiten	-11.3278
▁Mitarbeiter	-11.328
▁lessons	-11.3286
▁Architekten	-11.3288
▁tap	-11.3289
▁entdeckte	-11.3289
▁Wohlstand	-11.3291
ker	-11.3292
▁muscle	-11.3295
▁internationale	-11.3295
▁erstellt	-11.3299
▁bo	-11.3299
▁fields	-11.3305
▁calling	-11.3307
Le	-11.3308
▁tons	-11.3309
▁Weile	-11.331
Niemand	-11.3311
▁fantastisch	-11.3313
Ah	-11.3314
▁Kulturen	-11.3315
▁leaves	-11.3315
▁Ro	-11.3321
▁Forschungs	-11.3325
▁Sicherheits	-11.3325
▁player	-11.3327
ries	-11.3332
▁verwandelt	-11.3332
▁Jack	-11.3336
▁radical	-11.3338
▁passt	-11.3339
▁tiefer	-11.3339
Please	-11.3341
▁Emotionen	-11.3341
▁conclusion	-11.3341
▁possibilities	-11.3341
▁anwenden	-11.3341
▁chemistry	-11.3342
▁Ausstellung	-11.3342
▁Klein	-11.3342
▁Garten	-11.3343
▁letters	-11.3347
schl	-11.3349
▁Britain	-11.3351
▁independent	-11.3351
▁These	-11.3353
▁expected	-11.3356
▁picked	-11.3359
▁lebten	-11.3363
ani	-11.3365
▁platform	-11.3365
▁dynamic	-11.3365
▁fat	-11.3369
▁gelöst	-11.338
▁broke	-11.3381
▁deeper	-11.3382
Their	-11.3384
work	-11.3384
▁Quelle	-11.3388
▁management	-11.3388
▁Bereiche	-11.3401
▁morgens	-11.3407
werk	-11.3408
▁erkennt	-11.3409
▁Gewinn	-11.3411
▁erscheint	-11.3412
▁variety	-11.3412
▁Maßstab	-11.3412
kultur	-11.3412
▁2003	-11.3413
▁cutting	-11.3413
▁Kenia	-11.3414
▁vermeiden	-11.3414
▁soviel	-11.3418
▁Patient	-11.3419
▁Nachbarn	-11.3426
▁Theater	-11.3427
▁member	-11.3438
▁Rat	-11.3439
▁dots	-11.344
▁annehmen	-11.3441
▁spielte	-11.3444
▁International	-11.3445
▁rote	-11.3446
▁gegenseitig	-11.3448
hal	-11.345
▁Zivilisation	-11.3454
ß	-11.3454
▁Show	-11.3454
▁Fälle	-11.3455
▁chemicals	-11.3456
Mo	-11.3458
▁reform	-11.3463
▁Tim	-11.3463
▁Lauf	-11.3475
▁ähnliche	-11.3475
▁sources	-11.3479
▁steigt	-11.348
▁drin	-11.3481
▁DNS	-11.3483
▁emerging	-11.3483
▁underneath	-11.3483
▁vermitteln	-11.3483
▁äußerst	-11.3483
▁fähig	-11.3484
▁Zufall	-11.3485
▁sprachen	-11.3486
▁verhalten	-11.3489
▁Wetter	-11.349
▁setzte	-11.3491
▁Roman	-11.3491
▁aufgebaut	-11.3491
▁disaster	-11.3509
▁invention	-11.3509
▁poem	-11.351
▁trials	-11.351
▁note	-11.3515
▁consumer	-11.3515
▁Verhältnis	-11.3519
Sehr	-11.353
führen	-11.3531
▁holes	-11.3538
▁soft	-11.3541
▁enorm	-11.3541
▁keeping	-11.3545
▁dinosaurs	-11.3547
markt	-11.3553
▁battery	-11.3554
▁erforscht	-11.3554
▁sweet	-11.3554
technik	-11.3554
▁deswegen	-11.3554
▁worldwide	-11.3556
▁carefully	-11.3557
▁erwähnt	-11.3557
▁Union	-11.3557
▁Weltraum	-11.3562
▁Effekt	-11.3563
▁menschlicher	-11.3572
▁dank	-11.3574
▁Jo	-11.3576
▁Car	-11.3582
▁Bein	-11.3582
▁voices	-11.3583
▁Gore	-11.3588
▁fantastische	-11.3597
ose	-11.3598
scale	-11.3606
Unter	-11.3608
▁nations	-11.3613
▁feelings	-11.3615
▁ange	-11.3618
▁contract	-11.3619
▁Ihres	-11.3624
▁Zucker	-11.3626
▁valuable	-11.3626
▁außen	-11.3626
▁collaboration	-11.3626
▁humor	-11.3626
▁Winter	-11.3627
▁Satelliten	-11.3628
▁Tests	-11.363
▁schlechten	-11.363
▁advanced	-11.3632
▁Bob	-11.3635
chi	-11.3635
ations	-11.3638
▁director	-11.3643
kal	-11.3646
▁experts	-11.3648
▁zieht	-11.3648
wissenschaften	-11.3654
SS	-11.3659
geben	-11.3667
▁dunkle	-11.3668
▁Organ	-11.3668
▁überraschend	-11.3669
▁müssten	-11.3669
▁Grün	-11.3669
▁“	-11.3674
Leute	-11.3679
▁Gras	-11.3681
▁mix	-11.3684
▁zoom	-11.3685
zukommen	-11.3685
recht	-11.3687
▁encourage	-11.3688
▁novel	-11.3689
ans	-11.3693
▁zentrale	-11.3693
▁Arbeiter	-11.3694
▁messages	-11.3696
20	-11.3697
▁beinahe	-11.3699
▁quasi	-11.3699
▁stattdessen	-11.3699
▁mittlere	-11.3699
▁Auswahl	-11.3699
fisch	-11.3699
▁pen	-11.3704
▁Freundin	-11.3708
▁Verlust	-11.3708
▁viruses	-11.3708
▁instrument	-11.3712
▁facing	-11.3715
▁10-	-11.3715
▁aufregend	-11.3717
▁require	-11.3717
▁generate	-11.3718
▁status	-11.3721
▁prime	-11.3723
▁mess	-11.3725
gegangen	-11.3726
▁location	-11.3728
▁discussion	-11.3728
▁option	-11.3729
▁unit	-11.3737
▁heißen	-11.3739
▁organized	-11.374
▁UN	-11.3741
▁Erfindung	-11.3743
gie	-11.3745
▁Bur	-11.3746
▁gang	-11.3746
▁addition	-11.3749
▁gewissen	-11.3752
▁Grafik	-11.3761
▁convince	-11.3762
making	-11.3762
▁besorgt	-11.3772
▁participate	-11.3772
▁malaria	-11.3772
▁gun	-11.3773
▁lokale	-11.3775
▁relatively	-11.3775
▁Ta	-11.3776
▁relative	-11.3776
▁Neues	-11.3776
▁hall	-11.3784
▁rief	-11.3789
▁user	-11.379
▁Für	-11.3797
▁Hollywood	-11.3799
▁parent	-11.3801
▁transport	-11.3804
▁Grand	-11.3805
.«	-11.3809
▁garden	-11.381
unk	-11.3812
technologie	-11.3814
▁metal	-11.3815
▁characters	-11.3821
▁Brown	-11.3824
▁Schiff	-11.3825
wissenschaft	-11.3825
nach	-11.3832
▁budget	-11.3835
▁danger	-11.3845
▁north	-11.3845
▁Potential	-11.3845
▁liberal	-11.3845
▁teeth	-11.3845
▁properties	-11.3845
▁beschreibt	-11.3847
▁rapidly	-11.3848
▁boom	-11.3849
▁bike	-11.385
0.000	-11.3851
▁ergibt	-11.3852
▁hang	-11.3853
▁Star	-11.3853
ette	-11.3855
▁ersetzen	-11.3859
▁Hunger	-11.3861
▁promise	-11.3866
ür	-11.3867
▁95	-11.3873
ey	-11.3877
ball	-11.3882
▁Volk	-11.3885
▁Bereichen	-11.3886
▁requires	-11.389
▁entstand	-11.3891
▁cultures	-11.3894
▁chart	-11.39
▁rede	-11.3901
▁maps	-11.3901
▁kannte	-11.3907
▁May	-11.3908
Have	-11.3912
▁passen	-11.3913
lic	-11.3914
lai	-11.3915
▁Cambridge	-11.3919
▁gefangen	-11.3919
▁gelebt	-11.3919
▁Geschenk	-11.3919
Anyway	-11.3919
▁hydrogen	-11.3919
▁specifically	-11.392
▁roughly	-11.3921
▁gebeten	-11.3922
▁Ozeane	-11.3923
▁sight	-11.3923
▁increasing	-11.3926
Li	-11.3929
▁Korallen	-11.3931
▁treten	-11.3931
Yet	-11.3932
▁sucht	-11.3933
▁fiction	-11.3935
▁gain	-11.3936
▁President	-11.3937
gesellschaftlich	-11.3937
Sogar	-11.3938
Ob	-11.3943
▁ecosystem	-11.3952
▁Finanz	-11.3952
▁sharks	-11.3958
Ro	-11.3959
▁vorne	-11.3966
▁kosten	-11.3967
▁Uni	-11.3967
▁höre	-11.3967
▁Su	-11.3969
cker	-11.3972
▁victims	-11.3978
▁solcher	-11.3985
▁Doch	-11.3986
▁Alle	-11.3989
▁Echtzeit	-11.3994
▁Löcher	-11.3994
▁Stuhl	-11.3994
▁unusual	-11.3994
▁vulnerable	-11.3994
▁darstellt	-11.3994
▁marine	-11.3995
▁Koran	-11.3995
▁winter	-11.3995
▁Gr	-11.3999
▁Südafrika	-11.4
▁effectively	-11.4001
▁presentation	-11.4002
kel	-11.4003
▁schätzen	-11.4004
xi	-11.4005
▁statement	-11.4007
▁practical	-11.401
▁doubt	-11.4011
▁Nichts	-11.4012
▁besagt	-11.4014
▁Werbung	-11.4017
▁asks	-11.402
▁Rot	-11.4026
schnitt	-11.403
▁Ed	-11.4034
▁entscheidend	-11.4036
▁Stärke	-11.4039
▁Untersuchung	-11.404
ht	-11.4041
▁musical	-11.4045
▁Har	-11.4048
▁Vi	-11.4049
▁studio	-11.4054
▁frame	-11.4056
▁grosse	-11.4059
Very	-11.4061
▁veränderte	-11.4062
▁pack	-11.4062
▁element	-11.4063
▁author	-11.4069
▁Congress	-11.4069
▁Fahrrad	-11.4069
▁primary	-11.4069
Damals	-11.4069
▁gay	-11.4069
▁gebraucht	-11.4069
▁Strategie	-11.4071
▁Pflege	-11.4072
▁biologische	-11.4074
▁former	-11.4079
▁rates	-11.4082
▁Gutes	-11.4084
▁Situationen	-11.4085
zugehen	-11.4085
▁Präsentation	-11.4087
▁Deutschland	-11.4087
▁remain	-11.4089
▁Interessen	-11.409
▁fewer	-11.409
▁cameras	-11.4091
▁mögliche	-11.4092
nna	-11.4094
ain	-11.4095
legen	-11.4097
ade	-11.4101
oo	-11.4102
▁bubble	-11.4104
▁insight	-11.4106
▁Lager	-11.411
▁Erinnerungen	-11.4112
▁folgende	-11.4112
▁Momente	-11.4116
▁digitalen	-11.4119
▁erhielt	-11.412
▁factor	-11.4121
▁darstellen	-11.4121
▁Ri	-11.4125
KB	-11.413
▁replace	-11.4134
▁Second	-11.4134
▁Risiken	-11.4145
▁Teenager	-11.4145
▁underwater	-11.4145
▁Alles	-11.4145
▁formen	-11.4147
▁harm	-11.4147
▁Buchstaben	-11.4148
▁seitdem	-11.4149
▁protection	-11.4149
▁loop	-11.415
▁south	-11.4151
wert	-11.4152
▁besuchen	-11.4153
zubringen	-11.4153
▁sichtbar	-11.4154
stück	-11.4156
▁extract	-11.4158
▁length	-11.4161
▁hinten	-11.4161
▁emissions	-11.4161
▁cards	-11.4162
▁techniques	-11.4164
stoff	-11.4165
▁Ökosystem	-11.4172
▁liked	-11.4172
▁producing	-11.4174
▁represents	-11.4176
lock	-11.4176
▁mirror	-11.418
▁shark	-11.4181
▁depends	-11.4183
▁buying	-11.4183
▁alter	-11.4184
▁volume	-11.4186
▁reflect	-11.42
rop	-11.4204
Sein	-11.421
▁clip	-11.4211
John	-11.4212
haft	-11.4213
bit	-11.4214
▁situations	-11.4215
▁height	-11.4215
▁Zuschauer	-11.4215
▁mathematical	-11.4218
▁Hai	-11.4221
▁technological	-11.4221
▁Taliban	-11.4221
▁democratic	-11.4221
▁steel	-11.4221
▁enthält	-11.4221
▁lady	-11.4221
▁liefern	-11.4223
▁Ehe	-11.4227
▁Tonnen	-11.4229
▁grüne	-11.4231
▁Homo	-11.4233
▁Act	-11.4238
avi	-11.4241
▁steuern	-11.4243
▁stock	-11.4244
igung	-11.4245
port	-11.4246
ulation	-11.4247
▁movements	-11.4247
▁genetische	-11.4249
▁include	-11.4249
▁Derek	-11.4253
▁Moral	-11.4256
▁roof	-11.4258
▁Akt	-11.4265
▁Einstellung	-11.427
▁puts	-11.4281
▁Vögel	-11.4282
▁tradition	-11.4283
▁leichter	-11.4284
▁langer	-11.4287
Audience	-11.4288
▁succeed	-11.4292
▁goals	-11.4293
▁11.	-11.4294
▁[\"	-11.4295
▁Diagramm	-11.4296
▁reduziert	-11.4298
Stattdessen	-11.4298
▁langweilig	-11.4298
▁molecular	-11.4298
▁überwinden	-11.4298
▁staff	-11.4298
▁darunter	-11.4298
▁kitchen	-11.4298
▁Pfund	-11.4299
▁orange	-11.4299
▁Atem	-11.4299
geschichte	-11.43
▁Lego	-11.4301
▁vorzustellen	-11.4301
▁Wesentlichen	-11.4304
▁lebendig	-11.4307
mus	-11.4307
▁generally	-11.4307
win	-11.4308
;"	-11.4308
Danach	-11.4309
▁symbol	-11.431
▁Pacific	-11.431
▁1.	-11.4311
▁Musiker	-11.4311
▁carrying	-11.4314
▁added	-11.4318
▁Statistiken	-11.4319
nder	-11.4321
▁kompliziert	-11.4323
Pro	-11.4325
▁Kontinent	-11.4326
▁junger	-11.433
setzt	-11.433
▁0	-11.4331
▁Süden	-11.4334
ship	-11.4335
▁Ok	-11.4335
▁horse	-11.4336
▁Nord	-11.4337
▁videos	-11.4349
▁2001	-11.4351
▁restaurant	-11.4358
▁Kon	-11.4361
Her	-11.4362
▁adapt	-11.4365
▁Global	-11.4365
▁singen	-11.4366
verhalten	-11.4371
▁previous	-11.4372
head	-11.4375
ified	-11.4375
▁Debatte	-11.4376
▁liquid	-11.4376
▁männliche	-11.4376
▁pollution	-11.4376
▁Überraschung	-11.4376
▁Großmutter	-11.4376
▁mortality	-11.4376
Since	-11.4376
▁Media	-11.4376
▁GDP	-11.4376
▁behaviors	-11.4376
▁schlafen	-11.4377
vis	-11.4377
▁Aufnahme	-11.4378
▁Laptop	-11.4379
▁Ur	-11.438
▁blow	-11.438
▁versteht	-11.4383
▁houses	-11.4383
▁übernehmen	-11.4387
▁definiert	-11.4394
▁Ga	-11.4394
Ra	-11.4395
▁gespielt	-11.4398
▁terrorism	-11.4402
Leider	-11.4404
▁Qu	-11.4404
▁bauten	-11.4407
wesen	-11.4407
▁Stern	-11.4408
▁sending	-11.4408
▁König	-11.4409
▁organs	-11.4411
▁Herren	-11.4414
▁Health	-11.4424
▁arts	-11.4425
▁Geräusch	-11.4426
▁selling	-11.4433
▁Wissens	-11.4433
▁kreieren	-11.4454
▁silence	-11.4454
▁prize	-11.4454
▁robust	-11.4454
▁drauf	-11.4454
▁grid	-11.4454
▁gefällt	-11.4454
dienst	-11.4454
▁Ruf	-11.4456
▁prepared	-11.4459
▁Con	-11.4461
▁Kongress	-11.4464
▁Gerechtigkeit	-11.4466
rei	-11.4467
▁released	-11.4467
▁beweisen	-11.4468
▁hierher	-11.4472
▁bezeichnet	-11.4479
▁sparen	-11.4479
▁Weltkrieg	-11.4481
▁internationalen	-11.4484
▁perception	-11.4494
▁newspaper	-11.4494
▁feature	-11.4495
▁score	-11.4496
▁lokalen	-11.4498
▁ski	-11.4502
sum	-11.4503
▁Bedürfnisse	-11.4504
▁19.	-11.4508
▁verstehe	-11.4509
ious	-11.4509
▁Jahrzehnten	-11.4511
▁schwieriger	-11.452
▁Molekül	-11.452
▁meinte	-11.4523
pol	-11.4524
▁Element	-11.4526
▁Stufe	-11.4528
▁arme	-11.4529
▁passionate	-11.453
Good	-11.453
▁academic	-11.4532
▁Chemikalien	-11.4532
▁Schicksal	-11.4532
▁Anführer	-11.4533
▁hotel	-11.4534
▁nest	-11.4536
▁beschrieben	-11.4544
▁seid	-11.4545
▁internal	-11.4549
▁Durch	-11.455
machen	-11.4552
▁meaningful	-11.4553
▁Or	-11.456
▁standen	-11.4561
▁Hans	-11.4562
▁politicians	-11.4566
elle	-11.4568
▁anschaut	-11.457
fälle	-11.457
▁aufge	-11.4573
▁hero	-11.4573
▁handle	-11.4573
▁Wellen	-11.4574
▁pair	-11.4575
rew	-11.4575
▁Hotel	-11.4576
▁2011	-11.4579
▁unglaublichen	-11.458
▁blauen	-11.4586
▁explains	-11.4593
sinn	-11.4599
▁Galaxie	-11.4606
▁permanent	-11.4608
forschung	-11.461
▁Decke	-11.4611
▁Gemälde	-11.4612
▁lediglich	-11.4612
▁sophisticated	-11.4612
▁Studio	-11.4612
▁gegründet	-11.4612
▁privacy	-11.4612
▁psychological	-11.4612
▁psychology	-11.4612
▁reference	-11.4612
▁scheinbar	-11.4612
▁fake	-11.4612
▁feststellen	-11.4612
▁derzeit	-11.4615
▁typically	-11.4616
mäßig	-11.4617
use	-11.4619
▁85	-11.462
bereich	-11.4621
▁components	-11.4621
▁introduced	-11.4623
▁Blumen	-11.4627
▁however	-11.4628
▁engaged	-11.4629
▁33	-11.4629
▁Sir	-11.463
atur	-11.4631
▁Rechte	-11.4639
▁aufnehmen	-11.4639
▁king	-11.4649
▁stehe	-11.4649
licht	-11.465
▁Drei	-11.4654
▁suit	-11.4654
▁organ	-11.4655
▁risks	-11.4656
▁factors	-11.4657
gruppen	-11.4658
▁Long	-11.466
lit	-11.4662
maschine	-11.4663
▁Lektion	-11.4663
▁Küste	-11.4663
SP	-11.4665
▁Hall	-11.4668
oh	-11.4671
▁Gegend	-11.4672
Andere	-11.4678
▁Brücke	-11.468
▁collapse	-11.4682
▁assume	-11.4682
▁season	-11.4684
▁illness	-11.4687
▁Mac	-11.469
▁swim	-11.4692
▁advice	-11.4692
▁erweitern	-11.4692
▁piano	-11.4692
▁spectrum	-11.4692
▁britische	-11.4692
▁silk	-11.4692
While	-11.4692
▁entfernen	-11.4692
▁radiation	-11.4692
▁Hacker	-11.4693
▁dahinter	-11.4693
▁Fr	-11.4694
▁Handel	-11.4699
down	-11.4703
Darum	-11.4703
▁Vorteile	-11.4703
▁affected	-11.4704
▁700	-11.4704
▁tumor	-11.4709
▁German	-11.471
▁einge	-11.4716
▁Damen	-11.4716
kor	-11.4718
▁employees	-11.4718
Does	-11.4718
ook	-11.4718
schaftlichen	-11.4719
mmer	-11.4723
▁bits	-11.4728
▁fern	-11.4732
westlichen	-11.4735
▁regions	-11.4735
par	-11.4739
▁großartigen	-11.474
▁interests	-11.4742
▁photographs	-11.4744
▁Grundlage	-11.4745
ges	-11.4748
▁armen	-11.475
nimmt	-11.475
▁Eric	-11.476
▁Gebiete	-11.4762
▁kulturelle	-11.4765
lage	-11.4767
▁schwarz	-11.4768
▁Klassenzimmer	-11.4772
▁Stammzellen	-11.4773
light	-11.4774
▁lachen	-11.4774
▁Johnson	-11.4774
▁akzeptieren	-11.4774
▁Unfall	-11.4774
Wann	-11.4776
wan	-11.4777
▁atoms	-11.478
▁spin	-11.4781
▁linear	-11.4782
▁Erwachsenen	-11.4783
▁liefert	-11.4785
systeme	-11.4787
▁w	-11.4791
▁traurig	-11.4791
▁thanks	-11.4792
▁industrielle	-11.4799
▁zunehmend	-11.4801
▁Signale	-11.4802
part	-11.4805
▁ancestors	-11.4805
gy	-11.4813
▁topic	-11.4814
▁wirkliche	-11.4817
▁opinion	-11.4818
▁schwierige	-11.4819
▁interessanter	-11.4821
mie	-11.4824
▁reich	-11.4824
lig	-11.483
▁split	-11.4834
val	-11.4841
▁Seele	-11.4842
gezogen	-11.4843
▁Depression	-11.4845
▁wine	-11.485
meter	-11.485
▁constant	-11.485
▁kontrolliert	-11.4851
▁Tee	-11.4853
▁unbe	-11.4853
▁gravity	-11.4854
▁unexpected	-11.4854
▁beteiligt	-11.4854
▁snow	-11.4854
▁Mehrheit	-11.4854
▁shut	-11.4854
▁Verbrechen	-11.4854
Deswegen	-11.4854
▁toxic	-11.4854
▁evolutionary	-11.4854
▁Nutzung	-11.4855
China	-11.486
Last	-11.4862
▁öffentlich	-11.4863
▁algorithms	-11.4864
▁Fortschritte	-11.4864
akt	-11.4864
▁sphere	-11.4866
▁singing	-11.4866
▁Physiker	-11.4869
▁quarter	-11.487
SW	-11.487
▁Einheit	-11.487
▁herein	-11.4871
▁Fellow	-11.4871
ett	-11.4874
▁blocks	-11.4875
▁conscious	-11.4883
▁bag	-11.4883
▁Schritte	-11.4889
han	-11.489
▁Aktivitäten	-11.4894
▁skill	-11.4896
selben	-11.4897
▁Zusammen	-11.49
▁puzzle	-11.4901
struktur	-11.4906
▁anfing	-11.4907
▁Fabrik	-11.4922
pri	-11.4925
▁baute	-11.4927
▁legt	-11.4929
▁kick	-11.493
▁Hi	-11.4933
ford	-11.4934
▁definitely	-11.4936
▁shame	-11.4936
▁entgegen	-11.4936
▁medium	-11.4936
▁Innovationen	-11.494
▁heisst	-11.494
Could	-11.4941
▁Port	-11.4944
▁Tradition	-11.4944
▁Null	-11.4944
house	-11.4944
ju	-11.4945
▁Fliegen	-11.4948
▁froh	-11.495
▁weak	-11.4952
▁Mengen	-11.4953
▁reached	-11.4956
▁Durchschnitt	-11.4961
▁Mi	-11.4962
▁recorded	-11.4964
▁inspiration	-11.4968
▁driven	-11.4968
▁animation	-11.4969
▁"„	-11.4971
▁$	-11.4971
▁konzentriert	-11.4972
▁shop	-11.4973
lager	-11.4974
▁Blau	-11.4974
▁reagiert	-11.4976
Kein	-11.4978
▁White	-11.4983
▁facts	-11.4984
▁joke	-11.4984
▁survey	-11.4984
30	-11.499
▁chicken	-11.499
▁Will	-11.4995
▁crash	-11.4998
cing	-11.5005
▁Interaktion	-11.5005
weil	-11.5008
▁grundsätzlich	-11.5008
▁Wüste	-11.5009
▁breathe	-11.5009
▁Mama	-11.5012
▁Gegenwart	-11.5018
▁cortex	-11.5018
▁false	-11.5018
▁Terrorismus	-11.5019
▁Kabel	-11.5019
▁Mu	-11.502
▁Day	-11.5021
▁trend	-11.5023
▁Heim	-11.5024
▁scared	-11.5025
▁kriegen	-11.5026
Mehr	-11.5026
▁combined	-11.5028
Dollar	-11.5029
System	-11.503
▁Ray	-11.5034
mann	-11.5036
▁hadn	-11.5039
unter	-11.504
▁traveling	-11.504
▁800	-11.5041
▁investiert	-11.5041
Only	-11.5047
▁mountains	-11.5058
▁manchen	-11.5066
act	-11.5066
▁fishing	-11.5066
▁architect	-11.5069
▁van	-11.5071
▁clock	-11.5071
▁grab	-11.5073
▁kreative	-11.5075
▁Todes	-11.5079
▁Are	-11.5079
▁bare	-11.5081
▁mistakes	-11.5083
▁cave	-11.5083
▁reverse	-11.5086
wirtschaft	-11.509
schutz	-11.509
▁Gedächtnis	-11.5099
▁Respekt	-11.51
▁afternoon	-11.5102
▁empathy	-11.5102
▁irgendjemand	-11.5102
▁memories	-11.5102
▁phrase	-11.5102
▁erhöhen	-11.5102
▁Blatt	-11.5102
▁Literatur	-11.5102
▁cord	-11.5102
▁wirkt	-11.5104
▁behave	-11.5105
▁sports	-11.5109
▁Gesichter	-11.511
Second	-11.511
wo	-11.5112
▁neighbors	-11.5113
▁required	-11.5113
Publikum	-11.5114
▁phase	-11.5116
▁berühmt	-11.5118
▁flexible	-11.5119
gab	-11.5121
▁angenommen	-11.5122
▁dogs	-11.5123
▁glaubte	-11.5123
▁awareness	-11.5125
▁doppelt	-11.5127
▁momentan	-11.513
▁stronger	-11.5136
▁script	-11.5144
▁display	-11.5146
llen	-11.5148
▁funktionierte	-11.5151
▁faszinierend	-11.5151
▁Symbol	-11.5153
▁mechanism	-11.5153
▁rocket	-11.5157
▁Nase	-11.516
▁di	-11.5161
▁Unterricht	-11.5164
▁komplexen	-11.5164
▁foundation	-11.5165
▁ba	-11.5171
arbeiter	-11.5173
▁suffer	-11.5175
▁combine	-11.5176
▁poet	-11.5181
▁ultimate	-11.5182
▁Sitz	-11.5185
▁Jeder	-11.5185
▁bemerken	-11.5186
▁August	-11.5186
Perhaps	-11.5186
▁eröffnet	-11.5186
▁telephone	-11.5186
▁hieß	-11.5186
▁ought	-11.5186
▁verletzt	-11.5186
▁Bord	-11.5188
▁Moore	-11.5189
▁percentage	-11.5194
▁paradigm	-11.5197
▁falschen	-11.5198
▁Führung	-11.5198
unternehmen	-11.5199
▁seltsam	-11.52
▁pulled	-11.5202
▁vers	-11.5203
Nachde	-11.5206
▁naturally	-11.5206
▁aging	-11.5207
being	-11.5219
▁Resultat	-11.5221
▁solved	-11.5223
▁offene	-11.5223
▁baut	-11.5224
▁Gegen	-11.5224
ebene	-11.5225
▁Armee	-11.5231
▁pour	-11.5232
▁actions	-11.5235
▁umgeben	-11.5237
▁environments	-11.5249
▁eggs	-11.525
▁berühmte	-11.5257
weit	-11.5259
▁title	-11.5261
handel	-11.5263
▁repeat	-11.5264
▁se	-11.5268
fügen	-11.5269
▁geteilt	-11.527
cal	-11.527
▁admit	-11.527
▁Central	-11.527
▁destruction	-11.527
▁literature	-11.527
▁framework	-11.5271
▁besitzt	-11.5271
▁France	-11.5271
▁dropped	-11.5271
▁wunderschöne	-11.5271
▁transportation	-11.5271
▁Prinzipien	-11.5271
▁Flügel	-11.5271
▁präsentiert	-11.5275
▁applied	-11.5276
▁nieder	-11.528
▁personally	-11.529
▁forests	-11.5291
▁increased	-11.5296
tte	-11.5296
▁vertrauen	-11.5296
▁thoughts	-11.5304
stellung	-11.531
▁features	-11.5311
▁bekannten	-11.5311
▁dieselben	-11.5312
Seine	-11.5315
▁operate	-11.5316
gle	-11.5319
▁chemische	-11.532
satz	-11.5323
▁occur	-11.5325
tische	-11.5325
▁Darstellung	-11.5327
▁Kirche	-11.5327
▁Phase	-11.5327
▁receive	-11.5331
▁verdient	-11.5332
▁electronic	-11.5333
▁narrative	-11.5345
▁hospitals	-11.5345
▁vehicles	-11.5346
ura	-11.5346
▁zeichnen	-11.5351
▁weiße	-11.5352
istic	-11.5352
▁Hu	-11.5353
”	-11.5355
▁Stahl	-11.5356
▁activities	-11.5356
▁church	-11.5356
▁computing	-11.5356
▁Inspiration	-11.5356
▁birthday	-11.5356
▁sunlight	-11.5356
▁5,000	-11.5357
▁Rad	-11.5357
▁1000	-11.5357
▁hunger	-11.5357
▁host	-11.5357
▁3,000	-11.5358
▁hoping	-11.536
▁fr	-11.5361
▁efficiency	-11.5361
als	-11.5364
▁fundamentally	-11.5367
▁überlegen	-11.537
▁physically	-11.5371
sichtlich	-11.5372
▁jener	-11.5376
Ab	-11.5376
▁largely	-11.538
Ohne	-11.5386
▁senden	-11.5387
▁Gottes	-11.5388
▁Willen	-11.5394
▁realen	-11.5399
▁gemeinsamen	-11.5407
▁Beruf	-11.5408
▁centers	-11.5413
▁Metapher	-11.5414
▁diverse	-11.5414
▁Annahme	-11.5414
▁Ereignisse	-11.5414
▁string	-11.5415
▁fährt	-11.5418
▁Überleben	-11.5419
laufen	-11.542
▁formed	-11.5425
▁ends	-11.5429
▁section	-11.543
▁decline	-11.5432
lia	-11.5433
voll	-11.5433
▁seltsame	-11.5436
▁mile	-11.5442
▁FBI	-11.5442
▁Kanada	-11.5442
▁manufacturing	-11.5442
▁sustainability	-11.5442
▁ausgebildet	-11.5442
▁House	-11.5442
Zunächst	-11.5443
▁Wagen	-11.5443
▁zählt	-11.5444
▁productive	-11.5444
▁th	-11.5447
Dafür	-11.5447
▁aufgewachsen	-11.5449
▁remove	-11.5449
▁gesch	-11.545
▁runs	-11.5451
▁collected	-11.5452
▁ansieht	-11.5452
▁bezeichnen	-11.5453
Bevor	-11.5455
▁behaupten	-11.546
EM	-11.5461
▁Marketing	-11.5463
▁bemerkenswert	-11.5464
X	-11.5464
arbeiten	-11.5471
box	-11.5472
▁zeigten	-11.5476
▁Fokus	-11.5481
gerät	-11.5483
let	-11.5492
▁Sprach	-11.5493
▁marketing	-11.5497
▁invent	-11.5497
▁Persönlichkeit	-11.5498
ust	-11.5499
▁primitive	-11.5499
▁laptop	-11.5499
▁Gericht	-11.5501
▁Russia	-11.5501
▁institution	-11.5501
▁weiterer	-11.5501
gegen	-11.5502
▁mis	-11.5508
▁Ex	-11.551
▁pilot	-11.5516
kle	-11.5519
▁Human	-11.5519
▁maintain	-11.552
▁kostenlos	-11.5523
▁fehlt	-11.5523
▁abstract	-11.5524
▁functions	-11.5526
▁Milch	-11.5528
▁Titan	-11.5528
▁hey	-11.5528
▁Transport	-11.5529
▁Russland	-11.5529
▁concrete	-11.5529
Something	-11.5529
▁Ursprung	-11.5529
▁finance	-11.5529
▁conservation	-11.5529
▁Riesen	-11.5529
▁Saudi	-11.5529
▁occurred	-11.5529
▁Chaos	-11.5529
▁Knie	-11.5529
▁hyper	-11.553
Nobody	-11.5531
hält	-11.5534
▁Good	-11.5535
▁besseres	-11.5536
▁Mein	-11.5537
▁Billionen	-11.5537
▁cooking	-11.5538
schalten	-11.5544
▁fe	-11.5546
state	-11.5546
▁afrikanischen	-11.5551
Gib	-11.5552
▁recording	-11.5556
▁Samen	-11.5557
▁Wall	-11.5557
▁Law	-11.5561
▁2012	-11.5563
▁"♪	-11.5566
reichen	-11.5567
▁filter	-11.5568
▁Maß	-11.5573
alter	-11.5574
▁Howard	-11.5577
▁nose	-11.5581
▁einst	-11.5583
▁Lu	-11.5584
enz	-11.5584
▁protected	-11.5585
▁bekomme	-11.5589
▁Absicht	-11.5589
▁cook	-11.559
▁elegant	-11.5591
see	-11.5593
▁thin	-11.5602
▁records	-11.5612
▁Streit	-11.5616
▁With	-11.5616
▁dramatic	-11.5617
▁Diagnose	-11.5617
▁centuries	-11.5617
▁department	-11.5617
▁dominant	-11.5617
▁geholfen	-11.5617
▁presence	-11.5617
▁vorbereitet	-11.5617
▁repair	-11.5617
▁überlebt	-11.5617
▁dargestellt	-11.5617
▁Webseite	-11.5618
▁hinunter	-11.5618
▁Jones	-11.5619
▁Mio	-11.562
▁Berge	-11.5624
▁exploration	-11.5627
ition	-11.5628
gas	-11.5634
▁gefallen	-11.5638
Ganz	-11.5638
Three	-11.5641
kin	-11.5641
▁falling	-11.5648
▁Gemeinschaften	-11.5653
▁nett	-11.5653
▁acting	-11.5653
▁führten	-11.5658
▁appropriate	-11.5662
▁dauerte	-11.5665
istische	-11.5666
▁limit	-11.5671
▁Folie	-11.5677
▁Aktion	-11.5679
kam	-11.5681
▁willst	-11.5687
▁Mc	-11.5695
▁embrace	-11.5696
▁celebrate	-11.5696
sein	-11.5699
▁notes	-11.5702
▁comfort	-11.5705
▁bicycle	-11.5705
▁regelmäßig	-11.5705
▁visible	-11.5705
▁smoke	-11.5705
▁swimming	-11.5705
▁motivation	-11.5705
▁therapy	-11.5705
▁berichten	-11.5706
▁River	-11.5706
Anstatt	-11.5708
▁wofür	-11.5708
▁bemerkte	-11.5708
▁wechseln	-11.5708
▁equally	-11.5711
▁durchführen	-11.5711
weisen	-11.5712
▁Geburtstag	-11.5712
▁beibringen	-11.5714
ther	-11.5714
▁potentially	-11.5717
▁burning	-11.5717
▁processing	-11.5721
▁button	-11.5721
gabe	-11.5726
▁Bay	-11.5726
▁Entwicklungs	-11.5727
▁Ford	-11.5728
▁Prize	-11.5728
▁Jim	-11.5732
▁stream	-11.5735
▁Chef	-11.5735
RB	-11.5736
ney	-11.5736
▁Vielleicht	-11.5737
▁seek	-11.5738
▁Aspekte	-11.5739
▁Party	-11.5739
ments	-11.574
cha	-11.5742
▁style	-11.5745
▁Ernährung	-11.5749
▁Programme	-11.5755
▁hits	-11.5758
▁appreciate	-11.5759
▁Von	-11.5759
▁langsamer	-11.576
karte	-11.5765
ock	-11.5766
▁Epidemie	-11.5768
▁expert	-11.5768
barkeit	-11.5768
▁creature	-11.5768
▁photographer	-11.5771
zel	-11.5773
▁fingen	-11.5777
▁Just	-11.5779
▁drives	-11.5781
Spiel	-11.5784
▁translate	-11.5785
▁suppose	-11.5785
▁controlled	-11.5787
▁lift	-11.5789
ckt	-11.5789
▁getrennt	-11.5795
▁wütend	-11.5795
▁globe	-11.5795
▁Potenzial	-11.5795
Schließlich	-11.5795
▁erneut	-11.5795
▁merken	-11.5795
▁somewhat	-11.5796
▁elektronische	-11.5796
▁Air	-11.5797
▁emotionale	-11.5797
▁versteckt	-11.5798
ham	-11.5799
▁Bibliothek	-11.58
▁Konsequenzen	-11.5804
▁tour	-11.5805
tum	-11.5809
▁zweimal	-11.581
▁Fett	-11.5814
▁tracking	-11.5814
▁innen	-11.5817
▁aspect	-11.5818
▁Tour	-11.5819
ult	-11.5821
▁upper	-11.5821
dischen	-11.5823
Jemand	-11.5823
▁sides	-11.5827
▁zusätzliche	-11.5829
▁guide	-11.5832
▁confidence	-11.5833
▁umher	-11.5833
▁sowas	-11.5834
▁roads	-11.5837
Zur	-11.5837
▁starben	-11.5839
▁Süd	-11.584
▁Rock	-11.5841
▁weltweiten	-11.5843
▁myth	-11.5845
▁Trick	-11.5849
▁Pla	-11.5851
▁Fernseh	-11.5853
▁Vorstellungen	-11.5853
▁explanation	-11.5858
▁Verhaltens	-11.586
▁drücken	-11.5863
tritt	-11.5865
▁Sha	-11.5871
bed	-11.5876
▁attacks	-11.5876
ically	-11.5879
▁Ereignis	-11.5883
▁Geräusche	-11.5884
▁Weisheit	-11.5885
▁verschwunden	-11.5885
Before	-11.5885
▁boring	-11.5885
▁Grippe	-11.5885
▁teilweise	-11.5886
▁proteins	-11.5888
▁29	-11.589
▁unterrichten	-11.5891
▁ausgesetzt	-11.5892
▁Sichtweise	-11.5892
▁Erlebnis	-11.5893
ender	-11.5899
▁voneinander	-11.59
▁wundervolle	-11.5902
▁Ohren	-11.5908
▁kalt	-11.5912
▁Analyse	-11.5913
tzt	-11.5914
▁violent	-11.5915
▁basierend	-11.5918
level	-11.5918
▁Stücke	-11.5918
▁studiert	-11.592
▁Jesus	-11.5923
▁reisen	-11.5923
typ	-11.5926
▁odd	-11.5927
▁trafen	-11.5936
▁Ni	-11.594
ände	-11.5942
▁Aussage	-11.5947
▁chose	-11.5947
▁election	-11.5951
▁monkey	-11.5951
▁outcome	-11.5951
▁verstand	-11.5951
▁sensitive	-11.5952
▁tea	-11.5953
▁Schuhe	-11.5955
▁Instrumente	-11.5956
▁schwarzen	-11.596
▁trans	-11.5961
life	-11.5963
▁Geschäfts	-11.5966
ov	-11.5966
burg	-11.5966
▁achten	-11.5968
▁Konsum	-11.5973
Number	-11.5976
Unfortunately	-11.5976
▁Bronx	-11.5976
▁Erfinder	-11.5976
▁Zweifel	-11.5976
▁beispielsweise	-11.5976
▁contrast	-11.5976
▁providing	-11.5976
▁trinken	-11.5976
▁autism	-11.5976
▁stretch	-11.5976
▁Sonnenlicht	-11.5976
▁balloon	-11.5976
▁stoppen	-11.5976
▁unknown	-11.5976
▁Asien	-11.5976
▁Lachen	-11.5979
▁hinauf	-11.5979
▁cents	-11.5979
▁Fach	-11.598
▁betreiben	-11.598
üb	-11.5982
▁overall	-11.5982
▁landen	-11.5982
▁offenen	-11.5985
War	-11.5986
▁versch	-11.5986
▁Verwendung	-11.5987
▁transformed	-11.5987
▁lo	-11.5988
▁flower	-11.5989
▁writer	-11.5991
▁Budget	-11.5992
▁Fe	-11.5993
▁Spielzeug	-11.5995
▁weltweite	-11.5995
▁license	-11.5996
▁closely	-11.5998
▁Afrikas	-11.6
▁implications	-11.6
▁Arme	-11.6001
sfähigkeit	-11.6001
▁Serie	-11.6005
▁Alexander	-11.6006
▁Schrift	-11.6006
▁gelangt	-11.6008
stellt	-11.6009
▁Aufnahmen	-11.6009
gruppe	-11.6012
sondern	-11.6012
▁tests	-11.6017
▁evening	-11.602
▁defined	-11.6022
▁aktuelle	-11.6025
rung	-11.6027
▁gesammelt	-11.6028
▁ernsthaft	-11.6031
▁tax	-11.6035
ek	-11.6035
griff	-11.6036
▁Kindes	-11.6036
▁root	-11.6037
▁weißen	-11.6038
▁Eier	-11.6039
▁desk	-11.6039
▁behavioral	-11.6042
▁error	-11.6043
▁Mike	-11.6046
▁teilt	-11.6046
sort	-11.6046
▁Noten	-11.6051
▁Schnitt	-11.6055
problem	-11.6055
▁flip	-11.6055
▁Magie	-11.6058
▁amounts	-11.6058
▁schlug	-11.606
▁accurate	-11.6064
volle	-11.6064
unt	-11.6065
▁unge	-11.6066
▁Mandela	-11.6067
▁genügend	-11.6067
▁milk	-11.6067
▁Square	-11.6067
▁neural	-11.6067
▁knapp	-11.6068
▁enthalten	-11.6068
▁lifestyle	-11.6069
▁journalist	-11.607
▁surrounded	-11.607
▁Haar	-11.6072
▁schwere	-11.6075
▁Elefanten	-11.6077
▁beenden	-11.608
▁circumstances	-11.6087
Etwas	-11.6091
▁Minister	-11.6091
▁keeps	-11.6091
▁Nachhaltigkeit	-11.6093
▁fund	-11.6103
▁verfolgt	-11.6105
ual	-11.6107
▁Mar	-11.6108
schauen	-11.6114
▁existing	-11.6115
wi	-11.6115
▁erhöht	-11.6119
Kinder	-11.6119
▁options	-11.6122
▁robotic	-11.6126
▁mode	-11.6132
▁determine	-11.6133
losen	-11.6134
▁technique	-11.6137
▁transplant	-11.6141
▁partners	-11.6148
▁Bas	-11.6148
▁profit	-11.6151
Ent	-11.6153
▁II	-11.6154
▁erkannt	-11.6155
▁Pe	-11.6155
▁suchte	-11.6157
▁films	-11.6159
▁begegnen	-11.616
▁betroffen	-11.616
▁heaven	-11.616
▁housing	-11.616
▁secure	-11.616
▁bekämpfen	-11.616
▁wisst	-11.616
▁vital	-11.616
▁exakt	-11.616
▁wireless	-11.616
▁tonight	-11.616
▁Strand	-11.6161
▁authority	-11.6161
▁commitment	-11.6161
▁clothes	-11.6162
▁heilen	-11.6162
▁exhibition	-11.6163
▁border	-11.6163
▁2050	-11.6163
▁Schuld	-11.6164
▁Abfall	-11.6165
▁Jahrzehnte	-11.6165
foot	-11.6166
▁Führer	-11.617
führung	-11.6171
▁Kapitel	-11.6172
▁Protein	-11.6173
▁Verbreitung	-11.6177
heim	-11.6177
▁stayed	-11.6181
▁Chancen	-11.6182
▁explained	-11.6183
Machen	-11.6184
▁infected	-11.6184
▁logic	-11.6186
▁ok	-11.6188
▁Humor	-11.6189
▁Status	-11.6189
▁Kampagne	-11.6192
▁tested	-11.6197
▁schreibt	-11.6199
▁operation	-11.62
AIDS	-11.6201
Paul	-11.6202
▁tall	-11.6207
▁bizarre	-11.6207
▁po	-11.6211
▁lebe	-11.6213
▁claim	-11.6214
ograph	-11.6216
ake	-11.6218
▁hielten	-11.6219
▁grünen	-11.622
▁conversations	-11.6222
▁Regionen	-11.6223
▁Steven	-11.6226
▁refer	-11.6229
▁Detail	-11.6231
▁Bang	-11.6233
▁Kr	-11.6235
▁ring	-11.6235
▁entrepreneurs	-11.6238
▁Jugend	-11.624
ily	-11.624
wer	-11.6247
▁Wohn	-11.6252
▁truck	-11.6253
▁court	-11.6253
▁Gulf	-11.6253
▁trigger	-11.6253
▁kaputt	-11.6253
▁Frankreich	-11.6254
▁capitalism	-11.6254
▁regime	-11.6254
▁interactive	-11.6255
▁Sam	-11.6255
▁klinische	-11.6255
▁organisieren	-11.6255
▁Denkweise	-11.6255
▁minister	-11.6258
▁verglichen	-11.6259
▁Schaden	-11.6259
▁fo	-11.6262
wechsel	-11.6262
▁solange	-11.6271
▁gekauft	-11.6271
▁applications	-11.6271
▁Benjamin	-11.6273
ase	-11.6275
▁wirken	-11.6277
▁Restaurant	-11.6278
▁infiziert	-11.6282
▁harte	-11.6285
▁subjects	-11.6285
▁measured	-11.6285
▁Paar	-11.629
film	-11.6293
▁nannten	-11.6298
▁hörten	-11.6298
law	-11.6299
▁Quellen	-11.6299
macht	-11.63
▁wheel	-11.6301
▁remains	-11.6304
▁Zell	-11.6306
▁attempt	-11.631
▁kreativen	-11.6312
woher	-11.6315
▁Ke	-11.6316
pen	-11.6318
▁Räume	-11.6319
▁curve	-11.632
▁Brief	-11.632
linie	-11.6321
▁antwortete	-11.6325
▁eng	-11.6326
▁plate	-11.6326
▁shock	-11.6333
▁evolve	-11.6338
▁Staats	-11.6341
▁Geistes	-11.6344
▁englische	-11.6345
Könnte	-11.6347
▁zufrieden	-11.6347
▁Futter	-11.6348
▁Gemüse	-11.6348
▁Teufel	-11.6348
▁flew	-11.6348
▁gerettet	-11.6348
▁horrible	-11.6348
▁neugierig	-11.6348
▁regret	-11.6348
▁vorsichtig	-11.6348
▁mystery	-11.6348
▁Zerstörung	-11.6348
▁Herstellung	-11.6348
▁gestaltet	-11.6348
▁nowhere	-11.6348
nicht	-11.6349
▁Witz	-11.6351
▁Viele	-11.6351
▁bewirken	-11.6354
▁busy	-11.6354
rett	-11.6358
▁pink	-11.6361
teile	-11.6364
▁Männchen	-11.637
▁jail	-11.637
▁europäische	-11.6371
▁blog	-11.6372
bas	-11.6375
▁hängen	-11.6378
▁Tiefe	-11.6381
Car	-11.6383
▁symptoms	-11.6383
▁Erd	-11.6385
▁Bis	-11.6385
Al	-11.6391
▁mark	-11.6393
▁ruhig	-11.6393
▁command	-11.6393
▁höchsten	-11.6395
▁William	-11.6398
Erst	-11.6399
stab	-11.6399
▁plans	-11.6402
▁Brian	-11.6405
ible	-11.6406
zusammenarbeiten	-11.6407
gemacht	-11.6408
▁Groß	-11.6411
▁Entfernung	-11.6413
▁relate	-11.6414
▁Schicht	-11.6414
fache	-11.6415
▁heutige	-11.6415
▁derselben	-11.6415
sel	-11.6416
Sh	-11.6425
▁gründen	-11.6427
▁sensors	-11.6428
▁Bericht	-11.6428
haben	-11.6429
▁Märkte	-11.643
▁Ob	-11.643
sätze	-11.644
▁songs	-11.6441
▁42	-11.6442
politik	-11.6443
▁Who	-11.6443
▁Blätter	-11.6443
▁Christmas	-11.6443
▁challenging	-11.6443
▁genius	-11.6443
▁laboratory	-11.6443
▁nachgedacht	-11.6443
▁thumb	-11.6443
▁angry	-11.6443
▁plot	-11.6446
▁Kongo	-11.6446
▁Schlag	-11.6448
▁mittels	-11.6448
▁Krieges	-11.6452
▁Silicon	-11.6454
▁Ki	-11.6454
team	-11.6454
▁grain	-11.6456
▁joined	-11.6458
▁dumm	-11.6459
▁ears	-11.6459
▁pan	-11.6459
▁whales	-11.6462
person	-11.6465
▁nachts	-11.6466
fish	-11.6466
▁55	-11.6472
▁limits	-11.6473
eur	-11.6475
▁schreckliche	-11.6481
▁Leiter	-11.6481
Wäre	-11.6483
▁figures	-11.6484
▁Solar	-11.6489
Projekt	-11.6492
Drei	-11.6493
▁komplizierte	-11.6494
geschwindigkeit	-11.6494
hour	-11.6496
▁Cor	-11.6507
▁disappear	-11.6511
▁economists	-11.6513
▁origin	-11.6514
öl	-11.6515
▁whale	-11.652
gibt	-11.6521
Ach	-11.6523
▁Blue	-11.6524
▁divide	-11.6529
▁contribute	-11.653
▁physische	-11.6533
▁stone	-11.6534
▁abuse	-11.6534
▁mechanical	-11.6536
▁severe	-11.6536
▁villages	-11.6538
▁educational	-11.6539
▁nervös	-11.6539
▁Schnee	-11.6539
Basically	-11.6539
▁weshalb	-11.6539
Nothing	-11.6541
▁monitor	-11.6542
py	-11.6542
je	-11.6543
▁lying	-11.6547
▁protest	-11.655
▁vergangenen	-11.6552
▁Gandhi	-11.6552
▁Wolken	-11.6554
▁wiederholen	-11.6555
▁teil	-11.6555
▁Egypt	-11.6557
▁linked	-11.6557
▁feeding	-11.6562
tell	-11.6566
▁wherever	-11.6575
▁architects	-11.6577
▁Box	-11.6577
▁Mode	-11.658
▁classic	-11.6587
▁Versuche	-11.6589
▁patent	-11.6592
▁ear	-11.6592
▁ko	-11.6598
▁Erwachsene	-11.66
▁brave	-11.6601
schrift	-11.6601
▁samples	-11.6607
▁Fünf	-11.6608
rus	-11.6611
▁cartoon	-11.6611
▁bemerkenswerte	-11.6612
15	-11.6612
▁application	-11.6617
ute	-11.6619
▁intelligente	-11.662
▁pig	-11.6621
▁pool	-11.6624
▁Sternen	-11.6628
lung	-11.6629
▁encounter	-11.663
▁Tr	-11.663
▁Nerven	-11.6635
Remember	-11.6636
▁aufgeregt	-11.6636
▁insbesondere	-11.6636
▁versorgen	-11.6636
▁veröffentlichen	-11.6636
▁dancing	-11.6636
▁engaging	-11.6636
▁footprint	-11.6636
▁gentlemen	-11.6636
▁besessen	-11.6636
▁erfüllt	-11.6636
▁greenhouse	-11.6637
▁Kuh	-11.6638
▁poorest	-11.6638
▁genießen	-11.6638
▁bones	-11.6639
▁unteren	-11.6639
▁wünschte	-11.6642
▁rapid	-11.6642
▁Heimat	-11.6643
▁100.000	-11.6643
▁nachhaltige	-11.6644
▁Erwartungen	-11.6644
▁latest	-11.6645
fan	-11.6651
▁rely	-11.6651
alen	-11.6652
▁nor	-11.6654
artige	-11.6654
rang	-11.6658
▁pollen	-11.6659
▁Leiden	-11.6662
▁dient	-11.6667
Up	-11.6668
▁Live	-11.6673
▁favor	-11.6673
▁provided	-11.6676
▁laser	-11.6678
▁Entdeckungen	-11.6683
uff	-11.6685
▁lebende	-11.6693
▁instruments	-11.6695
▁beach	-11.6711
tier	-11.6717
▁Space	-11.6719
▁faced	-11.6722
▁Latin	-11.6723
ame	-11.6727
▁Vietnam	-11.6733
bezüglich	-11.6733
▁bedroht	-11.6734
▁economies	-11.6734
▁identical	-11.6734
▁session	-11.6734
▁verliert	-11.6734
▁Brooklyn	-11.6734
▁minimal	-11.6734
▁unlike	-11.6734
▁Kleidung	-11.6734
▁Verfahren	-11.6735
▁dive	-11.6737
▁orbit	-11.6737
▁Afrikaner	-11.6738
▁spüren	-11.6739
▁floating	-11.674
▁chip	-11.674
▁Autor	-11.674
▁bestand	-11.674
▁disorders	-11.674
netz	-11.6741
▁Zeitraum	-11.6742
▁infinite	-11.6744
not	-11.6745
▁ergeben	-11.6747
ji	-11.6748
▁anger	-11.6749
▁Abraham	-11.675
▁fold	-11.6753
▁classes	-11.6753
▁wondered	-11.6754
▁database	-11.676
▁transfer	-11.6762
▁flowers	-11.6764
isches	-11.6767
▁Metall	-11.6768
▁Handys	-11.677
auch	-11.6771
bie	-11.6777
glücklicherweise	-11.6779
▁gewisser	-11.6783
wasser	-11.6785
grad	-11.6789
▁wenigstens	-11.6791
gesch	-11.6797
▁Würde	-11.6799
▁sozial	-11.68
my	-11.6801
▁betrieben	-11.6802
▁Belohnung	-11.6804
▁Fläche	-11.6805
▁Dimensionen	-11.6805
▁Student	-11.6807
▁senses	-11.6808
▁Angriff	-11.6809
▁concern	-11.681
▁fingers	-11.681
genommen	-11.6811
ony	-11.6812
don	-11.6812
▁einfaches	-11.6814
▁judge	-11.6815
▁prototype	-11.6816
▁vaccine	-11.6816
▁surgeon	-11.6816
▁deaths	-11.6816
schau	-11.6822
▁glaubten	-11.6823
▁cow	-11.6825
▁convert	-11.6827
«	-11.6832
▁library	-11.6833
▁domestic	-11.6833
▁extent	-11.6833
▁Psychologie	-11.6833
▁verursachen	-11.6833
▁kreiert	-11.6833
▁Algorithmen	-11.6833
▁causing	-11.6833
▁lehren	-11.6834
▁fan	-11.6834
▁Ära	-11.6834
▁Nobel	-11.6834
Everyone	-11.6835
▁Faktor	-11.6838
eten	-11.684
▁dankbar	-11.6841
▁funding	-11.6844
▁letzter	-11.6846
▁army	-11.6847
▁eingeladen	-11.6847
▁Lincoln	-11.6847
▁fixed	-11.6849
▁Shanghai	-11.6849
▁umzugehen	-11.685
▁Anruf	-11.685
▁dozen	-11.685
▁Welten	-11.6851
▁dense	-11.6853
▁boxes	-11.6856
▁pushing	-11.6856
▁br	-11.6857
▁Argument	-11.6868
▁berichtet	-11.6872
sprache	-11.6874
▁Wieder	-11.6875
▁folgenden	-11.6876
pla	-11.6879
rot	-11.688
▁Geschäfte	-11.6881
▁lebenden	-11.6884
uss	-11.6885
▁Proteine	-11.6888
▁solving	-11.6889
▁shake	-11.6891
▁trat	-11.6897
▁tech	-11.6898
▁Konflikte	-11.6898
▁sexuelle	-11.6899
bewegung	-11.6904
▁grundlegenden	-11.6911
uß	-11.6913
▁Gebäuden	-11.6918
▁destroy	-11.6918
well	-11.6919
▁bra	-11.692
Other	-11.692
ät	-11.6921
▁Blog	-11.6921
▁standards	-11.6922
▁prefer	-11.6922
▁jung	-11.6923
▁invite	-11.6924
▁verschieden	-11.6926
▁dress	-11.6927
▁Ingenieur	-11.6927
0,000	-11.6928
▁wunderbaren	-11.6931
▁careful	-11.6932
▁kognitive	-11.6932
▁shall	-11.6933
▁Lebenserwartung	-11.6933
▁Motivation	-11.6933
▁corporate	-11.6933
▁konfrontiert	-11.6933
▁narrow	-11.6933
▁policies	-11.6933
▁silent	-11.6933
▁Wärme	-11.6933
▁Ungleichheit	-11.6933
▁Carolina	-11.6933
▁Sektor	-11.6933
▁inequality	-11.6933
▁1998	-11.6933
▁selection	-11.6934
▁hinterlassen	-11.6934
▁wahrnehmen	-11.6934
▁Aufbau	-11.6935
▁corals	-11.6936
▁spinal	-11.6936
but	-11.6937
bank	-11.6939
rich	-11.6939
ahn	-11.694
▁klassische	-11.694
erin	-11.6942
▁worauf	-11.6946
▁voran	-11.6947
▁breathing	-11.6947
MS	-11.6947
▁sets	-11.6949
▁Where	-11.6949
▁Schweden	-11.6949
▁Fahrer	-11.6952
▁parking	-11.6954
▁promote	-11.6963
▁cast	-11.6969
▁winzig	-11.697
▁Computern	-11.6977
▁Rob	-11.698
▁eigentliche	-11.6982
▁Ski	-11.6983
▁zone	-11.6986
bb	-11.6987
▁folgendes	-11.6988
AT	-11.6991
▁sc	-11.6993
Will	-11.6998
▁Mary	-11.7
▁contain	-11.7
AM	-11.7002
seite	-11.7003
▁36	-11.7008
▁Einzel	-11.7008
aktion	-11.7011
▁Genau	-11.7015
▁trug	-11.7015
▁organism	-11.7016
▁kreativ	-11.7016
▁clinic	-11.7017
▁equation	-11.7019
40	-11.7023
▁neutral	-11.7024
▁schwimmen	-11.7026
lte	-11.7026
press	-11.7034
▁spiritual	-11.7034
Heutzutage	-11.7034
▁Detroit	-11.7034
▁Klavier	-11.7034
▁earthquake	-11.7034
▁measuring	-11.7034
▁romantic	-11.7034
▁hinzufügen	-11.7034
MT	-11.7034
Trotzdem	-11.7035
▁frankly	-11.7035
▁scan	-11.7035
▁unterwegs	-11.7035
▁Erste	-11.7036
▁Eins	-11.7037
▁erfassen	-11.7038
nnerhalb	-11.7039
erfolg	-11.704
▁2002	-11.7041
▁schauten	-11.7042
▁brach	-11.7047
fällt	-11.705
Ka	-11.7051
▁drinking	-11.7051
▁younger	-11.7051
▁obsessed	-11.7054
▁practices	-11.7057
▁Population	-11.7058
▁grundlegend	-11.7059
reise	-11.7061
▁illusion	-11.7067
▁painful	-11.7068
▁papers	-11.7069
▁angeht	-11.7073
▁theme	-11.7073
▁route	-11.7075
ola	-11.7085
▁Schmerzen	-11.7086
▁tip	-11.7092
gh	-11.7094
American	-11.7096
bot	-11.7104
▁document	-11.7106
schule	-11.7107
Fast	-11.7108
geführt	-11.7109
▁Dienst	-11.711
class	-11.7111
lauf	-11.7111
▁dienen	-11.7112
zer	-11.7113
set	-11.7113
▁Steuer	-11.7114
can	-11.7118
▁Mathematiker	-11.7118
▁channel	-11.7122
▁neighbor	-11.7123
▁mach	-11.7124
▁loud	-11.7125
▁rocks	-11.713
▁mad	-11.7133
wagen	-11.7134
größe	-11.7135
▁brutal	-11.7136
▁Euro	-11.7136
▁Versorgung	-11.7136
▁Beijing	-11.7136
▁Symptome	-11.7136
▁chocolate	-11.7136
▁diagram	-11.7136
▁recognition	-11.7136
▁geschützt	-11.7136
▁philosophy	-11.7136
▁overcome	-11.7136
▁shelter	-11.7136
▁struck	-11.7137
▁interactions	-11.7137
▁gray	-11.7137
▁fluid	-11.7137
▁Nano	-11.7137
▁Aufstieg	-11.7137
züge	-11.7138
Finally	-11.7138
bahn	-11.7141
▁begreifen	-11.7147
Erinnern	-11.7148
▁clouds	-11.7149
▁conventional	-11.7153
▁Ägypten	-11.7155
▁Pollen	-11.7156
▁Sub	-11.7159
▁agreed	-11.7159
stelle	-11.7161
▁2.	-11.7162
Thanks	-11.7163
roll	-11.7164
▁tag	-11.7164
▁Last	-11.7166
▁Faktoren	-11.7166
▁unver	-11.7167
called	-11.7167
▁raw	-11.7172
▁continued	-11.7172
▁acts	-11.7172
Really	-11.7173
▁mice	-11.7182
tik	-11.7183
▁mammals	-11.7184
projekt	-11.7184
▁Marke	-11.7185
▁öffnet	-11.7186
▁grass	-11.7188
▁Nur	-11.7193
▁dauern	-11.7194
▁Tor	-11.7197
▁Meine	-11.72
▁ursprünglich	-11.7201
▁algorithm	-11.7201
▁Sonnen	-11.7204
▁Pre	-11.7205
sprozess	-11.7206
▁x	-11.7208
18	-11.7209
▁Nick	-11.7213
▁Kurve	-11.7215
▁Marken	-11.7216
▁Reaktionen	-11.7218
▁erklärte	-11.7222
▁Muslims	-11.7222
▁component	-11.7227
med	-11.7227
▁jährlich	-11.7229
▁harvest	-11.723
▁gezogen	-11.7234
▁heiß	-11.7235
lam	-11.7235
▁tank	-11.7236
hoo	-11.7239
Plötzlich	-11.7239
▁Clinton	-11.7239
▁Erdbeben	-11.7239
▁Parkinson	-11.7239
▁musikalische	-11.7239
▁polio	-11.7239
▁carried	-11.7239
▁automatically	-11.7239
▁Hitze	-11.7239
▁agenda	-11.724
▁cooperation	-11.724
▁Chile	-11.7241
▁1.000	-11.7241
▁2020	-11.7242
▁wovon	-11.7242
▁distributed	-11.7244
ständig	-11.7244
Come	-11.7246
▁Leber	-11.725
▁rooms	-11.725
▁Gipfel	-11.7251
▁offered	-11.7251
ail	-11.7251
▁optimistisch	-11.7251
▁Toten	-11.7253
▁printing	-11.7253
Immer	-11.7254
▁saubere	-11.7257
▁9/11	-11.7259
▁existed	-11.726
▁Änderungen	-11.7264
80	-11.7265
▁connecting	-11.7266
▁eingeführt	-11.7267
erung	-11.7267
▁monkeys	-11.7268
hood	-11.7269
app	-11.7269
▁walks	-11.7269
▁lung	-11.7272
▁Regierungs	-11.7274
▁offers	-11.7275
gelegt	-11.7276
ign	-11.7279
▁optimistic	-11.7281
Technologie	-11.7285
tau	-11.7293
schicht	-11.7294
▁Male	-11.7295
▁niemanden	-11.7295
▁penguins	-11.7296
▁Fahrzeug	-11.73
▁consumers	-11.7304
▁shell	-11.7306
▁Kriegs	-11.7309
▁Laufen	-11.7311
dollar	-11.7313
Richard	-11.7313
figur	-11.7313
▁Amy	-11.7315
zieht	-11.7319
▁Business	-11.7323
▁crack	-11.7327
▁Werbe	-11.7328
▁sculpture	-11.7331
▁toilet	-11.7332
▁winzige	-11.7332
▁performing	-11.7333
▁inspire	-11.7334
▁tube	-11.7335
▁Teilnehmer	-11.7337
tail	-11.7338
▁Gesamt	-11.7338
▁attract	-11.7341
▁Rose	-11.7343
ieg	-11.7344
▁Anstieg	-11.7344
▁DVD	-11.7344
▁Fantasie	-11.7344
▁defense	-11.7344
▁ernähren	-11.7344
▁irgendwelche	-11.7344
▁obesity	-11.7344
▁sweat	-11.7344
▁resistance	-11.7344
▁finanziert	-11.7344
▁Geographic	-11.7344
▁plug	-11.7344
▁Verlauf	-11.7344
▁spill	-11.7345
▁bold	-11.7345
▁Weltbevölkerung	-11.7345
▁Lo	-11.7347
▁Meere	-11.7347
▁Saal	-11.7348
ille	-11.7351
▁ignore	-11.7352
▁mainly	-11.7355
▁shooting	-11.7357
▁Medica	-11.7357
▁ausgeben	-11.7358
kan	-11.7358
▁befreien	-11.7359
▁Fund	-11.7359
▁Watson	-11.736
vers	-11.7361
▁bedeutete	-11.7369
▁Delhi	-11.7371
▁Treffen	-11.7371
▁Richtungen	-11.7374
▁spreading	-11.7376
▁raising	-11.7378
▁Frei	-11.7381
▁Gegenden	-11.7383
▁springen	-11.7386
▁magnetic	-11.7387
▁komplex	-11.7391
▁Henry	-11.7394
räumen	-11.7396
▁Ku	-11.7398
▁zukünftige	-11.7402
▁log	-11.7403
▁rum	-11.7407
▁Ganzen	-11.741
uk	-11.7414
▁windows	-11.7415
▁Bedrohung	-11.742
▁Szene	-11.742
Mark	-11.7421
cus	-11.7422
▁verb	-11.7423
▁wach	-11.7434
▁habitat	-11.7434
▁Theorien	-11.7435
▁liebte	-11.7438
▁elephant	-11.7438
▁particle	-11.7439
▁escape	-11.7439
▁placed	-11.7439
▁Verb	-11.744
▁besuchte	-11.7441
▁Richtige	-11.7443
▁intuitive	-11.7443
wachsen	-11.7445
▁berühren	-11.7449
▁crucial	-11.7449
▁exploring	-11.7449
▁surveillance	-11.7449
▁Berlin	-11.7449
▁ceiling	-11.7449
▁zurückkehren	-11.7449
▁awesome	-11.7449
▁Entwurf	-11.7449
▁Dunkelheit	-11.7449
▁Brustkrebs	-11.7449
▁County	-11.7449
▁erfüllen	-11.7449
▁Bibel	-11.7449
▁seht	-11.7449
▁dramatically	-11.7449
▁Wichtigste	-11.7449
Normalerweise	-11.7449
▁rufen	-11.745
erte	-11.7451
▁Mangel	-11.7451
▁2030	-11.7451
▁beigebracht	-11.7454
▁pretend	-11.7454
▁anpassen	-11.7457
▁Antibiotika	-11.7458
▁schw	-11.7458
▁cash	-11.746
▁jegliche	-11.746
▁grandfather	-11.7461
▁represented	-11.7462
ush	-11.7464
▁seed	-11.7465
▁BIP	-11.7471
▁dunkel	-11.7474
▁Vagina	-11.7474
▁Bi	-11.7474
▁Dutzend	-11.7475
▁limb	-11.7475
▁Atom	-11.7476
▁innere	-11.7477
▁outcomes	-11.7478
▁nationale	-11.7482
▁Russian	-11.7483
▁Gute	-11.749
▁Gebrauch	-11.7493
▁Nelson	-11.7502
▁arguments	-11.7504
▁Lee	-11.7506
ou	-11.7511
▁Kameras	-11.7514
▁increases	-11.7515
▁besucht	-11.7519
▁beeindruckend	-11.752
räume	-11.7521
Any	-11.7523
▁tuna	-11.7525
gal	-11.7526
▁Eigenschaft	-11.7527
Kurz	-11.7528
▁enden	-11.7531
▁verschiedener	-11.7536
▁spa	-11.7537
▁consume	-11.7537
▁Stiftung	-11.7537
ward	-11.7538
▁Bell	-11.7541
▁criminal	-11.7545
▁drill	-11.7546
▁Organe	-11.7546
▁Flagge	-11.7547
▁Alters	-11.7547
▁Ingenieure	-11.7548
haltung	-11.7549
▁extinct	-11.7551
▁thick	-11.7555
▁enemy	-11.7555
▁November	-11.7555
▁microscope	-11.7555
▁Italien	-11.7555
▁Rwanda	-11.7555
▁reduction	-11.7555
▁Congo	-11.7556
▁hardware	-11.7556
▁fascinated	-11.7556
▁Stone	-11.7556
▁wertvoll	-11.7557
▁properly	-11.7558
tür	-11.7558
iff	-11.7558
▁wise	-11.7559
▁urge	-11.756
▁Feind	-11.756
▁ländlichen	-11.7561
oder	-11.7563
▁Newton	-11.7563
▁vorhin	-11.7565
▁verrückte	-11.7566
▁blau	-11.7571
▁Inneren	-11.7571
▁Chinesen	-11.7576
▁antibiotics	-11.758
▁borders	-11.7582
▁presented	-11.7583
stern	-11.7585
▁Wahlen	-11.7586
Design	-11.7588
▁mate	-11.7591
▁expectations	-11.7593
▁Mai	-11.7593
rren	-11.7596
▁rescue	-11.7597
▁al	-11.7603
▁traditionelle	-11.7607
▁cm	-11.7607
▁grün	-11.7608
Lasst	-11.7611
▁rat	-11.7612
hing	-11.7615
▁Ei	-11.7616
▁Stamm	-11.7616
▁moralischen	-11.7619
▁On	-11.762
▁zusätzlich	-11.7622
▁liver	-11.7624
▁gesunden	-11.7632
▁Stift	-11.7633
leistung	-11.7634
▁Verbesserung	-11.7634
▁Schulter	-11.7636
gar	-11.7639
▁starken	-11.7641
▁sport	-11.7642
200	-11.7643
▁react	-11.7645
▁geo	-11.7647
leiter	-11.7648
▁kaufte	-11.7649
▁lecture	-11.7654
▁courage	-11.7662
▁Niveau	-11.7663
▁astonishing	-11.7663
▁plenty	-11.7663
▁indicate	-11.7663
▁neither	-11.7663
▁Gleichgewicht	-11.7663
▁stack	-11.7663
▁bedeckt	-11.7663
▁Verkauf	-11.7663
▁herself	-11.7663
▁vielmehr	-11.7664
▁scary	-11.7665
äre	-11.7665
▁machst	-11.7665
gebracht	-11.7667
▁Statistik	-11.7667
pers	-11.7667
▁leiten	-11.7668
▁PC	-11.7668
▁ausmacht	-11.7674
▁directions	-11.7674
teilen	-11.7676
▁anzusehen	-11.7676
▁Privatsphäre	-11.768
▁traveled	-11.7683
▁rep	-11.7683
unwahrscheinlich	-11.7688
schließen	-11.7688
▁Unternehmens	-11.7689
strom	-11.7692
▁Presse	-11.7694
Reg	-11.7694
▁pitch	-11.7695
ami	-11.7696
▁Projekten	-11.7696
▁immune	-11.7698
freien	-11.7698
▁Leonardo	-11.7699
icht	-11.7699
ini	-11.77
▁Kl	-11.7701
10	-11.7703
Uns	-11.7704
▁Erkenntnisse	-11.7706
▁Level	-11.7707
▁technischen	-11.7708
▁pet	-11.7711
▁besonderen	-11.7711
zo	-11.7713
bildung	-11.7713
▁Funktionen	-11.7717
▁westliche	-11.7718
Abou	-11.7721
▁brief	-11.7722
kreis	-11.7723
▁involves	-11.7723
▁2:	-11.7724
▁mathematische	-11.773
▁grossen	-11.7731
▁tiefe	-11.7732
▁vessels	-11.7733
▁inspirieren	-11.7735
tragen	-11.774
eign	-11.7741
▁Nachbarschaft	-11.7742
▁Zähne	-11.7743
▁Dame	-11.7744
▁kritische	-11.7748
mine	-11.7749
Give	-11.7751
▁schlägt	-11.7752
▁extend	-11.7756
▁broad	-11.7756
▁gründete	-11.7758
▁planen	-11.7759
▁Hey	-11.7759
▁wiederholt	-11.7762
wort	-11.7762
▁pocket	-11.7764
▁disorder	-11.7765
▁bend	-11.7766
▁bet	-11.7767
▁intense	-11.7768
urf	-11.777
▁Angebot	-11.7771
▁Geschmack	-11.7771
▁emergency	-11.7771
▁furniture	-11.7771
▁gestartet	-11.7771
▁orchestra	-11.7771
▁Medium	-11.7771
▁distant	-11.7771
kunst	-11.7771
▁MRI	-11.7772
▁productivity	-11.7772
▁concert	-11.7772
▁rising	-11.7772
▁Vorschlag	-11.7772
hang	-11.7773
▁elite	-11.7773
▁precisely	-11.7774
▁Islamic	-11.7774
▁January	-11.7775
▁controlling	-11.7775
ziel	-11.7775
▁beendet	-11.7776
▁beitragen	-11.7776
▁neigen	-11.7776
▁Teams	-11.7777
▁unsichtbar	-11.7777
steht	-11.7777
▁destroyed	-11.7778
essen	-11.7778
▁Führungs	-11.7779
▁savings	-11.7779
▁allgemein	-11.7781
▁Stephen	-11.7784
▁sexy	-11.7785
▁Dialog	-11.7789
▁Gespräche	-11.7789
▁brothers	-11.7791
▁oberen	-11.7791
spielen	-11.7792
▁Investitionen	-11.7795
▁paintings	-11.7801
gestellt	-11.7804
Dan	-11.7804
Tell	-11.781
▁30-	-11.7811
wind	-11.7812
raten	-11.7814
lac	-11.7815
▁Leid	-11.7817
▁ethical	-11.7818
▁wieviel	-11.7818
▁Schweine	-11.7821
▁spoken	-11.7822
▁June	-11.7822
▁Den	-11.7825
▁Preise	-11.7829
▁technische	-11.783
▁klug	-11.7832
▁sales	-11.7833
▁31	-11.7834
▁cute	-11.7834
gekommen	-11.7837
gebiet	-11.784
▁review	-11.7844
für	-11.7845
olds	-11.7848
allowing	-11.7854
kurs	-11.786
Mails	-11.7861
century	-11.7863
▁37	-11.7863
▁Stil	-11.7864
▁designs	-11.7867
Test	-11.7868
▁bill	-11.7868
▁Andrew	-11.7869
▁Wach	-11.787
▁Trend	-11.7872
▁fruit	-11.7874
▁Widerstand	-11.7875
▁download	-11.7876
scha	-11.7878
▁Batterie	-11.7879
opt	-11.788
▁Haare	-11.7881
▁Sweden	-11.7881
▁ausgewählt	-11.7881
▁curiosity	-11.7881
▁diabetes	-11.7881
▁drove	-11.7881
▁Weibchen	-11.7881
Next	-11.7881
▁adventure	-11.7881
▁fliegt	-11.7881
▁gezwungen	-11.7881
▁naja	-11.7882
▁accessible	-11.7882
▁chest	-11.7882
▁Spektrum	-11.7884
▁engagement	-11.7884
▁till	-11.7884
▁recovery	-11.7884
▁brechen	-11.7885
▁Höhepunkt	-11.7885
▁golf	-11.7885
▁Beton	-11.7885
▁usual	-11.7885
▁personality	-11.7886
▁tries	-11.7887
that	-11.7889
design	-11.789
▁blame	-11.789
▁entered	-11.7892
▁Jane	-11.7893
▁350	-11.7895
ira	-11.7895
▁laughing	-11.7896
▁Daniel	-11.7896
▁angehen	-11.7897
▁rechte	-11.7897
▁Atlantic	-11.7899
▁Gletscher	-11.7899
teressanterweise	-11.79
Hinter	-11.79
▁stroke	-11.7902
▁Polio	-11.7902
▁inspiring	-11.7906
▁Umständen	-11.7907
▁Kapitalismus	-11.7908
▁vierte	-11.7909
▁kleinere	-11.7909
▁soweit	-11.7911
▁Achse	-11.7912
▁afrikanische	-11.7914
▁interessanten	-11.7915
▁Nahrungs	-11.7916
preis	-11.7917
esten	-11.792
too	-11.7921
▁breaking	-11.7922
blick	-11.7922
▁Können	-11.7929
trieb	-11.7939
▁biologischen	-11.794
▁Prozesse	-11.7941
100	-11.7941
▁atmen	-11.7941
▁winzigen	-11.7943
produkt	-11.7944
▁Wachstums	-11.7947
zeug	-11.7948
▁teams	-11.7951
▁Haie	-11.7952
▁zurückgehen	-11.7955
▁drehte	-11.7958
▁functional	-11.7962
▁Systemen	-11.7963
▁gewann	-11.7963
▁Alternative	-11.7965
▁jenen	-11.7966
▁Katze	-11.7967
▁Durchschnitts	-11.7976
eres	-11.7978
Programm	-11.7978
modell	-11.7978
▁sinnvoll	-11.7979
hren	-11.798
▁Training	-11.7986
▁spider	-11.7987
▁Nations	-11.7989
▁Kevin	-11.7989
▁tower	-11.7991
▁description	-11.7992
▁external	-11.7992
▁request	-11.7992
▁öfter	-11.7992
▁entertainment	-11.7993
▁gemessen	-11.7993
▁Umgang	-11.7993
▁colony	-11.7993
▁identifizieren	-11.7994
▁Block	-11.7994
▁Nachfrage	-11.7995
unclear	-11.7995
▁flash	-11.7995
▁attached	-11.7996
▁Neuigkeiten	-11.7996
▁Terroristen	-11.7998
▁Philosophie	-11.7999
Darüber	-11.8
▁heroes	-11.8
pur	-11.8001
▁Betrieb	-11.8001
▁appeared	-11.8003
▁berechnen	-11.8003
▁Ali	-11.8003
▁divided	-11.8003
▁conflicts	-11.8006
▁ausmachen	-11.8006
▁Fest	-11.801
▁Inter	-11.8012
▁Januar	-11.8013
▁Mehr	-11.8013
▁IBM	-11.8014
▁earn	-11.8016
▁Ocean	-11.8016
pul	-11.8018
Q	-11.8018
▁Matt	-11.8022
▁graphic	-11.8024
▁Flächen	-11.8024
▁surely	-11.8027
▁Gedichte	-11.8027
Bill	-11.8029
▁heiße	-11.803
sgeschichte	-11.8032
▁glücklicher	-11.8033
▁worker	-11.8035
▁Rick	-11.8037
pass	-11.804
▁stieg	-11.8052
▁Bier	-11.8052
▁beliebt	-11.8053
▁änderte	-11.8056
▁lovely	-11.8063
▁Verkehr	-11.8063
▁customers	-11.8064
▁reaching	-11.8064
▁muscles	-11.8067
▁Kreuz	-11.8068
▁Summe	-11.8069
▁positiv	-11.8072
▁appears	-11.8072
▁Look	-11.8074
▁prices	-11.8074
▁freie	-11.8074
Mi	-11.8076
▁Partei	-11.8076
▁Ausnahme	-11.8077
▁Sorge	-11.8077
▁schlau	-11.8078
▁Mathe	-11.8081
▁gather	-11.8085
air	-11.8089
▁schnelle	-11.809
▁imagined	-11.8091
Life	-11.8092
New	-11.8093
▁Dichter	-11.8094
▁privilege	-11.8095
▁stands	-11.8096
▁fabric	-11.8097
▁Katastrophe	-11.81
▁pin	-11.8103
zeichen	-11.8104
▁komplexer	-11.8104
▁Autismus	-11.8105
▁Flüssigkeit	-11.8105
▁dazwischen	-11.8105
▁dignity	-11.8105
▁lächerlich	-11.8105
▁scratch	-11.8105
▁suicide	-11.8105
▁committed	-11.8105
▁1999	-11.8105
▁Pause	-11.8105
▁export	-11.8105
▁Vorgang	-11.8106
▁Gegenstände	-11.8106
▁density	-11.8107
▁shoulder	-11.811
▁höchste	-11.8111
▁Ballon	-11.8113
▁peer	-11.8113
Frauen	-11.8116
▁stimmen	-11.8117
▁ersetzt	-11.8118
▁entscheidende	-11.812
▁Speicher	-11.8123
▁eingebaut	-11.8127
▁circuit	-11.8127
▁interacting	-11.8128
▁Stoff	-11.813
▁organisiert	-11.8133
▁gross	-11.8136
▁Shi	-11.8136
pel	-11.8136
treten	-11.8137
▁Diabetes	-11.814
▁mächtig	-11.814
▁End	-11.814
▁efforts	-11.8141
▁concepts	-11.8142
▁mitnehmen	-11.8143
Würden	-11.8146
▁begrenzt	-11.8146
▁dunklen	-11.8149
lle	-11.8151
fahrt	-11.8153
▁radikal	-11.8154
▁gelassen	-11.8155
▁Bu	-11.8155
elt	-11.8165
baren	-11.8166
▁ökonomische	-11.8166
▁thrown	-11.8175
▁comment	-11.8177
60	-11.8178
▁organize	-11.8186
▁males	-11.8186
funktion	-11.8189
▁verlor	-11.819
▁könne	-11.819
▁Handlung	-11.819
star	-11.8194
bett	-11.8194
▁Dieses	-11.8196
▁Pass	-11.8197
▁Mitglieder	-11.82
sitz	-11.8202
führt	-11.8205
▁bekannte	-11.8205
Hallo	-11.8206
ets	-11.8207
▁löst	-11.8212
▁benutze	-11.8212
▁Lass	-11.8213
cle	-11.8213
▁Pole	-11.8214
▁CEO	-11.8216
▁LED	-11.8216
▁colleague	-11.8217
▁apartment	-11.8217
▁grateful	-11.8218
kräfte	-11.8218
▁treiben	-11.8218
▁Ruhe	-11.8218
▁Black	-11.8218
▁embedded	-11.8218
▁korrekt	-11.8218
▁yield	-11.8218
▁Hölle	-11.8218
▁alien	-11.8218
▁reparieren	-11.8218
▁viral	-11.8218
▁adjust	-11.8218
▁stirbt	-11.8218
▁dioxide	-11.8218
▁Einfachheit	-11.8219
▁Logik	-11.8219
▁ugly	-11.8219
▁Hong	-11.8219
▁hindurch	-11.8219
▁pyramid	-11.822
▁Brand	-11.822
▁objective	-11.8221
▁Tony	-11.8223
▁representation	-11.8225
denken	-11.8225
▁virtually	-11.8226
▁Metern	-11.8228
▁Verteidigung	-11.8228
▁Designs	-11.8229
▁demonstration	-11.8229
▁repräsentiert	-11.8231
▁grows	-11.8232
▁Plattform	-11.8233
▁Einrichtungen	-11.8239
▁achieved	-11.8243
▁cheaper	-11.8244
Klar	-11.8244
▁weißt	-11.8249
Kommen	-11.825
ica	-11.826
▁Fa	-11.8263
how	-11.8264
zelle	-11.8266
▁inventor	-11.8269
▁weh	-11.8273
▁populations	-11.8273
▁People	-11.8276
lb	-11.8279
▁bildet	-11.8283
▁units	-11.8286
▁wenden	-11.8289
▁tasks	-11.8296
▁Scott	-11.8298
▁fed	-11.8303
Laut	-11.8304
werfen	-11.8305
▁volunteers	-11.8305
▁Hunderte	-11.8307
▁plays	-11.831
gegeben	-11.8312
▁Schlacht	-11.8313
bin	-11.8313
▁dr	-11.8314
▁corn	-11.8316
▁Werke	-11.8319
▁spell	-11.8319
Mag	-11.832
▁talent	-11.8322
stoß	-11.8323
▁estimate	-11.8323
▁Küche	-11.8323
minute	-11.8325
wood	-11.8327
70	-11.8328
ice	-11.8329
▁ill	-11.833
▁Klinik	-11.8331
▁anstelle	-11.8332
▁Knopf	-11.8333
▁Tragödie	-11.8333
▁analysieren	-11.8333
▁angepasst	-11.8333
▁gewöhnt	-11.8333
▁heiraten	-11.8333
▁insurance	-11.8333
▁sensation	-11.8333
▁skeleton	-11.8333
▁Ausrüstung	-11.8333
▁leap	-11.8333
▁Virginia	-11.8334
▁Wright	-11.8334
▁Nahrungsmittel	-11.8334
▁Verteilung	-11.8334
▁jüngste	-11.8334
▁axis	-11.8334
▁footage	-11.8334
▁lens	-11.8334
▁ignorieren	-11.8335
▁gebildet	-11.8335
▁Euch	-11.8336
▁belong	-11.8337
▁gesetzt	-11.8338
▁50,000	-11.8339
▁sheep	-11.8339
▁Figur	-11.834
▁magische	-11.8342
▁autonomous	-11.8344
▁Komponenten	-11.8346
cellular	-11.8346
▁Hawaii	-11.8349
▁Sammlung	-11.8352
▁Shakespeare	-11.8352
▁gear	-11.8357
▁Age	-11.8358
▁Schreiben	-11.8359
▁aspects	-11.8368
▁recognized	-11.837
LG	-11.837
▁20-	-11.8371
bilder	-11.8371
▁faszinierende	-11.8373
▁hassen	-11.8374
▁realm	-11.8375
JA	-11.8375
▁Strategien	-11.8377
▁reported	-11.8377
▁Feynman	-11.8378
▁mar	-11.838
▁schaue	-11.838
▁allgemeine	-11.838
Get	-11.8384
▁Terror	-11.8385
▁spannend	-11.8392
▁Großen	-11.8396
▁Komm	-11.8397
▁Präsidenten	-11.8401
▁Research	-11.8406
version	-11.8407
▁incentives	-11.841
▁Ursache	-11.8411
▁Chip	-11.8413
▁Ehre	-11.842
▁Füße	-11.8421
spieler	-11.8421
nom	-11.8424
▁komisch	-11.8425
▁interpret	-11.8427
▁intensive	-11.8432
▁discuss	-11.8434
▁reveal	-11.8435
▁gesunde	-11.8435
▁cry	-11.8436
▁Wälder	-11.8437
▁Pu	-11.8437
basierte	-11.8438
▁file	-11.8442
▁killer	-11.8443
▁einzigartig	-11.8444
Computer	-11.8444
geschäft	-11.8447
Girl	-11.8447
▁halt	-11.8448
reißen	-11.8449
ata	-11.8449
rim	-11.8449
Narrator	-11.845
▁Bedarf	-11.845
▁Bewohner	-11.845
▁Verlangen	-11.845
▁frozen	-11.845
▁schief	-11.845
▁ladies	-11.845
▁brown	-11.845
▁elsewhere	-11.845
▁telescope	-11.845
▁horizontal	-11.845
▁1900	-11.8451
▁equality	-11.8451
▁opposed	-11.8452
iges	-11.8452
▁cup	-11.8452
▁Gestaltung	-11.8452
▁mold	-11.8454
Dadurch	-11.8456
▁mittlerweile	-11.8457
▁erwähnen	-11.8457
▁20,000	-11.8458
▁McDonald	-11.846
▁accepted	-11.846
▁Sensoren	-11.8461
▁conservative	-11.8463
▁übersetzt	-11.8463
RM	-11.8465
▁neuron	-11.8465
▁Abenteuer	-11.8465
▁Quadrat	-11.8466
▁shadow	-11.8468
▁signed	-11.8469
▁collecting	-11.8469
▁pal	-11.847
▁Ch	-11.8476
▁SETI	-11.8477
▁Redwood	-11.8477
▁Proben	-11.8478
ellen	-11.8479
▁Hilfs	-11.8479
▁sharp	-11.848
▁psychische	-11.8485
isierte	-11.8485
frage	-11.8486
DP	-11.8487
▁Schwarze	-11.8491
▁Teleskop	-11.8492
wing	-11.8492
▁toy	-11.8493
▁genetisch	-11.8493
▁polar	-11.8497
▁höchst	-11.8503
▁Schwestern	-11.8503
getreten	-11.8505
▁Tal	-11.8511
▁Bildungs	-11.8514
▁einzigartige	-11.8516
▁saßen	-11.8519
▁Reich	-11.8519
▁Handeln	-11.852
▁officer	-11.8525
erei	-11.8528
▁sozialer	-11.8531
til	-11.8534
▁dolphins	-11.8541
▁Systems	-11.8542
geist	-11.8543
▁Hill	-11.855
▁hip	-11.8553
brechen	-11.8553
▁sh	-11.8554
▁vieler	-11.856
Michael	-11.8565
▁Bedürfnis	-11.8566
▁Täuschung	-11.8567
▁irrational	-11.8567
▁legacy	-11.8567
▁simplicity	-11.8567
▁spectacular	-11.8567
▁umgekehrt	-11.8567
▁neuroscience	-11.8567
▁getestet	-11.8567
Jedenfalls	-11.8567
bruch	-11.8568
▁icon	-11.8568
▁Übergang	-11.8568
▁strategies	-11.8568
▁dedicated	-11.8569
▁neighborhoods	-11.857
▁tired	-11.8571
▁kg	-11.8573
▁geschlossen	-11.8573
▁oldest	-11.8573
▁disappeared	-11.8575
▁womit	-11.8575
▁Pferd	-11.8576
mitten	-11.858
▁Ethiopia	-11.858
Jo	-11.8581
▁lernten	-11.8584
▁Wurzeln	-11.8585
▁magical	-11.8586
änge	-11.8586
▁angle	-11.8586
▁captured	-11.8587
▁dig	-11.8587
▁Medikamenten	-11.8588
▁molekulare	-11.8589
▁Muskeln	-11.8592
▁schwerer	-11.8593
▁pursue	-11.8593
lla	-11.8598
gesetzt	-11.8599
▁backwards	-11.8603
▁jenem	-11.8606
lies	-11.8607
▁Lake	-11.8608
▁electronics	-11.861
▁toys	-11.8615
hor	-11.8616
ification	-11.8616
▁Seil	-11.8623
Werden	-11.8628
▁Kar	-11.8629
▁resolution	-11.863
bal	-11.863
▁130	-11.8637
▁riesiges	-11.8639
▁generated	-11.8643
verse	-11.8649
▁aggressive	-11.8653
mission	-11.8656
▁Kugel	-11.8658
ali	-11.8659
▁ältere	-11.8664
werte	-11.8665
▁schickte	-11.8667
▁Universitäten	-11.867
▁implant	-11.8675
ration	-11.8675
▁slides	-11.8676
▁Vergnügen	-11.8677
▁arrive	-11.8677
cop	-11.8677
sagen	-11.8679
Bahn	-11.8681
▁vertical	-11.8683
▁analog	-11.8683
▁initial	-11.8683
free	-11.8684
▁historical	-11.8684
▁Entstehung	-11.8686
▁Hügel	-11.8686
▁Schädel	-11.8686
▁geeignet	-11.8686
▁hungry	-11.8686
▁ridiculous	-11.8686
▁vermittelt	-11.8686
▁boundaries	-11.8686
▁Reichtum	-11.8686
▁erfasst	-11.8686
▁tragedy	-11.8686
▁feiern	-11.8687
▁football	-11.8687
Indeed	-11.8687
▁Menschlichkeit	-11.8687
▁hilfreich	-11.8688
▁theories	-11.8688
▁lamp	-11.8688
▁lake	-11.8688
▁Wut	-11.8688
wenn	-11.8688
▁verbraucht	-11.8689
▁Kilo	-11.869
▁exposed	-11.869
▁weapon	-11.869
▁darkness	-11.8691
▁Standpunkt	-11.8691
▁Probe	-11.8691
fried	-11.8691
▁stammen	-11.8692
▁Monterey	-11.87
▁wahren	-11.8701
▁quit	-11.8701
▁politisch	-11.8701
▁anscheinend	-11.8701
▁removed	-11.8702
▁Nordamerika	-11.8703
▁contains	-11.8704
kte	-11.8705
▁"[\"	-11.8706
▁schlimmsten	-11.8707
▁Fort	-11.8708
▁Prototypen	-11.8709
▁meter	-11.8709
schein	-11.8712
ably	-11.8713
gan	-11.8715
rand	-11.8715
Anders	-11.8715
▁bow	-11.8716
▁describes	-11.8718
will	-11.8719
▁nahezu	-11.8721
▁searching	-11.8721
▁Katzen	-11.8721
▁Gebieten	-11.8722
▁Philip	-11.8723
▁Par	-11.8724
▁Tri	-11.8725
▁par	-11.8726
▁Nahe	-11.8728
top	-11.8731
▁globally	-11.8732
▁Anwendungen	-11.874
▁professionelle	-11.8741
▁NGOs	-11.8742
▁Have	-11.8742
▁Bitte	-11.8744
▁Van	-11.8745
▁Doktor	-11.8747
▁Spar	-11.875
▁gelbe	-11.8753
▁unterrichtet	-11.8755
▁einiges	-11.8756
▁eingehen	-11.8757
▁Pinguine	-11.8761
nne	-11.8762
▁iron	-11.8763
▁Sal	-11.8765
srate	-11.8769
upp	-11.8776
▁Änderung	-11.8778
▁Wände	-11.8779
▁kümmert	-11.878
treating	-11.8783
quot	-11.8788
füll	-11.8793
ssen	-11.8797
▁hearts	-11.8797
▁calculate	-11.8797
▁beliefs	-11.8799
▁Mach	-11.8799
far	-11.88
von	-11.8801
▁goods	-11.8803
▁load	-11.8804
▁linke	-11.8805
▁label	-11.8806
▁Cyber	-11.8807
▁Soviet	-11.8807
▁Tränen	-11.8807
▁advertising	-11.8807
▁charity	-11.8807
▁facial	-11.8807
▁insgesamt	-11.8807
▁reputation	-11.8807
▁senior	-11.8807
▁smooth	-11.8807
▁universities	-11.8807
▁Sätze	-11.8807
Six	-11.8807
▁governance	-11.8807
▁subtle	-11.8807
▁Bürgermeister	-11.8807
▁Organismus	-11.8807
▁Staub	-11.8808
▁salt	-11.8808
▁laughter	-11.8808
▁Bible	-11.8809
▁profile	-11.8809
▁northern	-11.8809
▁essence	-11.881
▁leak	-11.8811
▁unlikely	-11.8811
krieg	-11.8812
▁richten	-11.8813
▁Watt	-11.8814
▁Bürgerkrieg	-11.8815
zustellen	-11.8815
▁photography	-11.8816
▁crying	-11.8816
▁Weltall	-11.8819
▁Eastern	-11.882
▁Effizienz	-11.882
▁Ohr	-11.8821
▁Schauspieler	-11.8826
▁abgesehen	-11.8828
▁touched	-11.8829
▁48	-11.8829
verkehr	-11.8832
▁April	-11.8832
▁gu	-11.8834
▁passive	-11.8836
mmel	-11.8839
▁simulation	-11.8841
▁march	-11.8843
▁chosen	-11.8844
▁Einblick	-11.8853
▁aside	-11.8854
▁Service	-11.8856
▁Stewart	-11.8856
▁umso	-11.8859
ces	-11.8862
▁ingredients	-11.8865
Schon	-11.8869
▁zurecht	-11.8876
tze	-11.8877
▁Resultate	-11.8878
inblick	-11.8879
▁Große	-11.8879
▁wirft	-11.888
spitze	-11.888
▁god	-11.8881
▁Farm	-11.8883
formen	-11.8885
▁geh	-11.8886
get	-11.8887
▁Patent	-11.8892
rechte	-11.8896
fläche	-11.8899
▁Umstände	-11.8901
▁dot	-11.8903
▁gemein	-11.8905
inder	-11.8906
▁mächtige	-11.8906
▁actors	-11.8913
▁via	-11.8914
▁reefs	-11.8914
▁storm	-11.8916
hafte	-11.8917
▁poll	-11.8918
kom	-11.892
▁sum	-11.8922
▁suspect	-11.8922
▁Juni	-11.8923
▁Oberflächen	-11.8923
▁Unterwasser	-11.8927
▁Büchern	-11.8928
▁Berkeley	-11.8929
▁Käfer	-11.8929
▁Lächeln	-11.8929
▁decrease	-11.8929
▁geöffnet	-11.8929
▁inklusive	-11.8929
▁inzwischen	-11.8929
▁origami	-11.8929
▁probability	-11.8929
▁Seattle	-11.8929
▁domain	-11.8929
▁Front	-11.8929
▁aircraft	-11.8929
▁Globalisierung	-11.8929
▁underground	-11.8929
▁Wasserstoff	-11.8929
▁72	-11.8931
▁demonstrate	-11.8931
▁Lebensraum	-11.8933
sländer	-11.8934
▁Architekt	-11.8934
▁locked	-11.8935
▁vorgestellt	-11.8935
▁Stock	-11.8935
inal	-11.8936
▁golden	-11.8937
▁Marine	-11.8937
▁mechanics	-11.8938
▁Jerusalem	-11.8939
▁missed	-11.8941
▁tricks	-11.8942
▁ten	-11.8942
▁Fliege	-11.8944
▁meetings	-11.8946
merk	-11.8949
cul	-11.8949
heben	-11.8949
▁Lungen	-11.8951
▁seeds	-11.8953
Beide	-11.8956
▁verliebt	-11.8956
späten	-11.8959
▁mail	-11.8959
▁Katastrophen	-11.896
▁Handlungen	-11.896
▁Datenbank	-11.8962
DR	-11.8965
▁protecting	-11.8967
▁Konzepte	-11.8969
ala	-11.8971
▁medi	-11.8975
▁explosion	-11.8976
▁Fahrzeuge	-11.898
▁trends	-11.898
▁Rollen	-11.8982
▁quer	-11.8983
▁virtuelle	-11.8983
▁tanzen	-11.8986
leidenschaftlich	-11.899
▁surf	-11.8991
▁unendlich	-11.8993
▁Vier	-11.8994
lass	-11.9002
auto	-11.9004
▁gefährliche	-11.9013
▁Nutzer	-11.9014
▁methods	-11.902
▁unglücklich	-11.9022
▁Übung	-11.9023
ties	-11.9029
chten	-11.903
▁Fischer	-11.9031
▁coat	-11.9035
▁unternehmen	-11.9036
▁früheren	-11.9038
lick	-11.9038
▁stations	-11.904
▁bias	-11.904
▁Hinweise	-11.9041
▁steal	-11.9044
▁advance	-11.9047
tun	-11.905
▁flog	-11.905
sucht	-11.9052
▁Alkohol	-11.9052
▁Beschreibung	-11.9052
▁Everest	-11.9052
▁chief	-11.9052
▁nachdenkt	-11.9052
▁shrimp	-11.9052
▁skull	-11.9052
▁translation	-11.9052
▁jeweils	-11.9052
Should	-11.9052
forscher	-11.9052
▁Indus	-11.9052
▁plain	-11.9052
▁Geruch	-11.9052
▁stets	-11.9052
made	-11.9052
▁Konsumenten	-11.9052
▁Mount	-11.9053
▁festgestellt	-11.9053
▁1930	-11.9053
▁passenger	-11.9053
▁debt	-11.9054
▁nebenbei	-11.9054
▁affordable	-11.9054
▁Santa	-11.9056
▁hingehen	-11.9056
▁Löwen	-11.9056
▁youth	-11.9057
▁hire	-11.9058
▁iPod	-11.9059
▁knee	-11.906
▁physicist	-11.906
ez	-11.9062
▁amongst	-11.9064
human	-11.9064
▁continues	-11.9065
▁Hy	-11.9066
Gott	-11.9067
▁Ah	-11.9068
▁günstig	-11.9069
▁strip	-11.9074
Gehen	-11.9075
firma	-11.9078
ask	-11.9079
▁Planung	-11.9081
▁Gar	-11.9082
Sorry	-11.9089
▁demo	-11.9092
Darauf	-11.9093
AG	-11.9095
Sollte	-11.9098
▁Techniken	-11.91
▁schöner	-11.91
Hat	-11.9105
Übrigens	-11.9106
▁grave	-11.9107
ita	-11.9108
▁ah	-11.9109
▁Friedens	-11.9114
▁east	-11.9115
▁symbols	-11.9115
prozess	-11.9119
▁dramatisch	-11.912
▁3.	-11.912
▁Sarah	-11.9121
spot	-11.9123
▁Arthur	-11.9124
▁bug	-11.9128
▁relations	-11.9129
Ta	-11.913
▁echtes	-11.913
▁Mannes	-11.9132
▁stepp	-11.9138
grade	-11.9138
▁technologische	-11.9139
▁♪"	-11.9141
Nichts	-11.9142
▁gewaltige	-11.9143
▁komplette	-11.9148
▁musicians	-11.9149
▁verließ	-11.9149
ED	-11.9149
▁Waffe	-11.9152
▁enormen	-11.916
▁rap	-11.9163
▁setzten	-11.9164
low	-11.9168
▁Vers	-11.9169
▁rush	-11.917
bert	-11.917
Dienstleistungen	-11.9171
▁gebrochen	-11.9175
▁nano	-11.9176
▁Enkel	-11.9177
▁Anpassung	-11.9177
▁Vermögen	-11.9177
▁ehemalige	-11.9177
▁intuition	-11.9177
▁pandemic	-11.9177
▁pioneer	-11.9177
▁pregnant	-11.9177
▁diskutiert	-11.9177
▁erfordert	-11.9177
▁letztlich	-11.9177
▁Jewish	-11.9177
▁Simulation	-11.9177
▁Eigentum	-11.9177
▁Sprung	-11.9177
▁minus	-11.9177
▁slice	-11.9178
▁keyboard	-11.9178
▁verstecken	-11.9178
▁isoliert	-11.9178
▁geraten	-11.9178
▁apparently	-11.9178
▁Spring	-11.9179
▁Antrieb	-11.9179
jähriger	-11.918
▁neck	-11.9181
Zurück	-11.9181
▁dirty	-11.9181
▁official	-11.9183
▁Bauch	-11.9183
▁antworten	-11.9183
▁Maßnahmen	-11.9184
power	-11.9184
Gerade	-11.9184
iest	-11.9185
▁achievement	-11.9186
▁glad	-11.9186
Wirklich	-11.9187
gleich	-11.919
book	-11.9192
Human	-11.9192
hai	-11.9194
▁Möbel	-11.9194
▁symmetry	-11.9197
LT	-11.9199
bon	-11.9199
▁Fremden	-11.9202
organisationen	-11.9203
▁Gesichts	-11.9206
▁Stille	-11.9206
Part	-11.9208
▁billig	-11.9208
▁Schl	-11.9213
▁Ökonomen	-11.9213
▁irgendein	-11.9215
holen	-11.9215
issen	-11.9216
▁wanting	-11.9217
▁Je	-11.9218
▁dringend	-11.9221
▁Reisen	-11.9222
▁Laser	-11.9223
▁Rezept	-11.9223
üge	-11.9223
▁empfinden	-11.9224
▁benutzten	-11.923
letting	-11.9231
▁printer	-11.9232
▁Ansichten	-11.9232
▁Geschlecht	-11.9233
▁fifth	-11.9235
▁wound	-11.9239
▁Gra	-11.924
▁bother	-11.9241
▁pot	-11.9243
anhand	-11.9243
lange	-11.9244
▁Gefahren	-11.9245
▁Harry	-11.9245
rid	-11.925
▁tears	-11.9252
hören	-11.9255
▁Dis	-11.9257
pack	-11.9258
▁pause	-11.926
▁crops	-11.9266
▁drum	-11.9268
▁tauchen	-11.9273
▁pile	-11.9274
▁ka	-11.9275
▁Lehr	-11.9276
▁Tasche	-11.9276
▁tribes	-11.9278
▁reicher	-11.9281
▁neuro	-11.9282
▁beschränkt	-11.9282
▁Mitglied	-11.9291
▁staatliche	-11.9292
▁recover	-11.9295
▁Dinger	-11.9297
ih	-11.9297
▁Therapie	-11.9299
▁formal	-11.93
würdig	-11.9304
▁Department	-11.9304
▁diskutieren	-11.9304
▁gelehrt	-11.9304
▁mysterious	-11.9304
▁paradox	-11.9304
▁sorgfältig	-11.9304
▁substance	-11.9304
▁transparency	-11.9304
▁wheelchair	-11.9304
▁Erziehung	-11.9304
▁Mumbai	-11.9304
▁absurd	-11.9304
▁verzweifelt	-11.9304
▁Rosling	-11.9304
▁japanische	-11.9304
▁Direktor	-11.9304
▁scharf	-11.9304
▁Blickwinkel	-11.9304
ram	-11.9304
▁airport	-11.9305
▁verteilen	-11.9305
▁isolated	-11.9306
▁highlight	-11.9306
▁produces	-11.9306
▁queen	-11.9306
▁stable	-11.9307
▁Meister	-11.9307
▁granted	-11.9307
Hätte	-11.9308
▁mentor	-11.9308
▁bewahren	-11.9309
▁surrounding	-11.931
▁Schöne	-11.9314
▁Hindernisse	-11.9315
▁dust	-11.9316
Egal	-11.9318
▁Time	-11.9318
Hello	-11.9319
▁visited	-11.932
▁Studium	-11.9324
▁übersetzen	-11.9327
▁innovations	-11.9327
▁privaten	-11.933
▁Taschen	-11.9331
Energieverbrauch	-11.9333
▁Haushalt	-11.9335
▁lighting	-11.9336
Modell	-11.9344
▁fließt	-11.9346
▁zuhören	-11.9348
park	-11.9349
▁underly	-11.9349
▁Ve	-11.9351
ua	-11.9354
▁dicht	-11.9358
▁aktuellen	-11.9358
▁wunderschön	-11.9359
▁kulturellen	-11.9361
▁individuelle	-11.9361
▁Dia	-11.9365
▁ta	-11.9366
▁Simon	-11.9368
tete	-11.9383
▁wartet	-11.9384
▁terror	-11.9385
▁passwords	-11.9386
right	-11.9389
▁sacrifice	-11.9393
post	-11.9394
▁strangers	-11.9402
▁Sahara	-11.9402
▁mochte	-11.9404
▁Kann	-11.9405
▁accidents	-11.9407
▁layers	-11.9409
▁Hör	-11.9411
▁experimental	-11.9413
▁terrorists	-11.9414
▁fehlende	-11.9417
▁geistige	-11.9421
▁conclude	-11.9422
▁formula	-11.9423
▁Zauber	-11.9425
produktion	-11.9429
ionen	-11.943
▁Daumen	-11.9431
temperatur	-11.9431
▁pace	-11.9431
▁Skelett	-11.9432
▁Atlanta	-11.9432
▁Buddha	-11.9432
▁Großvater	-11.9432
▁Ruanda	-11.9432
▁anbieten	-11.9432
▁spontan	-11.9432
▁vagina	-11.9432
▁instinct	-11.9432
▁Kooperation	-11.9432
▁Onkel	-11.9432
▁Italy	-11.9432
▁array	-11.9432
▁bump	-11.9432
▁depressed	-11.9432
▁Queen	-11.9432
gerissen	-11.9433
▁ausreichend	-11.9433
▁synthetic	-11.9433
▁Griff	-11.9433
▁compete	-11.9433
▁verarbeiten	-11.9434
▁Erforschung	-11.9434
▁38	-11.9434
▁Ausland	-11.9434
Things	-11.9435
hether	-11.9435
▁vorwärts	-11.9435
▁announced	-11.9435
▁Rover	-11.9436
Überall	-11.9438
▁ensure	-11.9439
are	-11.9439
half	-11.9441
▁südlich	-11.9441
▁legte	-11.9441
▁surprisingly	-11.9443
▁upset	-11.9444
▁fiber	-11.9445
▁lawyer	-11.9445
▁dinosaur	-11.9445
▁verlangt	-11.9445
▁Transparenz	-11.9446
▁stabil	-11.9448
ups	-11.9448
▁Fan	-11.9451
ui	-11.9453
▁His	-11.9454
▁Pflanze	-11.9456
▁Wow	-11.9458
▁passing	-11.946
▁employ	-11.9461
▁Explosion	-11.9462
hung	-11.9463
▁Ideal	-11.9468
steigen	-11.9469
rig	-11.947
▁farmer	-11.9472
dung	-11.9473
sse	-11.9474
▁kit	-11.9474
▁afterwards	-11.9477
▁zukünftigen	-11.9477
▁mechanisms	-11.9481
ären	-11.9486
Welt	-11.9487
▁Pop	-11.9489
▁44	-11.9492
▁Inhalte	-11.9494
▁treatments	-11.9501
▁Deshalb	-11.9504
▁span	-11.9505
▁proportion	-11.9508
▁scales	-11.9509
▁ausgehen	-11.9511
ld	-11.9512
▁cap	-11.9513
▁nachhaltig	-11.9517
▁chimpanzees	-11.9518
▁schlimm	-11.9519
ichen	-11.9519
▁speaker	-11.9521
▁Poster	-11.9524
▁gest	-11.9526
▁+	-11.9526
tausend	-11.9528
▁Mäuse	-11.9533
▁durfte	-11.9533
▁immense	-11.9534
▁aufrecht	-11.9535
▁wing	-11.954
▁Lichter	-11.9541
▁Schauen	-11.9542
▁Carl	-11.9544
▁überraschende	-11.9544
▁Africans	-11.9547
▁geworfen	-11.9549
zunehmen	-11.955
▁analyze	-11.9552
graph	-11.9552
▁Kreise	-11.9553
▁cart	-11.9555
▁witness	-11.9556
▁opera	-11.9559
▁fordert	-11.9561
▁Feedback	-11.9561
▁dimension	-11.9562
▁Beitrag	-11.9562
▁Mozart	-11.9562
gewebe	-11.9562
▁Abhängigkeit	-11.9562
▁Dynamik	-11.9562
▁Intuition	-11.9562
▁Jupiter	-11.9562
▁Tempo	-11.9562
▁Wilson	-11.9562
▁agencies	-11.9562
▁ausschließlich	-11.9562
▁circa	-11.9562
▁definitiv	-11.9562
▁freiwillig	-11.9562
▁smoking	-11.9562
▁ungeheuer	-11.9562
▁verdoppelt	-11.9562
▁verringern	-11.9562
kontrolle	-11.9562
▁ignorance	-11.9562
▁fragile	-11.9562
▁Regenwald	-11.9562
▁fortune	-11.9562
▁Frühling	-11.9562
▁Coca	-11.9563
▁füllen	-11.9563
▁anfängt	-11.9564
▁globalization	-11.9564
▁Auftrag	-11.9565
▁ausdrücken	-11.9566
lief	-11.9566
position	-11.9567
▁Gi	-11.9569
itis	-11.9569
▁Animation	-11.957
▁befassen	-11.957
▁dear	-11.9571
▁pointed	-11.9574
▁proper	-11.9574
▁Original	-11.9574
▁beides	-11.9575
▁liebt	-11.9576
▁observation	-11.9576
Etwa	-11.9577
▁deserve	-11.9577
tsch	-11.9578
zieh	-11.9579
▁niedrig	-11.9579
rry	-11.9581
run	-11.9582
▁extinction	-11.9584
▁Ratten	-11.9585
Robert	-11.9585
Zeit	-11.9586
▁heben	-11.9587
Dem	-11.9588
uh	-11.959
Still	-11.959
cat	-11.9591
▁Höhlen	-11.9592
you	-11.9592
▁rhythm	-11.9595
▁15-	-11.9596
▁capita	-11.9597
Never	-11.9597
▁elections	-11.9598
▁pulling	-11.9599
bereit	-11.9604
▁frühe	-11.9607
boot	-11.9609
▁Schreib	-11.961
▁Ger	-11.961
▁erhielten	-11.9612
▁Trans	-11.9613
▁Edward	-11.9615
▁effizient	-11.9616
tiere	-11.9617
▁hook	-11.9618
▁Palm	-11.9621
▁physischen	-11.9623
lesen	-11.9624
▁komplizierter	-11.9624
▁Muslime	-11.9625
▁Len	-11.9626
▁Dichte	-11.9627
▁Ram	-11.9628
▁Wild	-11.963
yo	-11.9632
▁Grab	-11.9633
▁Lehrern	-11.9634
▁ecosystems	-11.9635
▁Come	-11.9637
▁communications	-11.9638
▁Besitz	-11.9639
▁soap	-11.9641
nahm	-11.9642
▁Rechts	-11.9644
▁litt	-11.9646
▁predictions	-11.9648
entwicklung	-11.9651
▁Farb	-11.9654
▁balls	-11.9658
▁wi	-11.9659
▁Investition	-11.9665
▁Toilette	-11.9665
▁Nadel	-11.9666
▁craft	-11.9668
▁schreibe	-11.9668
▁Jeff	-11.967
▁verdammt	-11.9674
▁ending	-11.9675
▁Child	-11.9676
oss	-11.9677
▁Ebenen	-11.9677
gue	-11.9679
▁gemeinnützige	-11.9682
▁audio	-11.9683
▁Get	-11.9686
q	-11.9686
▁lasse	-11.9687
▁Kong	-11.9689
▁seats	-11.969
Frau	-11.9691
falls	-11.9692
▁quest	-11.9693
▁FDA	-11.9693
▁Baseball	-11.9693
▁Canyon	-11.9693
▁Engagement	-11.9693
▁Zufriedenheit	-11.9693
▁cliff	-11.9693
▁comparison	-11.9693
▁dictionary	-11.9693
▁happier	-11.9693
▁federal	-11.9693
▁auszudrücken	-11.9693
▁bathroom	-11.9694
▁mild	-11.9694
▁erlangen	-11.9694
▁capability	-11.9694
▁Sierra	-11.9694
▁vorhersagen	-11.9694
▁Länge	-11.9694
▁profitieren	-11.9695
▁compelling	-11.9695
▁laid	-11.9696
▁Force	-11.9696
▁unterhalten	-11.9697
▁erkunden	-11.9698
▁emerge	-11.9698
▁diagnosed	-11.9699
▁integrated	-11.9699
▁mask	-11.9699
trick	-11.97
▁rarely	-11.97
▁trivial	-11.9701
▁Schokolade	-11.9705
▁ausgegeben	-11.9705
▁wette	-11.9705
▁Line	-11.9709
▁chapter	-11.9709
▁reef	-11.971
▁delivered	-11.971
▁citizen	-11.971
▁Mais	-11.971
▁suggesting	-11.9711
▁documents	-11.9712
▁Strahlung	-11.9712
▁einzusetzen	-11.9715
fliegen	-11.9716
tischen	-11.9717
Mart	-11.9717
▁routine	-11.9718
Adam	-11.9718
▁danken	-11.972
Afrika	-11.972
▁anxiety	-11.9721
▁Pläne	-11.9721
Cola	-11.9722
Regierung	-11.9723
▁Winkel	-11.9728
▁schrieben	-11.9728
▁roots	-11.9729
▁/	-11.9729
▁nerve	-11.9732
▁Reis	-11.9733
▁klingen	-11.9734
▁Nest	-11.9735
▁gefahren	-11.9736
▁Inseln	-11.9736
▁Talent	-11.9737
▁nurse	-11.9739
Five	-11.974
▁sheet	-11.9747
▁ungewöhnlich	-11.9749
▁Ober	-11.975
▁Joseph	-11.9754
room	-11.9755
▁allgemeinen	-11.9761
▁Mir	-11.9761
▁bath	-11.9763
durch	-11.9767
eis	-11.9768
Make	-11.977
phy	-11.9771
▁Ze	-11.9773
ular	-11.9775
.'\"	-11.9778
▁fl	-11.9784
▁ink	-11.9786
▁Boy	-11.9788
▁selbe	-11.9791
bücher	-11.9792
▁indische	-11.9793
üsse	-11.9798
▁Auswirkung	-11.9798
▁Blase	-11.9798
▁Spur	-11.9806
long	-11.9807
pfen	-11.9807
▁altes	-11.9812
▁pie	-11.9813
neu	-11.9814
▁lock	-11.9814
nation	-11.9818
▁rebuild	-11.9818
▁speakers	-11.9821
körper	-11.9826
Third	-11.9827
▁Columbia	-11.9827
▁Urknall	-11.9827
▁Wohlbefinden	-11.9827
▁agricultural	-11.9827
▁category	-11.9827
▁district	-11.9827
▁erledigen	-11.9827
▁gesünder	-11.9827
▁sauce	-11.9827
▁vacuum	-11.9827
▁verhindert	-11.9827
▁verschwindet	-11.9827
▁whistle	-11.9827
▁dialogue	-11.9827
▁injury	-11.9827
▁agency	-11.9827
▁angetrieben	-11.9827
▁copyright	-11.9827
▁Ehemann	-11.9827
▁Produktivität	-11.9827
▁reinvent	-11.9827
▁nonprofit	-11.9827
schiff	-11.9827
▁Kuchen	-11.9827
▁kochen	-11.9827
▁unterhalb	-11.9828
▁uncomfortable	-11.9828
▁discoveries	-11.9828
Dennoch	-11.9829
▁heilige	-11.9829
▁beträgt	-11.983
▁Hut	-11.9832
▁tackle	-11.9832
ville	-11.9832
▁Camp	-11.9832
nseits	-11.9836
▁umzusetzen	-11.9837
▁präzise	-11.9838
▁returned	-11.9842
▁painted	-11.9842
▁erstaunlichen	-11.9843
▁determined	-11.9843
▁depth	-11.9844
▁intervention	-11.9844
▁wünschen	-11.9844
▁variation	-11.9845
▁consequence	-11.9845
▁Sonnensystem	-11.9848
▁participants	-11.9848
▁Mechanismus	-11.9848
▁dozens	-11.985
▁actor	-11.9851
JF	-11.9857
ago	-11.9858
▁Personal	-11.9858
▁views	-11.9859
▁Gleich	-11.9859
bekommen	-11.9861
RS	-11.9863
▁virtuellen	-11.9866
▁wa	-11.9866
▁Kal	-11.9868
Arm	-11.9869
▁Scham	-11.987
▁magnet	-11.9874
▁richer	-11.9879
▁sicherer	-11.9879
▁characteristics	-11.988
Wieder	-11.988
▁boss	-11.9883
▁Cu	-11.989
▁profession	-11.9891
Such	-11.9891
▁Wohl	-11.9893
ließ	-11.9893
▁terrorist	-11.9894
Tja	-11.9896
▁includes	-11.9896
span	-11.9899
▁poster	-11.9904
▁stages	-11.9906
▁Zeitungen	-11.9907
▁dynamics	-11.9915
▁Lama	-11.9917
▁teenagers	-11.992
▁älteren	-11.9924
▁fotografiert	-11.9924
▁Schw	-11.9927
zent	-11.9929
muster	-11.9931
▁Wohnung	-11.9935
▁Dich	-11.9941
▁Röntgen	-11.9942
rück	-11.9942
tschaftswachstum	-11.9947
▁Schülern	-11.995
▁drivers	-11.995
▁spots	-11.995
▁Illusion	-11.9951
▁drawn	-11.9952
▁welcome	-11.9952
ivity	-11.9956
▁Gestalt	-11.9959
▁Empathie	-11.9962
▁Mittlere	-11.9962
▁helicopter	-11.9962
▁Alaska	-11.9962
▁burst	-11.9962
▁kombiniert	-11.9962
▁oxytocin	-11.9962
▁verurteilt	-11.9962
▁verlangen	-11.9962
▁fraction	-11.9962
▁identified	-11.9962
▁Branche	-11.9962
▁Montana	-11.9962
▁smallpox	-11.9962
▁collaborative	-11.9962
▁trash	-11.9962
▁teilnehmen	-11.9962
▁Auffassung	-11.9962
▁motiviert	-11.9962
▁Treibstoff	-11.9962
▁islamische	-11.9963
▁impression	-11.9963
▁assignment	-11.9963
▁kiss	-11.9963
schuss	-11.9964
▁leise	-11.9964
NG	-11.9964
▁portion	-11.9964
▁Lieder	-11.9965
▁ärmsten	-11.9965
Star	-11.9965
▁briefly	-11.9966
▁Oel	-11.9968
▁gerecht	-11.9969
▁tied	-11.997
▁ignoriert	-11.9972
▁tension	-11.9972
▁parties	-11.9972
▁suggestion	-11.9973
▁Trends	-11.9977
▁Ausgaben	-11.9981
▁revenue	-11.9981
▁Schock	-11.9981
▁Erkrankungen	-11.9982
▁improvement	-11.9983
▁farming	-11.9984
▁failing	-11.9984
▁Berechnungen	-11.9986
tauchen	-11.9986
▁Journalisten	-11.9989
oid	-11.999
▁separated	-11.999
▁lasst	-11.9991
▁hack	-11.9991
▁Toiletten	-11.9991
▁Raketen	-11.9992
zentrum	-11.9992
▁entdeckten	-11.9992
mobil	-11.9993
▁reduced	-11.9994
Women	-11.9995
Sahara	-11.9995
Wahrscheinlich	-11.9996
Kopf	-11.9996
krise	-11.9998
pflanzen	-11.9999
lied	-12.0001
ane	-12.0001
▁wipe	-12.0001
▁Pol	-12.0004
▁behaupte	-12.0006
▁Kurz	-12.0008
▁controls	-12.0014
▁smarter	-12.0018
▁Flugzeuge	-12.0019
spect	-12.002
▁gewöhnlich	-12.0021
▁publish	-12.0025
▁dependent	-12.0029
▁Hals	-12.0035
▁Interview	-12.0035
▁keinem	-12.0037
fremd	-12.0038
AK	-12.0044
▁Han	-12.0045
ogen	-12.0045
▁benutzte	-12.0052
▁positiven	-12.0052
Weißt	-12.0061
▁biologists	-12.0062
▁umfassende	-12.0067
▁Muskel	-12.0071
▁Gleichung	-12.0072
▁Thanks	-12.0072
▁Kit	-12.0076
▁kollektive	-12.0077
tieren	-12.0079
fluss	-12.0085
▁bound	-12.0085
förmige	-12.0086
▁First	-12.0087
▁nets	-12.0088
▁Symmetrie	-12.0089
▁restore	-12.0089
▁defend	-12.009
▁Lang	-12.0091
uten	-12.0093
▁sail	-12.0094
▁precise	-12.0096
▁banks	-12.0097
▁uncle	-12.0098
▁poly	-12.0098
▁Konzentration	-12.0099
▁Praxis	-12.0099
Obviously	-12.0099
▁Privileg	-12.0099
▁chaos	-12.0099
▁errichten	-12.0099
▁ethnic	-12.0099
▁fabulous	-12.0099
▁Kennedy	-12.0099
▁convey	-12.0099
▁Mikroskop	-12.0099
▁branch	-12.0099
▁ultra	-12.0099
▁Arbeitsplatz	-12.0099
▁Gegenstand	-12.0099
▁Haltung	-12.0099
▁spray	-12.0099
▁Lebensqualität	-12.01
▁TEDGlobal	-12.01
▁circles	-12.01
▁permission	-12.01
▁shine	-12.01
▁bullet	-12.0101
tus	-12.0101
▁southern	-12.0101
▁proof	-12.0101
▁'60	-12.0101
▁garage	-12.0103
▁absorb	-12.0103
▁constructed	-12.0104
▁herstellt	-12.0104
▁mindset	-12.0106
▁Güter	-12.0106
▁dial	-12.0107
anda	-12.0107
▁openness	-12.011
▁Leser	-12.0111
▁Nervenzellen	-12.0112
▁translated	-12.0114
▁Besuch	-12.0116
▁aesthetic	-12.0116
▁researcher	-12.0118
▁Route	-12.0119
▁lungs	-12.012
▁vieles	-12.012
▁highway	-12.0122
▁pole	-12.0123
▁apple	-12.0123
ima	-12.0123
▁wash	-12.0125
▁Song	-12.0125
Plan	-12.0125
gefühl	-12.0125
schlagen	-12.0131
▁stores	-12.0132
▁edges	-12.0132
▁Flasche	-12.0133
ühl	-12.0134
▁installation	-12.0134
▁reports	-12.0134
▁Biologen	-12.0137
Hmm	-12.0138
Boot	-12.0139
▁entrepreneur	-12.0139
▁geplant	-12.0142
▁anzugehen	-12.0144
▁typische	-12.0145
▁Filter	-12.0145
field	-12.0146
▁picking	-12.0149
play	-12.0151
▁Joshua	-12.0152
▁leer	-12.0156
▁Zero	-12.0157
maß	-12.0159
▁Bewusstseins	-12.0161
hau	-12.0162
God	-12.0163
Mich	-12.0164
▁nationalen	-12.0165
▁gering	-12.0166
▁Richter	-12.0166
ome	-12.0167
▁Autoren	-12.0171
Jeden	-12.0175
▁billiger	-12.0177
▁ages	-12.0177
▁Bäumen	-12.0184
ruf	-12.0186
put	-12.0189
quelle	-12.0195
Letztes	-12.0197
▁duck	-12.0199
sky	-12.02
▁reale	-12.02
▁assumptions	-12.0201
▁Ernst	-12.0201
heil	-12.0202
▁bars	-12.0202
▁beer	-12.0205
▁offenbar	-12.0205
isse	-12.022
▁einziges	-12.0228
▁propose	-12.023
Stu	-12.0231
block	-12.0231
ese	-12.0232
▁Benzin	-12.0232
ify	-12.0233
▁Schau	-12.0234
▁rough	-12.0234
ordnung	-12.0237
▁exploit	-12.0237
▁poison	-12.0237
▁Substanz	-12.0238
▁akzeptiert	-12.0238
▁aufmerksam	-12.0238
▁einschließlich	-12.0238
▁fought	-12.0238
▁inevitable	-12.0238
▁excuse	-12.0238
▁gegessen	-12.0238
▁naked	-12.0238
▁unterscheidet	-12.0238
▁ecological	-12.0238
▁perceive	-12.0238
▁schmerzhaft	-12.0238
▁stunt	-12.0238
▁slavery	-12.0238
▁anonymous	-12.0238
▁rice	-12.0238
▁Schwanz	-12.0238
▁gewinnt	-12.0238
▁combat	-12.0238
▁attractive	-12.0238
▁Lord	-12.0239
▁Heilung	-12.0239
▁infant	-12.0239
▁versagt	-12.0239
▁üben	-12.0239
▁beachten	-12.024
▁caring	-12.024
▁Arabic	-12.024
▁imagery	-12.0241
▁Louis	-12.0241
▁Ross	-12.0242
▁misst	-12.0243
▁artistic	-12.0243
▁industries	-12.0246
▁zurückkommen	-12.0246
deiner	-12.0249
▁Gehör	-12.0249
alle	-12.025
▁originally	-12.025
bte	-12.0251
▁Asteroiden	-12.0251
▁rope	-12.0252
▁Schriftsteller	-12.0253
rack	-12.0254
▁reminded	-12.0254
▁fuels	-12.0255
▁hanging	-12.0255
▁ermutigen	-12.0255
▁expanding	-12.0257
▁Lesen	-12.0258
▁interpretation	-12.0258
▁predicted	-12.0258
▁served	-12.026
▁pushed	-12.026
▁activist	-12.0261
▁crossing	-12.0264
▁Köpfen	-12.0264
▁Felsen	-12.0266
oon	-12.0267
rap	-12.0275
▁powers	-12.0276
▁surfaces	-12.0277
▁niedriger	-12.0277
Fünf	-12.0278
Great	-12.0279
James	-12.0279
Google	-12.028
einheit	-12.0283
az	-12.0288
▁Depressionen	-12.0288
▁tick	-12.0289
▁Fernseher	-12.0289
▁geringe	-12.0291
Vier	-12.0295
▁focusing	-12.0297
▁fuhren	-12.0297
▁landed	-12.03
Statt	-12.03
fällig	-12.0301
▁Keine	-12.0303
▁gelb	-12.0306
▁Meme	-12.0309
▁inches	-12.0309
fragen	-12.0314
▁Mess	-12.0314
▁sink	-12.0315
cut	-12.0315
▁wunderschönen	-12.0316
träge	-12.0318
▁Alex	-12.032
▁Gebäudes	-12.032
▁Seine	-12.0322
IM	-12.0326
▁Problems	-12.0332
▁satellites	-12.0335
▁zogen	-12.0336
immer	-12.0341
▁Jean	-12.0344
▁peaceful	-12.0347
▁46	-12.0349
▁Überzeugung	-12.035
▁Option	-12.035
▁Mauer	-12.035
▁Kopie	-12.035
▁böse	-12.035
▁Vorträge	-12.035
▁finanzielle	-12.0352
▁sensor	-12.0359
Woh	-12.0359
▁Sein	-12.0361
▁abstrakte	-12.0361
▁suchten	-12.0362
kehr	-12.0363
▁ursprüngliche	-12.0363
▁Zwischen	-12.0364
ode	-12.0366
versorgung	-12.0368
▁Höhle	-12.0368
▁prepare	-12.0369
rauch	-12.0374
▁exhibit	-12.0374
▁endet	-12.0375
ounce	-12.0378
▁Völker	-12.0379
‹	-12.0379
▁Bangladesh	-12.0379
▁Individuum	-12.0379
▁Oktober	-12.0379
▁alcohol	-12.0379
▁biodiversity	-12.0379
▁facility	-12.0379
▁primarily	-12.0379
▁recipe	-12.0379
▁schlussendlich	-12.0379
▁überprüfen	-12.0379
▁bewirkt	-12.0379
▁colonies	-12.0379
▁Thailand	-12.0379
▁Autorität	-12.0379
▁Kluft	-12.0379
▁programming	-12.0379
▁trennen	-12.0379
▁elderly	-12.0379
▁verbrauchen	-12.0379
Komm	-12.038
▁Amazonas	-12.038
▁4,000	-12.0381
▁stake	-12.0381
▁2015	-12.0381
▁sensory	-12.0382
Wollen	-12.0384
▁teure	-12.0386
▁begun	-12.0388
▁gathering	-12.039
▁verknüpft	-12.039
Put	-12.0391
▁allzu	-12.0392
▁aufeinander	-12.0397
▁Brad	-12.0397
▁illustrate	-12.0398
▁ausführen	-12.0398
▁bedenken	-12.0398
▁mimic	-12.0401
▁erinnerte	-12.0403
▁predator	-12.0404
▁attitude	-12.0404
▁confident	-12.0405
▁TEDTalk	-12.0406
▁refugee	-12.0408
▁Spuren	-12.0409
▁Magazin	-12.0409
tanz	-12.041
▁Manager	-12.0412
▁trucks	-12.0413
▁richtet	-12.0413
AB	-12.0414
▁leverage	-12.0414
▁Videospiele	-12.0417
▁scanner	-12.042
▁Ju	-12.0421
Back	-12.0422
▁erfolgreiche	-12.0424
▁zugleich	-12.0424
zone	-12.0424
genetischen	-12.0424
▁Innen	-12.0428
▁Einheiten	-12.0429
station	-12.043
▁Richtig	-12.0431
▁Haben	-12.0433
▁Christian	-12.0434
zero	-12.0436
▁Digital	-12.0437
▁Anreize	-12.0438
raus	-12.0442
sterblichkeit	-12.0442
▁Operationen	-12.0444
kosten	-12.0444
two	-12.0446
▁scores	-12.0446
▁Maße	-12.045
Ten	-12.0452
▁freak	-12.0454
▁körperliche	-12.0455
▁bubbles	-12.0455
▁insights	-12.0455
▁dish	-12.0455
▁greifen	-12.0458
tiert	-12.0466
bus	-12.0466
▁clients	-12.0472
ough	-12.0473
nahmen	-12.0476
▁Pri	-12.0477
▁stops	-12.0478
▁grob	-12.0481
▁News	-12.0483
▁schwierigen	-12.0483
▁firm	-12.0492
▁Tätigkeit	-12.0492
organisation	-12.0493
▁helpful	-12.0494
▁Nachbar	-12.0494
gesichts	-12.0498
möglichkeiten	-12.0498
▁sang	-12.0499
▁computation	-12.0503
▁Ron	-12.0504
▁sentences	-12.0507
▁wings	-12.051
▁ewig	-12.051
▁preserve	-12.0512
▁nurses	-12.0512
▁Wechsel	-12.0514
▁knock	-12.0515
▁sandwich	-12.0516
▁Kriege	-12.0516
tti	-12.0517
brachte	-12.0521
▁geleitet	-12.0521
▁Jill	-12.0521
pflanzt	-12.0521
▁Anhänger	-12.0521
▁Erwärmung	-12.0521
▁Kohlendioxid	-12.0521
▁analysiert	-12.0521
▁cheese	-12.0521
▁threshold	-12.0521
▁tweet	-12.0521
analyse	-12.0521
▁automobile	-12.0521
▁theoretisch	-12.0521
▁civic	-12.0522
▁involviert	-12.0522
▁beschützen	-12.0522
▁sacred	-12.0522
▁erzielen	-12.0522
▁programmieren	-12.0522
▁Rechner	-12.0522
▁Arbeitsplätze	-12.0522
▁Luther	-12.0522
▁blink	-12.0522
▁figuring	-12.0522
▁baseball	-12.0522
▁shopping	-12.0522
▁Austausch	-12.0522
▁mood	-12.0522
▁Übersetzung	-12.0522
▁Lärm	-12.0522
▁Anzeichen	-12.0522
▁Pocken	-12.0522
▁Initiative	-12.0523
▁Werten	-12.0525
▁architectural	-12.0527
▁Spenden	-12.0528
than	-12.0528
▁radically	-12.0528
▁extended	-12.053
▁Tricks	-12.0532
▁genocide	-12.0532
liste	-12.0532
▁expansion	-12.0534
▁rethink	-12.0537
▁grandchildren	-12.0537
▁Philosoph	-12.0539
▁founded	-12.0542
▁jet	-12.0542
▁climbing	-12.0542
▁Bomben	-12.0546
▁religiösen	-12.0547
bü	-12.0548
ological	-12.0548
Betrachten	-12.0549
▁throwing	-12.055
▁soldier	-12.0551
Früher	-12.0551
▁meal	-12.0552
▁angekommen	-12.0554
▁frequency	-12.0555
▁treibt	-12.0559
ektion	-12.0563
▁wow	-12.0564
▁Kommunikations	-12.0565
▁fla	-12.0565
▁sleeping	-12.0566
▁herrscht	-12.057
Zusammen	-12.0571
interest	-12.0572
—	-12.0572
▁discipline	-12.0575
▁1984	-12.0577
▁Afghan	-12.058
▁shaped	-12.0583
▁Besitzer	-12.0584
▁Niemand	-12.0585
▁geblieben	-12.0587
▁effizienter	-12.0589
iker	-12.0591
Oft	-12.0594
MA	-12.0596
Einmal	-12.0596
▁Amerikas	-12.0597
▁Lehre	-12.0599
▁beginne	-12.0599
▁radikale	-12.0603
▁el	-12.0604
▁Tele	-12.0605
baum	-12.0609
▁answered	-12.0609
▁bang	-12.0612
▁nutzten	-12.0614
▁Hinweis	-12.0617
▁doors	-12.0619
▁panels	-12.0621
▁ökologische	-12.0622
▁rotate	-12.0637
▁adopt	-12.0638
▁Fels	-12.0638
▁militärische	-12.0638
▁TEDTalks	-12.064
▁Pra	-12.0641
nor	-12.0645
▁positions	-12.0645
▁Welle	-12.0646
▁furchtbar	-12.0647
▁Nährstoffe	-12.065
treffen	-12.0653
▁Your	-12.0653
▁Chirurg	-12.0656
▁implement	-12.0659
▁Alpha	-12.066
Einen	-12.066
▁consistent	-12.0663
▁Fußball	-12.0665
schläge	-12.0665
▁resist	-12.0665
rechnung	-12.0666
Allerdings	-12.0666
▁Norway	-12.0666
▁Pazifik	-12.0666
▁Philadelphia	-12.0666
▁abilities	-12.0666
▁bewältigen	-12.0666
▁buried	-12.0666
▁concentration	-12.0666
▁expedition	-12.0666
▁participation	-12.0666
▁scheitern	-12.0666
▁struggling	-12.0666
▁zwölf	-12.0666
▁valley	-12.0666
▁resilience	-12.0666
▁begleitet	-12.0666
▁verwandt	-12.0666
▁Elektronik	-12.0667
▁umfasst	-12.0667
▁Anerkennung	-12.0667
▁Panik	-12.0667
Später	-12.0667
▁Gleichheit	-12.0667
▁appearance	-12.0667
▁ooh	-12.0667
▁merely	-12.0667
▁forgotten	-12.0668
▁spiele	-12.0668
▁Effekte	-12.0668
▁unangenehm	-12.0668
▁blicken	-12.0669
▁Fischerei	-12.0671
▁›	-12.0672
tausch	-12.0673
▁Dick	-12.0674
▁secrets	-12.0674
▁slip	-12.0675
▁proposed	-12.0676
▁Tiger	-12.0677
▁emerged	-12.0677
geräte	-12.0682
Lo	-12.0684
gänge	-12.0685
▁Internets	-12.0685
▁Islands	-12.0686
▁Demonstration	-12.0686
▁beliebige	-12.0687
▁Störungen	-12.0687
▁aufregende	-12.0688
▁Orchester	-12.069
▁verblüffend	-12.0691
▁ban	-12.0691
▁Sequenz	-12.0691
▁Apollo	-12.0693
▁gases	-12.0694
▁miracle	-12.0695
▁impacts	-12.0696
▁wachsende	-12.0697
▁difficulty	-12.0697
▁victim	-12.0697
▁tribe	-12.0698
▁unmittelbar	-12.0699
▁cable	-12.0702
▁Figuren	-12.0703
lf	-12.0704
▁Elektronen	-12.0706
Vi	-12.0707
▁Taten	-12.0708
▁Bad	-12.0712
▁additional	-12.0713
▁Oxytocin	-12.0715
▁hi	-12.0716
Che	-12.0716
▁explaining	-12.072
▁sendet	-12.0721
–	-12.0721
Unternehmen	-12.0721
India	-12.0724
▁holds	-12.0724
clock	-12.0725
▁IQ	-12.0726
▁hackers	-12.0729
bringt	-12.0731
nahme	-12.0734
ying	-12.0735
▁erweitert	-12.0737
cost	-12.0739
▁Kauf	-12.0741
▁Extrem	-12.0743
▁Kredit	-12.0745
▁einzig	-12.0747
▁gefüllt	-12.0748
Eins	-12.0753
Tag	-12.0754
▁schönes	-12.0758
▁Miss	-12.0761
▁navigate	-12.0767
▁coole	-12.0768
▁rüber	-12.0771
▁Ken	-12.0772
▁beschleunigt	-12.0772
▁Genen	-12.0772
▁joint	-12.0773
einander	-12.0776
▁Ärzten	-12.0779
▁entsprechend	-12.078
▁Women	-12.078
effekt	-12.0783
▁regional	-12.0783
▁refugees	-12.0787
deck	-12.0787
eben	-12.0789
▁threats	-12.0793
▁reiste	-12.0794
▁Institution	-12.0794
shi	-12.0794
▁Koch	-12.0795
Nimm	-12.0796
▁institutional	-12.08
four	-12.0801
Großartig	-12.0802
▁Gelände	-12.0803
▁replicate	-12.0804
richtung	-12.0804
▁Mill	-12.0805
▁Beinen	-12.0805
▁club	-12.0806
▁luck	-12.0806
▁recommend	-12.0807
▁chairs	-12.0807
▁Beach	-12.0808
▁targets	-12.0809
▁sisters	-12.0811
AO	-12.0811
▁owner	-12.0812
stätte	-12.0813
krebs	-12.0813
▁Balance	-12.0813
▁Tibet	-12.0813
‘	-12.0813
▁Analogie	-12.0813
▁Kelly	-12.0813
▁NSA	-12.0813
▁Norwegen	-12.0813
▁October	-12.0813
▁Plätze	-12.0813
▁Schwerkraft	-12.0813
▁barrel	-12.0813
▁devil	-12.0813
▁erstaunt	-12.0813
▁nördlich	-12.0813
▁Mühe	-12.0813
▁Arctic	-12.0814
▁lenken	-12.0814
▁purchase	-12.0814
Offensichtlich	-12.0814
▁supermarket	-12.0814
▁creator	-12.0814
▁Abendessen	-12.0814
▁Allgemeinen	-12.0814
▁Horizont	-12.0814
Glücklicherweise	-12.0814
▁Gift	-12.0814
Somebody	-12.0814
▁signature	-12.0814
▁Snowden	-12.0814
▁abgeschlossen	-12.0814
▁'90	-12.0815
▁friedlich	-12.0815
▁compassionate	-12.0816
▁sicherstellen	-12.0816
▁prop	-12.0816
▁hitting	-12.0816
▁cake	-12.0816
geber	-12.0817
▁cre	-12.0818
▁EU	-12.0818
▁Hochzeit	-12.0818
▁sank	-12.082
▁weitermachen	-12.082
▁berechnet	-12.0821
rückt	-12.0821
▁Ted	-12.0822
▁Fehl	-12.0822
▁suggested	-12.0827
▁shocking	-12.0827
▁bewerten	-12.0829
▁werdet	-12.0831
▁strongly	-12.0831
▁wage	-12.0833
▁photographed	-12.0834
▁Geheimnisse	-12.0835
strahl	-12.0835
▁Konstruktion	-12.0836
▁auftreten	-12.0838
eit	-12.0839
▁auto	-12.0842
▁competitive	-12.0845
▁frog	-12.0845
▁physician	-12.0845
▁dolphin	-12.0846
▁insect	-12.0846
gesellschaft	-12.0849
▁Alltag	-12.0849
▁Far	-12.085
▁operations	-12.0852
▁häufiger	-12.0854
atom	-12.0854
▁agent	-12.0857
▁comp	-12.0858
Bla	-12.0858
▁wundervoll	-12.0858
▁supported	-12.0858
▁Veranstaltung	-12.086
▁deck	-12.0863
▁Take	-12.0864
▁muslimische	-12.0865
Ben	-12.0868
▁fühlten	-12.0869
▁chemischen	-12.0869
liches	-12.087
Charles	-12.0872
▁Institut	-12.0873
▁camel	-12.0874
rage	-12.0877
▁Einkommens	-12.0879
▁Journalist	-12.0882
▁Like	-12.0883
namen	-12.0886
teilung	-12.0887
▁echter	-12.089
eat	-12.089
\"?"	-12.0891
▁Ring	-12.0895
▁heal	-12.0899
▁Station	-12.09
▁sticks	-12.0902
▁Th	-12.0903
▁freundlich	-12.0904
Wa	-12.0905
▁Kreislauf	-12.0907
Fa	-12.0907
▁Flut	-12.0908
probleme	-12.0909
lop	-12.0909
▁needle	-12.091
▁herab	-12.0911
▁west	-12.0911
▁blend	-12.0914
▁Chi	-12.0919
♫	-12.0921
▁partly	-12.0922
schi	-12.0924
▁schießen	-12.0927
▁inneren	-12.0932
▁Lücke	-12.0934
▁Köpfe	-12.0935
▁erfuhr	-12.0938
AS	-12.094
drängt	-12.0941
▁para	-12.0942
gingen	-12.0943
▁Mall	-12.0946
▁startete	-12.0947
▁Love	-12.0947
fische	-12.0948
freund	-12.0949
krankheiten	-12.0949
▁Pferde	-12.0952
unterricht	-12.0953
▁ratio	-12.0954
▁Güte	-12.0955
▁regard	-12.0956
Bau	-12.0957
dge	-12.0958
▁perfekten	-12.0962
▁Gewinner	-12.0962
▁transmit	-12.0962
▁reveals	-12.0962
Trotz	-12.0962
▁Mögliche	-12.0962
▁immediate	-12.0962
▁Council	-12.0963
▁Flughafen	-12.0963
▁hypothesis	-12.0963
▁unfair	-12.0963
▁vergleichbar	-12.0963
▁whatsoever	-12.0963
▁silly	-12.0963
▁finanzieren	-12.0963
▁Herkunft	-12.0963
▁annual	-12.0963
▁Väter	-12.0963
▁expectancy	-12.0963
▁grausam	-12.0963
▁Seife	-12.0963
▁stattfinden	-12.0963
gehoben	-12.0963
▁Wörterbuch	-12.0963
▁kidney	-12.0963
▁paralyzed	-12.0964
▁native	-12.0964
▁historische	-12.0964
▁senken	-12.0965
▁Mischung	-12.0965
▁dumb	-12.0965
▁aim	-12.0965
▁Abstand	-12.0965
▁'70	-12.0965
▁aufwuchs	-12.0968
new	-12.0968
▁imaging	-12.0969
▁nette	-12.0969
▁warning	-12.0969
▁Iranian	-12.0971
▁Dauer	-12.0972
▁Extra	-12.0972
▁beantwortet	-12.0972
▁außerordentlich	-12.0974
▁bot	-12.0974
▁psycho	-12.0975
▁anzuschauen	-12.0978
▁elephants	-12.0978
▁bucks	-12.0981
▁diesmal	-12.0983
▁Fotograf	-12.0983
▁auftauchen	-12.0984
▁Zeichnungen	-12.0984
▁measures	-12.0985
▁lagen	-12.0986
werten	-12.0988
▁vorkommen	-12.0988
▁erzählten	-12.0989
ähnlichen	-12.0989
▁manual	-12.099
▁viewer	-12.0992
▁Greek	-12.0996
▁vermute	-12.0996
▁glückliche	-12.0997
▁schaffte	-12.0998
▁musician	-12.1002
▁zweitens	-12.1004
▁Hä	-12.1006
▁writers	-12.1008
tage	-12.101
▁verbreitete	-12.1011
stücke	-12.1011
▁gewöhnliche	-12.1012
▁Fabriken	-12.1016
▁Küsten	-12.1016
▁leeren	-12.1017
▁washing	-12.1018
Boy	-12.102
▁Management	-12.102
▁Ganz	-12.1021
▁klare	-12.1023
point	-12.1026
▁Des	-12.1029
▁rats	-12.1032
▁Held	-12.1034
▁fate	-12.1038
schneiden	-12.104
▁arise	-12.1041
▁rivers	-12.1041
▁Falle	-12.1042
Leben	-12.1044
▁headed	-12.1045
wende	-12.1045
▁instructions	-12.1049
▁sin	-12.1049
▁Symbole	-12.105
▁verständlich	-12.1051
▁Einige	-12.1053
▁Hass	-12.1055
▁studierte	-12.1055
zahlen	-12.1057
ky	-12.1057
▁Gal	-12.1058
masse	-12.1061
▁tollen	-12.1064
▁einziger	-12.1068
▁43	-12.1069
▁Leistungen	-12.107
▁Denk	-12.1071
grund	-12.1072
▁trage	-12.1072
fähigkeit	-12.1075
mun	-12.1076
▁cats	-12.1077
Tom	-12.1079
Mach	-12.1081
ori	-12.1082
▁bedeutende	-12.1082
take	-12.1084
▁Spannung	-12.1085
▁Einwohner	-12.1086
iness	-12.1089
▁erschien	-12.1095
menge	-12.1096
▁complain	-12.1099
sicher	-12.11
ologen	-12.1103
rabischen	-12.1104
wor	-12.1104
▁package	-12.1105
12	-12.1106
▁Williams	-12.1107
komm	-12.1107
gebiete	-12.1108
▁logisch	-12.1109
▁Stämme	-12.111
▁distinct	-12.1111
abend	-12.1112
▁Quanten	-12.1113
▁incident	-12.1114
▁wrap	-12.1114
=	-12.1114
ifikation	-12.1114
▁Dezember	-12.1114
▁capabilities	-12.1114
▁choosing	-12.1114
▁closing	-12.1114
▁erledigt	-12.1114
▁structural	-12.1114
▁unbelievable	-12.1114
▁unprecedented	-12.1114
▁züchten	-12.1114
▁Italian	-12.1114
▁Venus	-12.1114
▁bedienen	-12.1114
▁konstruiert	-12.1114
▁unheimlich	-12.1114
▁Gerüst	-12.1114
▁Tendenz	-12.1114
▁vulnerability	-12.1114
▁Apparat	-12.1114
▁Mittagessen	-12.1114
▁stieß	-12.1114
▁valid	-12.1114
▁Distanz	-12.1114
▁generell	-12.1114
▁pride	-12.1114
▁Vielzahl	-12.1114
▁uncertainty	-12.1114
▁Bindung	-12.1114
▁Stoffwechsel	-12.1114
▁smartphone	-12.1114
▁vereint	-12.1114
▁instant	-12.1114
▁irgendwas	-12.1115
▁Sunday	-12.1115
▁träumen	-12.1115
▁Klick	-12.1115
▁exam	-12.1116
▁unsicher	-12.1116
▁zweieinhalb	-12.1117
▁selfish	-12.1117
▁detection	-12.1118
▁damn	-12.1118
▁Intel	-12.1118
▁mining	-12.1119
Without	-12.1119
yan	-12.1119
▁woke	-12.112
▁Brüder	-12.1121
▁uralte	-12.1122
▁Weltbank	-12.1122
▁homeless	-12.1123
nis	-12.1123
▁fastest	-12.1123
▁universelle	-12.1123
read	-12.1123
▁shocked	-12.1124
▁hydro	-12.1126
▁Verstehen	-12.1127
▁mixed	-12.1127
ante	-12.1129
▁successfully	-12.113
▁dreimal	-12.1131
uring	-12.1131
▁Kreaturen	-12.1132
zwei	-12.1136
▁entering	-12.1136
▁liest	-12.1138
▁palm	-12.1139
▁meme	-12.1139
▁grasp	-12.114
▁beobachtete	-12.1141
▁cartoons	-12.1144
▁Damit	-12.1144
▁schließt	-12.1144
▁Chirurgen	-12.1145
▁pit	-12.1145
▁volunteer	-12.1145
▁Jay	-12.1146
▁Schild	-12.115
▁completed	-12.115
▁philosopher	-12.115
▁trace	-12.1151
▁drone	-12.1151
▁infection	-12.1151
litz	-12.1154
öte	-12.1155
augen	-12.1155
▁habit	-12.1159
▁Meinungen	-12.1159
tron	-12.116
▁wertvolle	-12.1164
▁winning	-12.1166
▁Welche	-12.1166
▁CD	-12.1167
labor	-12.1167
▁Untersuchungen	-12.1173
▁rennen	-12.1173
reiche	-12.1176
▁Handels	-12.1177
▁eigen	-12.1179
▁interestingly	-12.118
▁Peace	-12.118
▁bewegte	-12.1181
Super	-12.1182
George	-12.1182
▁sits	-12.1183
▁zahlreiche	-12.1184
▁tumors	-12.1184
▁stranger	-12.1184
Show	-12.1185
▁körperlich	-12.1186
▁"10	-12.1187
powered	-12.1188
▁süß	-12.1188
million	-12.1189
▁wundervollen	-12.1192
Kids	-12.1193
Neu	-12.1194
virus	-12.12
▁geb	-12.12
▁Anreiz	-12.1203
▁zwingen	-12.1208
▁Schreibtisch	-12.1208
onnen	-12.1209
▁funded	-12.121
greifen	-12.1215
▁öffnete	-12.1216
▁kauft	-12.1219
schritt	-12.122
▁20.000	-12.1225
▁Elektro	-12.1235
▁Banken	-12.1239
▁erfand	-12.1239
▁Prototyp	-12.1239
▁Umfrage	-12.124
▁Rauch	-12.1241
Through	-12.1243
rücken	-12.1246
▁compromise	-12.1249
▁lawyers	-12.1253
▁Geschlechts	-12.1257
▁bee	-12.1258
▁interessantes	-12.1258
▁ego	-12.1258
▁12-	-12.1259
▁landete	-12.1259
rank	-12.1259
feuer	-12.1261
▁Nu	-12.1261
▁confront	-12.1261
▁fortunate	-12.1265
schluss	-12.1266
▁Arduino	-12.1268
▁December	-12.1268
▁Kansas	-12.1268
▁Optimismus	-12.1268
▁Pyramide	-12.1268
▁Reichweite	-12.1268
▁extension	-12.1268
▁geredet	-12.1268
▁kombinieren	-12.1268
▁leather	-12.1268
▁microbial	-12.1268
fabrik	-12.1268
▁multinational	-12.1268
▁cyber	-12.1268
▁methane	-12.1268
▁Court	-12.1268
▁Streben	-12.1268
▁bribe	-12.1268
▁gewissermaßen	-12.1268
▁stattfindet	-12.1268
▁ongoing	-12.1268
▁1995	-12.1268
▁stamp	-12.1269
▁Nike	-12.1269
▁stoßen	-12.1269
▁Kurzem	-12.1269
▁genetically	-12.1269
schreiben	-12.127
▁gelähmt	-12.127
▁durchzuführen	-12.127
▁elected	-12.1271
▁homework	-12.1271
▁confused	-12.1271
▁trainieren	-12.1272
▁anhalten	-12.1272
digit	-12.1272
▁Genie	-12.1273
▁improving	-12.1273
▁informed	-12.1273
▁healthier	-12.1274
▁Königin	-12.1274
▁realizing	-12.1274
▁adopted	-12.1275
▁Zweiten	-12.1275
▁gefährdet	-12.1276
▁Such	-12.1279
▁suffered	-12.1279
code	-12.128
▁derzeitige	-12.128
▁redet	-12.1284
▁unable	-12.1285
▁invested	-12.1285
▁angeschaut	-12.1286
▁upside	-12.1287
▁überlassen	-12.1289
▁classical	-12.129
▁pad	-12.1291
▁Kleider	-12.1292
▁pharmaceutical	-12.1293
▁entschlossen	-12.1295
▁tar	-12.1301
▁Verbraucher	-12.1301
▁Magazine	-12.1302
swert	-12.1302
▁shirt	-12.1302
▁melt	-12.1304
▁egg	-12.1305
▁Füßen	-12.1306
▁judgment	-12.1306
▁mosquito	-12.1307
▁survived	-12.1307
some	-12.1308
▁journal	-12.1313
tub	-12.1315
▁beziehen	-12.1316
▁5.000	-12.1319
flug	-12.1321
▁Alice	-12.1321
None	-12.1328
▁Pi	-12.1332
▁Lewis	-12.1335
▁Objekten	-12.1339
Problem	-12.1341
world	-12.1341
geschrieben	-12.1342
▁fusion	-12.1343
ump	-12.1345
Cha	-12.1348
▁suck	-12.1348
▁lehrt	-12.1348
▁Vortrags	-12.1351
pper	-12.1353
▁34	-12.1354
fold	-12.1354
▁dick	-12.1354
▁Profit	-12.1355
▁trainiert	-12.1356
▁exception	-12.1356
ians	-12.1357
▁daughters	-12.1359
ierbar	-12.1362
▁fressen	-12.1365
▁Au	-12.1366
TB	-12.1369
essel	-12.1375
ole	-12.1375
▁dung	-12.1378
▁unabhängige	-12.138
▁bears	-12.1381
wal	-12.1383
▁Spe	-12.1383
▁kurzer	-12.1387
geholt	-12.1394
▁Kim	-12.1394
gebaut	-12.1397
▁100-	-12.1399
▁tracks	-12.1401
▁Ost	-12.1401
▁observe	-12.1401
▁schau	-12.1405
▁50.000	-12.1406
zustand	-12.141
▁Zentral	-12.1412
▁"20	-12.1416
▁Genome	-12.1416
▁Privat	-12.1419
anlagen	-12.1419
gon	-12.1419
▁horizon	-12.1424
▁Algorithmus	-12.1424
▁Ignoranz	-12.1424
▁Smartphone	-12.1424
▁Töchter	-12.1424
▁experiencing	-12.1424
▁hemisphere	-12.1424
▁magnitude	-12.1424
▁strategic	-12.1424
▁Immunsystem	-12.1424
▁bestätigt	-12.1424
▁chaotisch	-12.1424
▁iPad	-12.1424
▁Interpretation	-12.1424
▁Tafel	-12.1424
▁amateur	-12.1424
▁Hersteller	-12.1424
▁leaf	-12.1424
▁Tiefsee	-12.1424
▁Töne	-12.1424
▁1997	-12.1425
▁Supermarkt	-12.1425
▁tongue	-12.1425
▁authorities	-12.1425
▁wildlife	-12.1425
▁gradually	-12.1425
▁marketplace	-12.1425
▁speichern	-12.1425
▁Methan	-12.1425
▁quad	-12.1425
▁Versagen	-12.1425
▁friendship	-12.1425
▁gods	-12.1426
▁campus	-12.1427
▁Auflösung	-12.1427
▁verfügen	-12.1427
▁Hawking	-12.1427
▁Tinte	-12.1428
▁Ausschnitt	-12.1428
▁workplace	-12.1428
▁Garage	-12.1428
▁Sturm	-12.1429
▁vielerlei	-12.143
▁Abschnitt	-12.1431
horn	-12.1431
▁comedy	-12.1431
kind	-12.1431
▁Unsere	-12.1433
netzwerk	-12.1433
▁widely	-12.1433
▁Halb	-12.1433
▁profoundly	-12.1434
▁owned	-12.1434
▁geschlagen	-12.1435
aktiv	-12.1438
▁import	-12.1438
ano	-12.1441
▁detailed	-12.1442
▁Arzneimittel	-12.1442
glo	-12.1442
▁included	-12.1444
▁Verletzungen	-12.1445
▁Programmierer	-12.1449
▁investing	-12.145
▁Energien	-12.145
ationen	-12.1451
gene	-12.1455
▁Punkten	-12.1456
▁Eisen	-12.1456
▁lokal	-12.1458
▁kn	-12.1459
using	-12.146
ahr	-12.1461
Time	-12.1463
▁wozu	-12.1463
▁flows	-12.1464
▁scenario	-12.1465
▁clue	-12.1466
▁assumption	-12.1466
▁biologist	-12.1466
▁economist	-12.1466
▁tone	-12.1468
▁Schichten	-12.1472
nge	-12.1475
▁individuellen	-12.1477
wege	-12.1478
▁mayor	-12.1479
▁beg	-12.148
▁Play	-12.148
▁malen	-12.148
zing	-12.1486
▁1,5	-12.1486
▁Erfindungen	-12.1487
▁tent	-12.1491
▁Evan	-12.1493
sized	-12.1494
fiel	-12.1497
versuch	-12.1499
▁ursprünglichen	-12.15
▁integriert	-12.1501
generation	-12.1502
Mädchen	-12.1503
Gleich	-12.1503
▁educated	-12.1505
Hand	-12.1509
ography	-12.1511
legung	-12.1517
▁metric	-12.152
▁Hol	-12.1521
▁cra	-12.1522
▁praktische	-12.1523
▁poems	-12.1524
▁Besten	-12.1527
link	-12.1528
▁Charlie	-12.1532
▁Beobachtung	-12.1533
▁anstellen	-12.1535
▁Zum	-12.1536
wat	-12.1538
awa	-12.154
▁religiöse	-12.1541
▁breaks	-12.1541
punkte	-12.1543
▁habits	-12.1544
▁affects	-12.1547
istisch	-12.1554
▁aussah	-12.1555
▁scar	-12.1555
▁Ameise	-12.1555
▁Schlange	-12.1555
▁Einrichtung	-12.1555
▁Merkmale	-12.1559
▁bun	-12.1559
▁Steine	-12.1562
ieß	-12.1564
▁Rasse	-12.1565
öse	-12.1568
▁alarm	-12.1569
och	-12.157
anlage	-12.1574
hop	-12.1575
▁Every	-12.1576
▁twist	-12.1577
▁Tra	-12.158
▁Acht	-12.1581
▁Bergen	-12.1581
▁logical	-12.1581
▁Disney	-12.1583
▁1994	-12.1583
▁Church	-12.1583
▁Hardware	-12.1583
▁Poesie	-12.1583
▁Zentimeter	-12.1583
▁beneath	-12.1583
▁beschleunigen	-12.1583
▁chamber	-12.1583
▁curriculum	-12.1583
▁hybrid	-12.1583
▁miserable	-12.1583
▁tendency	-12.1583
▁tsunami	-12.1583
▁überqueren	-12.1583
▁Installation	-12.1583
▁Portugal	-12.1583
▁Sudan	-12.1583
▁Trinkwasser	-12.1583
▁Verwaltung	-12.1583
▁coordinate	-12.1583
▁erheblich	-12.1583
▁verarbeitet	-12.1583
▁verboten	-12.1583
▁verwirrt	-12.1583
▁Tanzania	-12.1583
▁Bandbreite	-12.1583
▁Führungskräfte	-12.1583
▁optimism	-12.1583
▁LHC	-12.1583
▁Hilfsmittel	-12.1583
▁Unsicherheit	-12.1583
Krankenschwester	-12.1583
▁Mentor	-12.1583
▁prüfen	-12.1583
▁Königreich	-12.1583
▁Pilot	-12.1584
▁verheiratet	-12.1584
▁factories	-12.1584
▁ruft	-12.1584
Solche	-12.1584
▁Autobahn	-12.1584
▁subway	-12.1584
▁bored	-12.1585
getragen	-12.1585
▁verhält	-12.1586
▁Vereinte	-12.1586
▁instantly	-12.1587
▁morality	-12.1587
▁grösser	-12.1587
▁intersection	-12.1587
▁präsentieren	-12.159
▁Ego	-12.159
▁Kiste	-12.159
▁Formel	-12.1591
▁agreement	-12.1592
rey	-12.1592
▁widmen	-12.1593
▁tiefen	-12.1593
▁eingeschlossen	-12.1594
▁Menschenrechte	-12.1594
▁450	-12.1595
▁Abu	-12.1597
kette	-12.1598
schrei	-12.16
▁Oklahoma	-12.1601
▁Studierenden	-12.1603
▁Einzelnen	-12.1604
▁jumped	-12.1604
▁psychopath	-12.1605
▁zahlt	-12.1605
▁betreten	-12.1605
▁Februar	-12.1606
▁astro	-12.1606
99	-12.1606
▁uniform	-12.1609
▁Flu	-12.1609
▁formt	-12.1611
regen	-12.1611
▁Jordan	-12.1612
Wait	-12.1613
▁mitteilen	-12.1613
Warte	-12.1615
▁approaches	-12.1619
ehe	-12.162
▁Francis	-12.162
▁Ä	-12.1621
▁redesign	-12.1621
ographic	-12.1621
▁flowing	-12.1623
▁irgendeiner	-12.1625
▁improved	-12.1625
▁aufgeben	-12.1625
▁Trade	-12.1626
▁cluster	-12.1627
▁shore	-12.1632
▁expecting	-12.1633
isierten	-12.1634
▁finanziellen	-12.1634
▁Auch	-12.1635
aking	-12.1636
▁staying	-12.1637
fähig	-12.1638
firmen	-12.1641
▁Messer	-12.1643
▁obstacles	-12.1646
▁geheime	-12.1647
▁meint	-12.1649
▁comic	-12.165
fri	-12.1651
▁Brücken	-12.1652
▁Keith	-12.1652
▁Andere	-12.1654
▁seas	-12.1655
▁Motoren	-12.1655
▁160	-12.1655
place	-12.1656
▁einnehmen	-12.1657
▁pairs	-12.1658
▁Papa	-12.1659
Somit	-12.1659
gung	-12.166
▁Wale	-12.1661
Bruno	-12.1664
lässt	-12.1665
▁einstellen	-12.1665
▁traditions	-12.1666
▁Tausenden	-12.167
known	-12.1676
▁remembered	-12.1676
Art	-12.1678
▁motivieren	-12.168
swachstum	-12.1682
▁Jet	-12.1683
Big	-12.1685
▁Interessante	-12.1688
▁column	-12.1689
eva	-12.169
▁beam	-12.1702
▁ankommen	-12.1705
▁behauptet	-12.1707
▁articles	-12.171
▁gaps	-12.1711
▁Social	-12.1712
aufnahmen	-12.1712
▁wüsste	-12.1716
anischen	-12.1722
▁Gründer	-12.1727
▁dünne	-12.1731
▁disc	-12.1731
▁physicists	-12.1734
▁effektiver	-12.1735
illa	-12.1736
AR	-12.1736
zuziehen	-12.1738
▁vorn	-12.1738
▁Zahn	-12.1742
▁Rollstuhl	-12.1743
aktivität	-12.1743
gebäude	-12.1744
Herangehensweise	-12.1744
▁Bescheid	-12.1744
▁Kosovo	-12.1744
▁Nachmittag	-12.1744
▁Namibia	-12.1744
▁Society	-12.1744
▁Türkei	-12.1744
▁Verzweiflung	-12.1744
▁Wünsche	-12.1744
▁burden	-12.1744
▁cosmic	-12.1744
▁facilities	-12.1744
▁glimpse	-12.1744
▁interior	-12.1744
▁probieren	-12.1744
▁reducing	-12.1744
▁remix	-12.1744
▁trajectory	-12.1744
▁Liberia	-12.1744
▁Offenheit	-12.1744
▁gewohnt	-12.1744
▁innocent	-12.1744
▁versorgt	-12.1744
▁jahrelang	-12.1744
▁überwachen	-12.1744
▁Wolfram	-12.1744
▁Rhythmus	-12.1744
▁generous	-12.1744
▁ähnelt	-12.1744
▁Doppel	-12.1745
▁expertise	-12.1745
▁Unfälle	-12.1745
▁addiction	-12.1745
▁honey	-12.1745
▁marry	-12.1745
▁programmiert	-12.1745
▁membrane	-12.1745
▁Mittelpunkt	-12.1745
▁gesucht	-12.1745
▁Leone	-12.1746
▁Einführung	-12.1746
arian	-12.1747
▁gewachsen	-12.1748
▁February	-12.1748
turm	-12.1748
Genauso	-12.1748
▁threatened	-12.1749
▁initially	-12.1749
▁neulich	-12.175
▁künstlich	-12.1751
▁opens	-12.1751
▁Moon	-12.1751
▁Northern	-12.1752
▁archive	-12.1753
▁gathered	-12.1753
▁Schlagzeilen	-12.1753
▁Aufzeichnungen	-12.1754
▁Fettleibigkeit	-12.1754
▁Einzige	-12.1755
▁delivery	-12.1755
▁überdenken	-12.1757
▁Skulptur	-12.1758
▁exponential	-12.1759
▁burned	-12.1759
▁Free	-12.1759
▁coin	-12.1761
außergewöhnliche	-12.1761
▁ships	-12.1763
▁remaining	-12.1764
▁städtischen	-12.1766
▁Alternativen	-12.1767
▁covering	-12.1776
▁chips	-12.1776
▁Impfstoff	-12.1777
▁influenced	-12.1778
▁professionals	-12.178
oma	-12.1781
▁fatal	-12.1783
▁Ufer	-12.1785
▁spielten	-12.1788
ule	-12.1791
▁odds	-12.1792
▁genaue	-12.1792
▁tunnel	-12.1798
flu	-12.1799
▁Club	-12.1799
▁schickten	-12.1801
▁demographic	-12.1801
▁neuesten	-12.1803
▁Altern	-12.1806
▁7.	-12.1808
▁jüngere	-12.181
▁besides	-12.1813
▁ankommt	-12.1816
Allein	-12.1818
▁Data	-12.1822
stiegen	-12.1822
▁Mother	-12.1824
▁breit	-12.1824
▁Flüchtlinge	-12.1825
springen	-12.1827
related	-12.1831
Talk	-12.1832
Zahl	-12.1833
looking	-12.1833
zugeben	-12.1838
▁Cloud	-12.1839
▁Asian	-12.1841
▁tritt	-12.1843
▁basieren	-12.1848
▁niedrige	-12.185
OS	-12.1853
▁Religionen	-12.1861
Keiner	-12.1868
▁drones	-12.1869
▁kannten	-12.187
▁50-	-12.187
▁schafften	-12.1872
▁soup	-12.1872
▁Men	-12.1873
ierende	-12.1875
▁Out	-12.1877
▁Tode	-12.1878
▁Berechnung	-12.188
▁Glaube	-12.188
▁award	-12.1881
MO	-12.1882
▁Amt	-12.1884
Mass	-12.1886
▁Grundstück	-12.189
▁demands	-12.1893
▁schwach	-12.1895
nny	-12.1897
lern	-12.1899
▁appeal	-12.1899
karten	-12.19
▁spark	-12.1906
fully	-12.1906
▁visuell	-12.1906
medizin	-12.1907
▁zweites	-12.1908
▁tragic	-12.1908
gewalt	-12.1908
á	-12.1908
▁Getreide	-12.1908
▁Phantom	-12.1908
Syndrom	-12.1908
▁Bangalore	-12.1908
▁Berührung	-12.1908
▁Luxus	-12.1908
▁Zuhörer	-12.1908
▁akademische	-12.1908
▁beeindruckt	-12.1908
▁cricket	-12.1908
▁dilemma	-12.1908
▁enterprise	-12.1908
▁eröffnen	-12.1908
▁prosthetic	-12.1908
▁qualities	-12.1908
▁steigern	-12.1908
▁vergewaltigt	-12.1908
▁vergrößert	-12.1908
▁verstärkt	-12.1908
▁zutiefst	-12.1908
▁PowerPoint	-12.1908
▁Widerspruch	-12.1908
generating	-12.1908
▁pulse	-12.1908
▁rubber	-12.1908
▁Nepal	-12.1909
▁darzustellen	-12.1909
▁RNA	-12.1909
▁fence	-12.1909
▁simultaneously	-12.1909
▁betonen	-12.1909
▁foster	-12.1909
▁mapping	-12.191
▁Nigerian	-12.1911
▁'80	-12.1912
▁wodurch	-12.1912
▁UV	-12.1914
▁clothing	-12.1914
▁conducted	-12.1914
▁flach	-12.1916
pre	-12.1917
▁Sechs	-12.1917
▁Juli	-12.1918
▁wealthy	-12.1918
▁hierfür	-12.1918
▁beizubringen	-12.1919
▁Bahn	-12.192
▁reflection	-12.192
▁significantly	-12.192
strecken	-12.1921
▁Kommentare	-12.1922
gelassen	-12.1923
▁printed	-12.1923
▁someday	-12.1924
▁Cape	-12.1925
▁detector	-12.1925
▁fur	-12.1931
▁Angestellten	-12.1931
ites	-12.1933
▁bezieht	-12.1933
style	-12.1936
▁Skulpturen	-12.1938
▁Konzert	-12.1939
▁180	-12.1941
▁Blasen	-12.1943
▁charges	-12.1945
▁umsetzen	-12.1949
▁robotics	-12.1951
▁errors	-12.1952
▁Mat	-12.1957
▁ticket	-12.1958
therapie	-12.1958
▁crop	-12.1959
▁bond	-12.1959
▁sichere	-12.1962
▁dreidimensional	-12.1963
▁pound	-12.1963
▁Prozesses	-12.1963
▁hormone	-12.1965
▁140	-12.1966
▁Grundlagen	-12.1968
▁occurs	-12.1968
▁Verkehrs	-12.197
▁Israeli	-12.1972
▁Point	-12.1972
Steve	-12.1974
▁reine	-12.1974
vier	-12.1976
▁Protest	-12.1978
▁merkwürdig	-12.1979
▁supporting	-12.1981
▁socially	-12.1984
dom	-12.1988
▁Dad	-12.1993
▁rape	-12.1993
▁sustain	-12.1994
▁Wissenschafts	-12.1999
fertig	-12.2002
school	-12.2002
Woman	-12.2004
▁Gel	-12.2005
▁physisch	-12.2007
▁legten	-12.2008
▁rose	-12.201
Ex	-12.2012
▁Spitzen	-12.2019
▁bottles	-12.2025
uf	-12.2025
▁murder	-12.2031
14	-12.2035
▁Hab	-12.2038
▁Golden	-12.2042
▁47	-12.2043
▁98	-12.2044
Us	-12.2045
bär	-12.2046
▁Kolonie	-12.2047
▁Lunge	-12.2047
▁Glaubens	-12.2049
▁ähnliches	-12.2051
▁forming	-12.2056
quellen	-12.2056
agen	-12.2059
▁format	-12.206
▁spezifische	-12.2063
▁Bewegungs	-12.2065
▁distinguish	-12.2065
▁guarantee	-12.2065
pä	-12.2071
▁neat	-12.2072
▁occasion	-12.2073
▁Diplomat	-12.2074
▁Robotern	-12.2075
▁schlimmste	-12.2075
Little	-12.2075
▁Jazz	-12.2075
▁Jefferson	-12.2075
▁Nairobi	-12.2075
▁acoustic	-12.2075
▁clay	-12.2075
▁despair	-12.2075
▁eBay	-12.2075
▁endangered	-12.2075
▁ermutigt	-12.2075
▁frustrated	-12.2075
▁fröhlich	-12.2075
▁garbage	-12.2075
▁geprägt	-12.2075
▁glamorous	-12.2075
▁harness	-12.2075
▁sponsor	-12.2075
▁cotton	-12.2075
▁Engel	-12.2075
▁Dutch	-12.2075
▁contemporary	-12.2075
▁Turkey	-12.2075
▁Unabhängigkeit	-12.2075
▁Solarenergie	-12.2075
▁reproduce	-12.2075
▁division	-12.2075
▁ownership	-12.2075
▁Selbstmord	-12.2075
▁vielmals	-12.2075
▁pursuit	-12.2075
▁shipping	-12.2075
▁Seh	-12.2076
▁nutrients	-12.2076
verlust	-12.2076
▁sicherzustellen	-12.2076
▁Blitz	-12.2076
▁crew	-12.2076
▁Milk	-12.2077
▁Feier	-12.2077
▁Liter	-12.2077
▁versetzt	-12.2078
▁Sklaven	-12.2078
▁zugeben	-12.2079
▁comments	-12.2079
▁established	-12.2081
▁Up	-12.2083
▁filmmaker	-12.2083
▁hunting	-12.2083
real	-12.2085
▁arabische	-12.2085
?«	-12.2085
▁friendly	-12.2086
Four	-12.2088
▁float	-12.2088
▁remained	-12.2089
▁chronic	-12.2089
▁Kiribati	-12.209
▁Danny	-12.209
▁aktiviert	-12.209
▁performed	-12.2091
▁Kunststoff	-12.2091
▁Salz	-12.2095
▁Vorhersagen	-12.2097
▁Vernunft	-12.2098
▁channels	-12.2098
▁restliche	-12.2098
▁rent	-12.2098
opfer	-12.2099
▁bush	-12.2101
▁Automobil	-12.2101
▁Blogs	-12.2102
▁chances	-12.2103
▁rolling	-12.2105
▁transportiert	-12.2105
▁moralisch	-12.2106
▁Bildungssystem	-12.2106
▁engines	-12.2108
▁shit	-12.211
Whatever	-12.211
▁kritisch	-12.2111
▁lass	-12.2111
▁wedding	-12.2112
stheorie	-12.2113
▁shots	-12.2114
▁eingestellt	-12.2116
▁bombs	-12.2117
▁Journal	-12.2117
handed	-12.212
▁Emily	-12.2123
▁rainforest	-12.2126
▁medication	-12.2127
▁psychologist	-12.2127
▁ritual	-12.2127
rock	-12.2127
▁panel	-12.2129
cheln	-12.2129
▁tägliche	-12.213
▁lauter	-12.2133
▁teenager	-12.2134
statt	-12.2135
▁geringer	-12.2135
▁exponentiell	-12.2136
▁connects	-12.2137
▁Slums	-12.2138
ummer	-12.2139
▁Rettung	-12.2139
▁Vorbild	-12.2139
▁badly	-12.2139
▁Interface	-12.214
▁serving	-12.214
mate	-12.2141
▁caves	-12.2142
gging	-12.2143
▁Sylvia	-12.2144
▁tie	-12.2152
▁lions	-12.2156
Mal	-12.216
▁Oma	-12.216
▁Buches	-12.2161
Geben	-12.2161
▁slums	-12.2161
▁globaler	-12.2162
▁fließen	-12.2168
▁Klimawandels	-12.217
▁Klassen	-12.2172
rechnen	-12.2172
Source	-12.2173
Peter	-12.2174
Amerikaner	-12.2175
▁jünger	-12.2177
▁Met	-12.2177
szeit	-12.2177
zieren	-12.2177
▁blogs	-12.2179
▁alternatives	-12.218
▁Rettungs	-12.218
angle	-12.219
still	-12.2192
▁reactions	-12.2192
atten	-12.2193
stände	-12.2196
reisen	-12.2197
verbrauch	-12.22
▁Emissionen	-12.2202
▁gro	-12.2203
▁Geburts	-12.2206
▁mutig	-12.2206
kamen	-12.2208
▁cur	-12.221
▁Strecke	-12.2216
krat	-12.2216
▁drawings	-12.2218
▁würdest	-12.2218
Isn	-12.222
leiten	-12.222
Stat	-12.2223
aving	-12.2229
▁tight	-12.2229
haut	-12.223
spiegel	-12.2231
table	-12.2232
hielt	-12.2233
▁establish	-12.2237
▁sketch	-12.2239
▁divers	-12.2241
qualität	-12.2241
▁Zoo	-12.2243
▁Erscheinung	-12.2244
Ungefähr	-12.2244
β	-12.2244
▁Carnegie	-12.2244
▁Jäger	-12.2244
▁Kalorien	-12.2244
▁Venezuela	-12.2244
▁Währung	-12.2244
▁Zimbabwe	-12.2244
▁currency	-12.2244
▁jazz	-12.2244
▁kosmische	-12.2244
▁reliable	-12.2244
▁ubiquitous	-12.2244
▁vergrößern	-12.2244
▁Expedition	-12.2244
▁Käse	-12.2244
▁Michigan	-12.2244
▁Schöpfung	-12.2244
▁Selektion	-12.2244
▁Stabilität	-12.2244
▁befragt	-12.2244
▁beängstigend	-12.2244
▁garantiert	-12.2244
▁schwanger	-12.2244
▁Ängste	-12.2244
▁Motto	-12.2244
▁konsumieren	-12.2245
▁Reihenfolge	-12.2245
▁Wohnzimmer	-12.2245
blatt	-12.2245
▁Hafen	-12.2245
▁investors	-12.2245
▁representative	-12.2245
▁gentleman	-12.2245
zentren	-12.2245
▁üblich	-12.2245
▁Kino	-12.2245
▁getrieben	-12.2245
▁drüber	-12.2245
▁Regal	-12.2246
▁Redner	-12.2246
▁nearby	-12.2246
▁Darm	-12.2246
▁Spain	-12.2247
▁analogy	-12.2249
▁ausländische	-12.225
▁Khan	-12.225
▁graphics	-12.2251
▁previously	-12.2252
▁crystal	-12.2252
▁niemandem	-12.2253
▁30,000	-12.2253
▁Bären	-12.2255
▁intensiv	-12.2255
▁March	-12.2256
pin	-12.2262
▁Bedauern	-12.2263
▁lese	-12.2268
▁Two	-12.2269
▁aufzunehmen	-12.227
▁offering	-12.2272
sweise	-12.2272
zulegen	-12.2275
▁transforming	-12.2276
▁anzunehmen	-12.2277
▁pigs	-12.2278
▁verbrennen	-12.2278
▁nukleare	-12.2279
Step	-12.2281
▁markiert	-12.2281
▁komische	-12.2282
▁ernste	-12.2285
hü	-12.2287
▁Anders	-12.2291
Offen	-12.2292
▁angemessen	-12.2292
▁pond	-12.2292
decke	-12.2293
▁Umgebungen	-12.2293
▁strike	-12.2299
ffer	-12.2302
76	-12.2303
Music	-12.2304
foto	-12.2304
Sc	-12.2305
▁armed	-12.2309
▁recall	-12.231
▁blieben	-12.232
▁Food	-12.2323
▁Hyper	-12.2326
▁Leit	-12.2327
▁restaurants	-12.2331
▁Bruce	-12.2331
▁großartiger	-12.2335
▁Cal	-12.2337
▁Si	-12.2337
▁$1	-12.234
▁Höhen	-12.234
▁Pf	-12.2341
Men	-12.2342
▁Hallo	-12.2343
▁custom	-12.2345
Voice	-12.2348
▁Origami	-12.2348
Krieg	-12.2349
Nummer	-12.2351
dann	-12.2352
bleiben	-12.2352
menschen	-12.2352
▁gedreht	-12.2358
Glauben	-12.2358
▁kills	-12.2362
▁tötet	-12.2367
▁wirksam	-12.2374
▁Milo	-12.2376
▁Passwörter	-12.2388
matic	-12.2391
istischen	-12.2393
lehrer	-12.2395
ston	-12.2398
dach	-12.2399
geld	-12.2401
Hast	-12.2401
▁merkte	-12.2403
▁Dimension	-12.2403
ppel	-12.2407
▁Wochenende	-12.2408
▁Schwarz	-12.2411
▁Profil	-12.2411
▁fool	-12.2412
▁Hypothese	-12.2412
▁Knoten	-12.2412
▁naive	-12.2413
▁sorgt	-12.2414
▁classrooms	-12.2414
▁veröffentlichte	-12.2415
▁qu	-12.2416
▁Photo	-12.2417
Although	-12.2417
Dankeschön	-12.2417
verschmutzung	-12.2417
▁Bakterium	-12.2417
▁Erlaubnis	-12.2417
▁Schizophrenie	-12.2417
▁Tokyo	-12.2417
▁Tropfen	-12.2417
▁Tsunami	-12.2417
▁anzuwenden	-12.2417
▁awkward	-12.2417
▁beteiligen	-12.2417
▁categories	-12.2417
▁dokumentiert	-12.2417
▁dopamine	-12.2417
▁precious	-12.2417
▁delay	-12.2417
▁Princeton	-12.2417
▁Rekord	-12.2417
▁auswählen	-12.2417
▁gelingt	-12.2417
▁mutual	-12.2417
▁stattfand	-12.2417
▁canopy	-12.2417
▁earliest	-12.2417
▁streiten	-12.2417
▁triangle	-12.2417
▁Fußgänger	-12.2417
▁Vegas	-12.2417
▁Zehen	-12.2417
▁impressive	-12.2417
▁excitement	-12.2417
▁MoMA	-12.2417
▁tätig	-12.2417
▁falten	-12.2417
▁Freizeit	-12.2417
▁Rennen	-12.2417
▁Gramm	-12.2418
▁witzig	-12.2418
Government	-12.2418
▁occasionally	-12.2418
▁Raumschiff	-12.2418
▁coach	-12.2418
▁visualization	-12.2418
▁transportieren	-12.2419
▁located	-12.242
▁hiding	-12.242
Until	-12.2421
▁evolutionäre	-12.2422
▁200,000	-12.2423
rennen	-12.2424
▁Ernte	-12.2424
Nor	-12.2425
▁Think	-12.2425
▁rasch	-12.2426
▁Diego	-12.2427
▁Geo	-12.243
▁upward	-12.243
▁perceived	-12.243
ziert	-12.243
▁Felder	-12.243
▁Lügen	-12.243
zusetzen	-12.2431
▁dünn	-12.2431
artigen	-12.2432
▁accounts	-12.2434
▁aufhört	-12.2435
▁Impuls	-12.2435
▁glasses	-12.2438
Mr	-12.244
▁Amsterdam	-12.2441
▁Äthiopien	-12.2441
▁Erbe	-12.2442
▁Archiv	-12.2444
▁Gordon	-12.2445
Erzähler	-12.2446
▁langfristige	-12.2447
▁wüssten	-12.2447
▁Kommentar	-12.2447
▁counting	-12.2449
▁closest	-12.2449
▁LKW	-12.2449
Both	-12.245
▁ungewöhnliche	-12.2451
smittel	-12.2452
▁Weißen	-12.2452
▁dating	-12.2453
losigkeit	-12.2454
▁lobe	-12.2456
▁freely	-12.2458
führer	-12.2461
▁profits	-12.2464
▁Affe	-12.2468
las	-12.2469
▁millimeter	-12.2471
▁corporations	-12.2471
▁pill	-12.2474
▁chimpanzee	-12.2475
▁incentive	-12.2475
▁loan	-12.2477
farben	-12.2478
▁Bel	-12.2478
App	-12.2479
▁traits	-12.248
page	-12.248
▁Wüsten	-12.2482
Gl	-12.2484
▁bell	-12.2486
▁52	-12.2492
▁jagen	-12.2493
Same	-12.2493
▁versions	-12.2495
Einfach	-12.2495
▁kluge	-12.2495
▁landscapes	-12.2496
▁Dave	-12.2499
▁einzigartigen	-12.2502
▁Tun	-12.2502
wissen	-12.2502
▁Laptops	-12.2505
amb	-12.2506
▁Entschuldigung	-12.251
▁wiegt	-12.2511
sparen	-12.2511
▁irgend	-12.2512
▁items	-12.2513
▁Schwein	-12.2514
träger	-12.2516
▁shifting	-12.2517
▁streng	-12.252
[...]
