<unk>	0
<s>	0
</s>	0
en	-0
in	-1
▁"	-2
er	-3
ut	-4
▁t	-5
ch	-6
▁a	-7
▁d	-8
▁w	-9
put	-10
":	-11
▁s	-12
▁th	-13
."	-14
nd	-15
ie	-16
es	-17
is	-18
at	-19
on	-20
it	-21
out	-22
▁m	-23
an	-24
as	-25
input	-26
re	-27
output	-28
▁{	-29
▁}	-30
▁},	-31
▁the	-32
▁b	-33
▁h	-34
ich	-35
▁e	-36
ll	-37
.",	-38
or	-39
▁u	-40
▁g	-41
▁o	-42
ar	-43
▁f	-44
▁in	-45
ing	-46
▁n	-47
ou	-48
te	-49
le	-50
▁c	-51
▁die	-52
▁p	-53
▁to	-54
ir	-55
▁v	-56
al	-57
▁is	-58
▁ein	-59
▁S	-60
▁of	-61
▁and	-62
us	-63
om	-64
ig	-65
▁l	-66
▁I	-67
ed	-68
▁k	-69
un	-70
▁und	-71
▁be	-72
▁z	-73
ur	-74
el	-75
ten	-76
▁das	-77
ion	-78
et	-79
▁y	-80
▁that	-81
ro	-82
ent	-83
im	-84
▁ha	-85
ic	-86
ere	-87
▁we	-88
ra	-89
st	-90
▁M	-91
▁A	-92
▁you	-93
em	-94
\"	-95
▁der	-96
▁wh	-97
hr	-98
ter	-99
ve	-100
▁zu	-101
il	-102
ow	-103
▁wir	-104
▁ist	-105
▁it	-106
▁se	-107
▁G	-108
am	-109
▁an	-110
ot	-111
icht	-112
ber	-113
gen	-114
id	-115
▁T	-116
ach	-117
▁W	-118
se	-119
▁B	-120
ier	-121
ind	-122
lich	-123
ge	-124
ol	-125
ben	-126
sch	-127
uf	-128
▁re	-129
ke	-130
all	-131
▁un	-132
▁ver	-133
▁E	-134
▁so	-135
▁on	-136
▁K	-137
▁ich	-138
▁P	-139
he	-140
▁es	-141
ct	-142
▁F	-143
▁D	-144
▁was	-145
ay	-146
▁me	-147
ung	-148
▁st	-149
▁L	-150
▁er	-151
ver	-152
▁al	-153
de	-154
if	-155
um	-156
▁den	-157
And	-158
▁this	-159
▁sie	-160
and	-161
▁-	-162
den	-163
▁j	-164
ck	-165
ür	-166
uch	-167
nen	-168
op	-169
sen	-170
ld	-171
▁all	-172
▁nicht	-173
be	-174
",	-175
ation	-176
▁von	-177
▁--	-178
▁for	-179
ce	-180
▁dass	-181
▁H	-182
ht	-183
ine	-184
▁eine	-185
ann	-186
▁ab	-187
▁\"	-188
▁R	-189
▁r	-190
▁auf	-191
ill	-192
▁als	-193
▁im	-194
est	-195
▁do	-196
der	-197
ag	-198
Und	-199
hen	-200
her	-201
▁ne	-202
ess	-203
▁ge	-204
▁mit	-205
ly	-206
ith	-207
▁Sie	-208
ste	-209
▁are	-210
isch	-211
▁sch	-212
ally	-213
▁wie	-214
ul	-215
▁uns	-216
▁V	-217
▁man	-218
aus	-219
enn	-220
▁war	-221
▁with	-222
oo	-223
▁le	-224
▁N	-225
▁have	-226
kt	-227
men	-228
▁he	-229
▁they	-230
▁sich	-231
os	-232
au	-233
we	-234
▁mo	-235
ers	-236
▁can	-237
▁J	-238
▁as	-239
▁wor	-240
▁C	-241
und	-242
ab	-243
iv	-244
ant	-245
ad	-246
ib	-247
über	-248
ell	-249
ort	-250
▁pro	-251
ust	-252
ern	-253
▁i	-254
So	-255
ön	-256
▁sind	-257
▁what	-258
▁com	-259
ies	-260
▁sp	-261
▁go	-262
▁at	-263
af	-264
▁dies	-265
▁Z	-266
pp	-267
▁für	-268
▁1	-269
ould	-270
ien	-271
ist	-272
▁fr	-273
art	-274
▁haben	-275
▁ex	-276
ik	-277
▁about	-278
▁St	-279
▁hat	-280
▁not	-281
Th	-282
00	-283
ze	-284
▁aus	-285
Ich	-286
iel	-287
▁um	-288
▁ch	-289
ese	-290
ive	-291
▁über	-292
og	-293
ahr	-294
ein	-295
ne	-296
oll	-297
▁des	-298
hl	-299
▁U	-300
▁or	-301
▁som	-302
▁kön	-303
ight	-304
▁Le	-305
end	-306
▁wer	-307
▁dem	-308
▁de	-309
qu	-310
The	-311
▁my	-312
▁there	-313
mer	-314
▁pe	-315
ike	-316
ink	-317
▁sa	-318
ate	-319
▁ma	-320
ople	-321
igen	-322
▁Sch	-323
.\"	-324
▁con	-325
▁sh	-326
pt	-327
ity	-328
▁O	-329
th	-330
och	-331
▁one	-332
?"	-333
▁people	-334
ass	-335
▁diese	-336
ff	-337
elt	-338
▁like	-339
▁from	-340
ide	-341
tw	-342
ran	-343
esch	-344
ure	-345
▁ar	-346
?",	-347
ause	-348
Das	-349
▁us	-350
▁da	-351
▁our	-352
ang	-353
now	-354
▁also	-355
ensch	-356
▁einen	-357
▁wenn	-358
ast	-359
▁but	-360
▁bec	-361
ru	-362
zen	-363
ook	-364
▁out	-365
▁In	-366
▁get	-367
▁ih	-368
ieren	-369
ted	-370
ap	-371
It	-372
▁know	-373
Es	-374
▁just	-375
▁Ge	-376
▁Ar	-377
ear	-378
▁können	-379
▁pl	-380
▁Pro	-381
ick	-382
▁thing	-383
ungen	-384
▁werden	-385
▁2	-386
Wir	-387
iert	-388
ute	-389
▁vor	-390
ild	-391
▁sein	-392
▁her	-393
▁oder	-394
▁them	-395
alk	-396
oug	-397
▁ent	-398
ub	-399
ite	-400
per	-401
▁these	-402
▁very	-403
▁up	-404
▁think	-405
▁if	-406
ah	-407
We	-408
▁who	-409
orm	-410
our	-411
ige	-412
ound	-413
▁Be	-414
one	-415
iz	-416
▁mach	-417
nt	-418
Die	-419
▁kann	-420
But	-421
▁by	-422
ain	-423
▁Er	-424
ken	-425
od	-426
▁einer	-427
▁Ver	-428
▁auch	-429
ack	-430
▁aber	-431
▁going	-432
ät	-433
▁einem	-434
▁Mensch	-435
ial	-436
▁gen	-437
ob	-438
ud	-439
▁some	-440
Sie	-441
eren	-442
▁see	-443
▁act	-444
olog	-445
pl	-446
▁when	-447
ibt	-448
▁nach	-449
zt	-450
▁dar	-451
ard	-452
änd	-453
▁your	-454
age	-455
ry	-456
schaf	-457
▁en	-458
▁more	-459
ame	-460
▁nur	-461
ft	-462
▁An	-463
▁te	-464
ert	-465
▁because	-466
▁mein	-467
▁year	-468
▁had	-469
ischen	-470
reat	-471
▁wird	-472
▁etw	-473
ör	-474
▁sehr	-475
to	-476
ime	-477
ect	-478
▁will	-479
ble	-480
▁Re	-481
ond	-482
urch	-483
▁hier	-484
ise	-485
fen	-486
▁would	-487
ück	-488
▁ever	-489
▁how	-490
ug	-491
itt	-492
▁which	-493
ose	-494
▁Menschen	-495
ple	-496
ood	-497
äch	-498
▁look	-499
ous	-500
are	-501
▁their	-502
▁am	-503
keit	-504
▁were	-505
ak	-506
▁–	-507
▁work	-508
▁really	-509
issen	-510
ri	-511
ther	-512
hal	-513
▁mich	-514
ign	-515
sp	-516
hing	-517
ually	-518
chen	-519
▁gibt	-520
▁Un	-521
▁inter	-522
In	-523
Aber	-524
▁Te	-525
ong	-526
heit	-527
▁way	-528
▁Jahr	-529
ls	-530
▁gl	-531
▁gro	-532
▁wur	-533
You	-534
me	-535
▁per	-536
lle	-537
du	-538
▁world	-539
▁dann	-540
▁vie	-541
ven	-542
chn	-543
rie	-544
iff	-545
▁qu	-546
.\""	-547
▁has	-548
sten	-549
▁here	-550
lie	-551
▁♫	-552
wo	-553
▁ste	-554
▁ihr	-555
ater	-556
ions	-557
ment	-558
ia	-559
▁noch	-560
▁time	-561
ace	-562
llen	-563
ough	-564
▁Ih	-565
ommen	-566
▁etwas	-567
ore	-568
eit	-569
▁then	-570
schaft	-571
▁fe	-572
▁other	-573
▁Welt	-574
act	-575
▁Sp	-576
än	-577
tern	-578
▁into	-579
ac	-580
▁every	-581
▁mir	-582
▁say	-583
▁don	-584
ren	-585
▁sehen	-586
▁We	-587
auf	-588
▁habe	-589
ank	-590
ue	-591
▁bet	-592
sel	-593
▁could	-594
▁mus	-595
ische	-596
▁dieser	-597
▁actually	-598
▁pr	-599
▁durch	-600
beit	-601
▁mehr	-602
▁zur	-603
ip	-604
ens	-605
▁ke	-606
ult	-607
lichen	-608
les	-609
▁want	-610
▁bra	-611
▁sag	-612
ner	-613
This	-614
▁where	-615
▁years	-616
▁jed	-617
yste	-618
▁things	-619
▁now	-620
▁ag	-621
ring	-622
▁gr	-623
ED	-624
▁Leben	-625
▁did	-626
▁viel	-627
cht	-628
liche	-629
ec	-630
ical	-631
rans	-632
etzt	-633
▁sc	-634
form	-635
▁somet	-636
▁alle	-637
▁been	-638
▁find	-639
Als	-640
▁ro	-641
ice	-642
zu	-643
▁bei	-644
▁Fra	-645
▁make	-646
blem	-647
üs	-648
▁any	-649
▁cl	-650
Now	-651
ome	-652
▁diff	-653
▁happ	-654
ile	-655
gan	-656
hn	-657
▁po	-658
ire	-659
iver	-660
ystem	-661
▁Zeit	-662
ake	-663
Wh	-664
▁ob	-665
▁let	-666
▁no	-667
fach	-668
▁tra	-669
▁need	-670
fl	-671
▁zum	-672
ory	-673
rei	-674
ph	-675
▁unsere	-676
▁gan	-677
klich	-678
▁wurde	-679
ans	-680
▁Ch	-681
▁mö	-682
inge	-683
irst	-684
▁said	-685
▁part	-686
ähr	-687
ree	-688
▁unter	-689
ife	-690
wer	-691
ßen	-692
mt	-693
▁over	-694
▁bl	-695
▁sel	-696
▁right	-697
▁wür	-698
gt	-699
.\"",	-700
chte	-701
▁lo	-702
ys	-703
ungs	-704
als	-705
assen	-706
▁Ihnen	-707
che	-708
▁ihre	-709
▁zwe	-710
▁something	-711
▁Gesch	-712
Wenn	-713
able	-714
chnolog	-715
▁machen	-716
pr	-717
▁back	-718
ger	-719
ount	-720
illion	-721
▁wo	-722
ark	-723
fü	-724
▁two	-725
They	-726
▁than	-727
ents	-728
iter	-729
▁bu	-730
000	-731
▁much	-732
▁einfach	-733
aten	-734
▁got	-735
▁wirklich	-736
acht	-737
▁call	-738
▁tun	-739
▁new	-740
▁3	-741
▁kind	-742
▁immer	-743
ations	-744
bst	-745
▁first	-746
▁those	-747
erson	-748
▁talk	-749
▁meine	-750
▁Kind	-751
▁bes	-752
ange	-753
▁Se	-754
ittle	-755
ely	-756
fr	-757
ord	-758
erst	-759
▁kon	-760
▁ze	-761
isten	-762
▁fü	-763
▁little	-764
▁imp	-765
▁weil	-766
own	-767
av	-768
aut	-769
ale	-770
cent	-771
▁woll	-772
▁lot	-773
▁Th	-774
▁res	-775
▁ra	-776
?\"	-777
▁Gr	-778
▁beg	-779
rit	-780
iger	-781
eln	-782
way	-783
▁she	-784
▁his	-785
▁ph	-786
▁bis	-787
▁ac	-788
ase	-789
▁unser	-790
ats	-791
▁dis	-792
hmen	-793
▁ges	-794
▁müs	-795
▁kom	-796
ath	-797
▁co	-798
▁hatte	-799
▁pre	-800
▁most	-801
▁Ne	-802
nte	-803
uchen	-804
▁dieses	-805
▁kle	-806
leich	-807
ody	-808
Er	-809
▁hum	-810
uen	-811
▁life	-812
är	-813
hlen	-814
▁only	-815
vel	-816
▁Ich	-817
glich	-818
▁real	-819
▁dam	-820
ktion	-821
ition	-822
ated	-823
▁keine	-824
▁ad	-825
▁diesem	-826
▁Ein	-827
▁wissen	-828
schie	-829
ish	-830
ichte	-831
mal	-832
▁even	-833
Also	-834
▁day	-835
ram	-836
▁müssen	-837
▁Art	-838
inn	-839
▁Ges	-840
ok	-841
bar	-842
▁gut	-843
ance	-844
▁thr	-845
olut	-846
▁star	-847
▁Leute	-848
ges	-849
erent	-850
xt	-851
ons	-852
igkeit	-853
▁soll	-854
cri	-855
gr	-856
other	-857
▁viele	-858
iß	-859
▁pass	-860
▁lie	-861
▁vers	-862
▁take	-863
▁hel	-864
▁different	-865
▁ide	-866
old	-867
▁many	-868
▁waren	-869
▁andere	-870
▁fl	-871
▁good	-872
wn	-873
▁Dinge	-874
▁Or	-875
▁sagen	-876
▁Und	-877
▁groß	-878
▁tr	-879
unden	-880
ors	-881
▁Jahren	-882
▁diesen	-883
▁sagte	-884
gl	-885
▁su	-886
int	-887
▁bef	-888
▁ind	-889
ict	-890
▁does	-891
▁eines	-892
▁Wir	-893
▁bin	-894
▁Trans	-895
▁19	-896
▁20	-897
▁through	-898
That	-899
get	-900
▁nat	-901
▁down	-902
gend	-903
▁show	-904
ekt	-905
▁comp	-906
ammen	-907
ont	-908
cript	-909
tit	-910
▁around	-911
off	-912
urn	-913
▁Sub	-914
▁cont	-915
▁hin	-916
ty	-917
▁zwei	-918
..	-919
He	-920
igt	-921
iss	-922
ient	-923
▁put	-924
▁gew	-925
ität	-926
▁verb	-927
oc	-928
▁Talk	-929
▁jetzt	-930
▁anderen	-931
▁bek	-932
▁kein	-933
▁wieder	-934
▁5	-935
ience	-936
usammen	-937
cess	-938
ary	-939
ible	-940
▁em	-941
ahre	-942
▁tell	-943
TED	-944
ichtig	-945
lleicht	-946
▁use	-947
ds	-948
▁off	-949
Was	-950
ss	-951
▁Aus	-952
titles	-953
▁Subtitles	-954
▁Transcript	-955
ian	-956
▁10	-957
▁being	-958
▁glau	-959
ious	-960
ought	-961
fe	-962
auen	-963
What	-964
oss	-965
▁comm	-966
▁selbst	-967
igh	-968
▁alles	-969
tel	-970
ual	-971
▁würde	-972
▁problem	-973
ower	-974
arn	-975
▁Es	-976
ep	-977
▁inc	-978
▁nie	-979
▁bring	-980
att	-981
ful	-982
▁happen	-983
ede	-984
ars	-985
▁same	-986
▁En	-987
▁Unter	-988
▁stud	-989
▁damit	-990
ün	-991
There	-992
▁ins	-993
ism	-994
▁fun	-995
▁best	-996
geb	-997
▁sm	-998
▁try	-999
▁human	-1000
▁du	-1001
▁wen	-1002
ject	-1003
omen	-1004
▁gem	-1005
halten	-1006
llt	-1007
▁fact	-1008
▁Vor	-1009
tra	-1010
hren	-1011
yp	-1012
nis	-1013
▁come	-1014
iden	-1015
amil	-1016
▁4	-1017
day	-1018
ost	-1019
▁The	-1020
▁geht	-1021
ces	-1022
▁sur	-1023
▁count	-1024
▁Jahre	-1025
▁may	-1026
▁doing	-1027
äl	-1028
,",	-1029
Man	-1030
▁big	-1031
▁great	-1032
uss	-1033
formation	-1034
ting	-1035
ade	-1036
▁three	-1037
▁zurück	-1038
ically	-1039
▁lang	-1040
ail	-1041
▁gesch	-1042
▁Pl	-1043
▁system	-1044
ics	-1045
▁Ind	-1046
tet	-1047
ction	-1048
▁sim	-1049
▁end	-1050
▁start	-1051
▁wä	-1052
▁hal	-1053
fter	-1054
ives	-1055
ivers	-1056
▁bit	-1057
▁muss	-1058
▁Auf	-1059
ucht	-1060
▁inv	-1061
▁weiter	-1062
Ein	-1063
▁ask	-1064
▁Das	-1065
▁And	-1066
▁dec	-1067
piel	-1068
io	-1069
▁denn	-1070
kl	-1071
▁build	-1072
▁So	-1073
öß	-1074
▁pol	-1075
▁well	-1076
▁zw	-1077
▁exper	-1078
▁percent	-1079
▁Y	-1080
Dies	-1081
▁produ	-1082
▁gu	-1083
ating	-1084
▁ger	-1085
▁app	-1086
▁schon	-1087
thing	-1088
▁heraus	-1089
▁klein	-1090
Well	-1091
▁ir	-1092
ving	-1093
ves	-1094
▁bas	-1095
▁called	-1096
ächlich	-1097
▁Bl	-1098
Der	-1099
ork	-1100
▁hand	-1101
▁dav	-1102
If	-1103
▁Her	-1104
▁ben	-1105
nten	-1106
üt	-1107
rä	-1108
▁Fl	-1109
self	-1110
ock	-1111
ek	-1112
▁pa	-1113
▁sol	-1114
red	-1115
▁dr	-1116
agen	-1117
▁quest	-1118
az	-1119
ool	-1120
▁Al	-1121
ize	-1122
▁gra	-1123
ler	-1124
▁Arbeit	-1125
▁again	-1126
gel	-1127
▁technolog	-1128
its	-1129
teil	-1130
ates	-1131
ahl	-1132
▁child	-1133
▁ganz	-1134
ull	-1135
▁ele	-1136
▁ev	-1137
▁rel	-1138
bt	-1139
zent	-1140
▁ihnen	-1141
ins	-1142
▁made	-1143
imes	-1144
▁"\"	-1145
alt	-1146
▁vielleicht	-1147
▁möchte	-1148
▁mak	-1149
▁learn	-1150
▁beh	-1151
▁zusammen	-1152
▁Ide	-1153
▁long	-1154
etz	-1155
ities	-1156
▁rem	-1157
▁Amer	-1158
▁import	-1159
▁why	-1160
▁Teil	-1161
▁own	-1162
▁einz	-1163
fahr	-1164
hne	-1165
sche	-1166
inden	-1167
▁design	-1168
▁should	-1169
▁soc	-1170
Wie	-1171
olution	-1172
▁sec	-1173
sam	-1174
bs	-1175
▁Land	-1176
esen	-1177
▁fra	-1178
for	-1179
▁Afr	-1180
▁davon	-1181
▁Mus	-1182
atsächlich	-1183
▁Geschichte	-1184
eld	-1185
entlich	-1186
ierte	-1187
zä	-1188
▁Kinder	-1189
▁Me	-1190
▁person	-1191
▁entw	-1192
▁underst	-1193
ved	-1194
ichten	-1195
▁turn	-1196
▁dort	-1197
▁It	-1198
pf	-1199
ational	-1200
ubl	-1201
onom	-1202
▁change	-1203
aum	-1204
▁wel	-1205
uß	-1206
zie	-1207
▁creat	-1208
oment	-1209
▁gleich	-1210
pro	-1211
vor	-1212
▁rec	-1213
hir	-1214
▁heute	-1215
angen	-1216
▁Tag	-1217
▁Grund	-1218
erm	-1219
▁letz	-1220
▁thought	-1221
uten	-1222
▁Beis	-1223
erg	-1224
▁mean	-1225
▁feel	-1226
weise	-1227
▁play	-1228
ope	-1229
▁car	-1230
▁idea	-1231
▁after	-1232
▁important	-1233
▁today	-1234
▁Mit	-1235
▁hatten	-1236
halb	-1237
rechen	-1238
▁cour	-1239
▁genau	-1240
ielen	-1241
▁its	-1242
▁belie	-1243
ica	-1244
▁didn	-1245
äd	-1246
▁Bild	-1247
Nun	-1248
ular	-1249
chten	-1250
,000	-1251
puter	-1252
anden	-1253
ix	-1254
▁ihn	-1255
hör	-1256
▁TED	-1257
▁help	-1258
▁könnte	-1259
atz	-1260
▁him	-1261
aw	-1262
▁Fre	-1263
ändern	-1264
ane	-1265
▁last	-1266
▁jem	-1267
▁drei	-1268
▁started	-1269
▁einige	-1270
orn	-1271
body	-1272
oren	-1273
pen	-1274
▁Um	-1275
iving	-1276
nde	-1277
▁exam	-1278
stehen	-1279
▁med	-1280
imm	-1281
ings	-1282
mlich	-1283
reich	-1284
gar	-1285
atur	-1286
▁Die	-1287
▁might	-1288
▁kl	-1289
▁wollen	-1290
▁understand	-1291
▁200	-1292
stell	-1293
bei	-1294
asser	-1295
▁darüber	-1296
▁story	-1297
▁paar	-1298
▁spe	-1299
▁better	-1300
tent	-1301
ave	-1302
▁before	-1303
▁still	-1304
ility	-1305
▁went	-1306
▁power	-1307
▁eff	-1308
gram	-1309
ogra	-1310
ellen	-1311
▁schw	-1312
▁wurden	-1313
olle	-1314
ists	-1315
ina	-1316
▁gehen	-1317
▁meiner	-1318
ov	-1319
▁give	-1320
▁course	-1321
▁seine	-1322
erv	-1323
▁nun	-1324
ather	-1325
ts	-1326
ital	-1327
utzen	-1328
▁able	-1329
▁bess	-1330
▁another	-1331
▁Kl	-1332
▁Gen	-1333
▁brain	-1334
▁never	-1335
▁verw	-1336
utz	-1337
▁Problem	-1338
ache	-1339
▁sond	-1340
äh	-1341
amm	-1342
änder	-1343
▁found	-1344
▁werde	-1345
▁cons	-1346
amen	-1347
anz	-1348
▁sl	-1349
schein	-1350
bl	-1351
iten	-1352
arch	-1353
ährend	-1354
,\"	-1355
br	-1356
umber	-1357
ues	-1358
▁Gehir	-1359
▁besch	-1360
▁Intern	-1361
▁tatsächlich	-1362
▁point	-1363
▁fin	-1364
nehmen	-1365
▁He	-1366
▁unserer	-1367
iven	-1368
rat	-1369
Hier	-1370
schieden	-1371
oy	-1372
ander	-1373
▁Beispiel	-1374
▁Wissen	-1375
alth	-1376
▁eigen	-1377
edeut	-1378
▁ec	-1379
▁wahr	-1380
▁kid	-1381
fol	-1382
?\""	-1383
ata	-1384
enden	-1385
▁leben	-1386
ym	-1387
ürlich	-1388
▁zie	-1389
▁Gl	-1390
▁Geb	-1391
▁sondern	-1392
▁weiß	-1393
uff	-1394
ward	-1395
allen	-1396
ennen	-1397
▁next	-1398
▁Ph	-1399
▁gab	-1400
▁Aut	-1401
▁sort	-1402
ott	-1403
▁ago	-1404
▁neue	-1405
▁exp	-1406
▁mon	-1407
▁Reg	-1408
ugen	-1409
gether	-1410
▁together	-1411
▁gel	-1412
▁spec	-1413
▁water	-1414
land	-1415
▁dazu	-1416
▁imag	-1417
▁school	-1418
▁6	-1419
velop	-1420
ode	-1421
▁vom	-1422
▁erst	-1423
kay	-1424
▁commun	-1425
▁mal	-1426
▁New	-1427
▁wäre	-1428
▁place	-1429
ween	-1430
▁pat	-1431
▁trans	-1432
stellen	-1433
▁glob	-1434
▁größ	-1435
▁few	-1436
▁came	-1437
cken	-1438
Diese	-1439
▁erzä	-1440
▁comple	-1441
ited	-1442
▁Kon	-1443
rank	-1444
schen	-1445
eter	-1446
▁Lebens	-1447
read	-1448
öglich	-1449
arm	-1450
▁entwick	-1451
ines	-1452
▁gef	-1453
▁verl	-1454
mit	-1455
▁finden	-1456
▁macht	-1457
achen	-1458
▁technology	-1459
▁sogar	-1460
▁gegen	-1461
▁number	-1462
ets	-1463
▁br	-1464
▁Com	-1465
▁denke	-1466
▁denen	-1467
▁Million	-1468
iness	-1469
gef	-1470
▁Med	-1471
gs	-1472
▁denken	-1473
▁Ste	-1474
öff	-1475
▁hät	-1476
▁expl	-1477
▁plan	-1478
▁kommen	-1479
ized	-1480
▁each	-1481
ingen	-1482
▁high	-1483
▁organ	-1484
▁Zu	-1485
▁between	-1486
ident	-1487
▁used	-1488
▁develop	-1489
▁wichtig	-1490
aufen	-1491
▁Nach	-1492
ps	-1493
oth	-1494
▁zwischen	-1495
▁Hand	-1496
▁Ab	-1497
ters	-1498
▁question	-1499
▁einmal	-1500
▁Gehirn	-1501
hrt	-1502
▁inst	-1503
atch	-1504
ative	-1505
co	-1506
▁art	-1507
afür	-1508
zus	-1509
▁geb	-1510
els	-1511
ierung	-1512
gest	-1513
▁gerade	-1514
cy	-1515
▁Ihre	-1516
Über	-1517
▁Mal	-1518
▁min	-1519
▁gemacht	-1520
▁sen	-1521
▁Technolog	-1522
ster	-1523
ule	-1524
ific	-1525
▁cre	-1526
▁Internet	-1527
affen	-1528
▁weit	-1529
▁small	-1530
▁data	-1531
uge	-1532
▁too	-1533
▁ohne	-1534
arbeit	-1535
▁arbeit	-1536
▁funktion	-1537
▁Ent	-1538
ember	-1539
ika	-1540
▁Frage	-1541
▁geben	-1542
▁vis	-1543
▁four	-1544
▁glaube	-1545
▁interess	-1546
▁kommt	-1547
ways	-1548
▁par	-1549
▁Frauen	-1550
?\"",	-1551
geben	-1552
uer	-1553
▁Wasser	-1554
▁women	-1555
▁looking	-1556
▁15	-1557
▁100	-1558
▁schn	-1559
aterial	-1560
▁bere	-1561
▁ihren	-1562
▁run	-1563
▁näch	-1564
ced	-1565
▁grow	-1566
alen	-1567
schl	-1568
▁met	-1569
kommen	-1570
▁30	-1571
ationen	-1572
▁example	-1573
▁old	-1574
▁el	-1575
▁interest	-1576
gew	-1577
▁ans	-1578
▁done	-1579
▁zeigen	-1580
▁love	-1581
▁letzten	-1582
▁form	-1583
▁cell	-1584
tschaft	-1585
dem	-1586
▁wr	-1587
▁50	-1588
▁Wh	-1589
▁live	-1590
▁partic	-1591
anted	-1592
ably	-1593
▁erste	-1594
ium	-1595
▁dafür	-1596
▁bo	-1597
▁doesn	-1598
unkt	-1599
▁light	-1600
When	-1601
zeit	-1602
immt	-1603
▁set	-1604
▁nichts	-1605
▁8	-1606
ält	-1607
elle	-1608
▁würden	-1609
iolog	-1610
▁care	-1611
▁cent	-1612
gie	-1613
ures	-1614
tz	-1615
ffen	-1616
▁ersten	-1617
▁irgend	-1618
aub	-1619
▁jeder	-1620
ilm	-1621
▁verschieden	-1622
esign	-1623
▁passiert	-1624
ös	-1625
An	-1626
ement	-1627
▁7	-1628
tell	-1629
▁konnte	-1630
▁sk	-1631
▁Univers	-1632
▁sieht	-1633
▁9	-1634
▁eng	-1635
▁second	-1636
ikan	-1637
ruck	-1638
under	-1639
ross	-1640
▁Br	-1641
▁sit	-1642
▁famil	-1643
▁wanted	-1644
led	-1645
ness	-1646
wir	-1647
▁gener	-1648
▁polit	-1649
▁verstehen	-1650
ied	-1651
▁meisten	-1652
▁mag	-1653
▁reg	-1654
▁lar	-1655
▁poss	-1656
▁während	-1657
ands	-1658
cept	-1659
rop	-1660
▁warum	-1661
iele	-1662
▁million	-1663
▁Daten	-1664
amp	-1665
yn	-1666
▁Ex	-1667
▁whole	-1668
unde	-1669
▁daran	-1670
▁mensch	-1671
ernen	-1672
▁Schl	-1673
▁mind	-1674
▁resp	-1675
rupp	-1676
achte	-1677
▁besser	-1678
▁dra	-1679
▁phys	-1680
▁Millionen	-1681
Thank	-1682
▁econom	-1683
▁reas	-1684
selves	-1685
▁Prozent	-1686
▁working	-1687
▁str	-1688
ider	-1689
▁chang	-1690
▁tre	-1691
▁less	-1692
erk	-1693
ogen	-1694
▁sub	-1695
sy	-1696
ma	-1697
▁trying	-1698
fin	-1699
oney	-1700
anke	-1701
ideo	-1702
▁anim	-1703
▁bus	-1704
aking	-1705
▁lassen	-1706
esehen	-1707
▁For	-1708
ift	-1709
weg	-1710
▁etwa	-1711
▁read	-1712
▁begin	-1713
▁Q	-1714
▁De	-1715
▁always	-1716
▁health	-1717
tre	-1718
▁away	-1719
▁sagt	-1720
▁Pr	-1721
air	-1722
▁norm	-1723
▁Fe	-1724
essen	-1725
▁schl	-1726
jekt	-1727
illi	-1728
gehen	-1729
▁fast	-1730
▁children	-1731
ude	-1732
ischer	-1733
▁dire	-1734
▁sollten	-1735
asch	-1736
Bec	-1737
zeug	-1738
▁prob	-1739
▁Idee	-1740
▁..	-1741
All	-1742
Because	-1743
▁believe	-1744
Be	-1745
akt	-1746
▁sollte	-1747
wh	-1748
▁acc	-1749
▁book	-1750
alls	-1751
ural	-1752
atter	-1753
agt	-1754
▁country	-1755
amer	-1756
hip	-1757
äng	-1758
ivid	-1759
Im	-1760
dern	-1761
ilt	-1762
▁You	-1763
▁natürlich	-1764
err	-1765
hlt	-1766
▁Kom	-1767
▁könnten	-1768
▁cor	-1769
cher	-1770
▁stand	-1771
row	-1772
▁ihrer	-1773
ries	-1774
licher	-1775
How	-1776
▁Mon	-1777
▁Geld	-1778
▁bedeut	-1779
app	-1780
▁schnell	-1781
isen	-1782
utter	-1783
ett	-1784
▁meinen	-1785
▁dre	-1786
▁Person	-1787
ollar	-1788
▁US	-1789
lung	-1790
▁supp	-1791
▁using	-1792
str	-1793
arum	-1794
ußer	-1795
▁Weg	-1796
▁frien	-1797
▁Raum	-1798
▁Über	-1799
▁große	-1800
richt	-1801
▁aut	-1802
▁hard	-1803
unk	-1804
ister	-1805
▁meinem	-1806
hin	-1807
▁pict	-1808
▁ja	-1809
vers	-1810
unft	-1811
▁coll	-1812
▁space	-1813
schied	-1814
hrer	-1815
vern	-1816
▁dabei	-1817
▁wollte	-1818
▁project	-1819
▁ganze	-1820
▁fre	-1821
arth	-1822
▁create	-1823
adt	-1824
▁kids	-1825
Un	-1826
aben	-1827
▁sicher	-1828
▁abs	-1829
press	-1830
örper	-1831
▁sprechen	-1832
öglichkeit	-1833
raft	-1834
aces	-1835
uft	-1836
▁mod	-1837
▁jemand	-1838
▁means	-1839
ief	-1840
.000	-1841
▁cou	-1842
ric	-1843
onder	-1844
▁thinking	-1845
los	-1846
▁Aber	-1847
▁ziemlich	-1848
▁tru	-1849
net	-1850
▁open	-1851
▁fut	-1852
ierten	-1853
▁five	-1854
▁sing	-1855
▁bekommen	-1856
▁Verb	-1857
▁mark	-1858
legen	-1859
▁Mar	-1860
▁under	-1861
up	-1862
urs	-1863
▁took	-1864
▁publ	-1865
▁information	-1866
▁such	-1867
▁Ä	-1868
▁home	-1869
▁darauf	-1870
man	-1871
▁ging	-1872
gh	-1873
▁eig	-1874
▁become	-1875
ories	-1876
▁energ	-1877
ünd	-1878
▁Min	-1879
▁hör	-1880
▁teach	-1881
▁everything	-1882
ald	-1883
▁maybe	-1884
▁compan	-1885
volution	-1886
▁money	-1887
▁kam	-1888
nov	-1889
▁ander	-1890
▁arbeiten	-1891
gesch	-1892
kunft	-1893
ständ	-1894
scheinlich	-1895
reen	-1896
ringen	-1897
▁process	-1898
▁food	-1899
urz	-1900
▁Schw	-1901
▁doll	-1902
▁nehmen	-1903
sych	-1904
sehen	-1905
▁Ener	-1906
▁[	-1907
mp	-1908
ird	-1909
▁cle	-1910
▁Is	-1911
▁future	-1912
annt	-1913
▁Wissenschaft	-1914
dr	-1915
ruct	-1916
▁left	-1917
▁moment	-1918
reiben	-1919
▁ass	-1920
▁hist	-1921
▁nam	-1922
arly	-1923
▁walk	-1924
ilen	-1925
▁fas	-1926
ax	-1927
ktur	-1928
icher	-1929
▁Ende	-1930
▁weniger	-1931
▁'	-1932
ohn	-1933
äter	-1934
line	-1935
ouse	-1936
▁York	-1937
äs	-1938
rag	-1939
▁head	-1940
fühl	-1941
▁Gem	-1942
▁kleinen	-1943
vir	-1944
ionen	-1945
St	-1946
▁doch	-1947
abor	-1948
▁enough	-1949
duc	-1950
oot	-1951
▁Man	-1952
▁getting	-1953
▁quite	-1954
▁social	-1955
ograph	-1956
▁Men	-1957
▁Ö	-1958
ennt	-1959
▁Was	-1960
▁comes	-1961
▁sense	-1962
▁energy	-1963
▁global	-1964
▁says	-1965
▁interesting	-1966
orgen	-1967
▁unseren	-1968
▁Entw	-1969
▁vier	-1970
esten	-1971
▁stop	-1972
▁govern	-1973
cer	-1974
iere	-1975
▁prof	-1976
ever	-1977
▁bre	-1978
▁Dank	-1979
aupt	-1980
usst	-1981
ustr	-1982
▁Famil	-1983
▁bedeutet	-1984
ole	-1985
Eine	-1986
ließ	-1987
▁half	-1988
äus	-1989
nah	-1990
▁bewe	-1991
ments	-1992
▁Ger	-1993
ron	-1994
ulation	-1995
▁pop	-1996
▁typ	-1997
▁♪	-1998
▁sign	-1999
ret	-2000
iet	-2001
▁probably	-2002
▁contro	-2003
▁erw	-2004
▁Design	-2005
fte	-2006
▁At	-2007
▁happened	-2008
▁times	-2009
Da	-2010
▁China	-2011
▁beste	-2012
▁Technologie	-2013
cle	-2014
ional	-2015
▁conne	-2016
ertain	-2017
ican	-2018
▁Dollar	-2019
▁making	-2020
Sch	-2021
äft	-2022
▁ihm	-2023
▁Kre	-2024
▁cr	-2025
eine	-2026
▁building	-2027
▁grou	-2028
ices	-2029
▁welche	-2030
▁ser	-2031
▁Information	-2032
▁bringen	-2033
▁Pol	-2034
halt	-2035
▁Möglichkeit	-2036
▁heiß	-2037
▁talking	-2038
aps	-2039
▁seit	-2040
▁Mann	-2041
▁Sache	-2042
▁month	-2043
▁body	-2044
▁Energie	-2045
▁stuff	-2046
▁Vers	-2047
▁brauchen	-2048
▁cur	-2049
ried	-2050
▁Wie	-2051
ially	-2052
▁möglich	-2053
vent	-2054
chite	-2055
▁lives	-2056
▁dachte	-2057
hand	-2058
▁room	-2059
▁beaut	-2060
▁dist	-2061
very	-2062
\",	-2063
eder	-2064
▁gesehen	-2065
▁without	-2066
achsen	-2067
▁kleine	-2068
arten	-2069
fort	-2070
iges	-2071
rad	-2072
ismus	-2073
▁elect	-2074
▁Eur	-2075
▁far	-2076
▁ber	-2077
▁makes	-2078
▁eigentlich	-2079
hol	-2080
▁ungl	-2081
hle	-2082
esearch	-2083
▁pie	-2084
▁Stra	-2085
▁Proble	-2086
▁seem	-2087
▁zeigt	-2088
▁großen	-2089
gle	-2090
▁Wor	-2091
viron	-2092
etzen	-2093
▁Stud	-2094
ately	-2095
iment	-2096
▁countries	-2097
opf	-2098
▁voll	-2099
▁Zukunft	-2100
▁business	-2101
aun	-2102
▁keep	-2103
These	-2104
esent	-2105
ying	-2106
▁Weise	-2107
▁El	-2108
▁else	-2109
undert	-2110
isk	-2111
▁pra	-2112
ument	-2113
▁pos	-2114
ng	-2115
▁job	-2116
▁told	-2117
▁bad	-2118
roß	-2119
▁pret	-2120
ether	-2121
▁side	-2122
aden	-2123
▁Män	-2124
▁gar	-2125
▁Seite	-2126
▁Stadt	-2127
▁pretty	-2128
▁coming	-2129
▁12	-2130
itive	-2131
▁wonder	-2132
▁jeden	-2133
▁wenig	-2134
▁reason	-2135
▁week	-2136
ote	-2137
▁dollars	-2138
▁science	-2139
One	-2140
▁simple	-2141
▁top	-2142
▁Spiel	-2143
▁anything	-2144
▁opp	-2145
▁ret	-2146
▁across	-2147
▁sound	-2148
NA	-2149
▁schle	-2150
▁allow	-2151
My	-2152
zial	-2153
▁fol	-2154
fer	-2155
▁ganzen	-2156
schaften	-2157
▁environ	-2158
▁Bü	-2159
quen	-2160
▁int	-2161
uring	-2162
ckt	-2163
emat	-2164
▁men	-2165
cke	-2166
▁18	-2167
eth	-2168
rib	-2169
▁Inter	-2170
▁phot	-2171
▁Ged	-2172
vie	-2173
▁40	-2174
ende	-2175
▁Gew	-2176
ches	-2177
▁außer	-2178
▁keinen	-2179
ernt	-2180
▁living	-2181
mun	-2182
tellen	-2183
▁Pat	-2184
ulture	-2185
▁Africa	-2186
nf	-2187
▁educ	-2188
leben	-2189
cted	-2190
▁hoch	-2191
ince	-2192
ality	-2193
▁eas	-2194
ator	-2195
undheit	-2196
▁Körper	-2197
▁air	-2198
▁cap	-2199
▁Entwick	-2200
haf	-2201
erne	-2202
For	-2203
▁Ze	-2204
gal	-2205
▁val	-2206
▁gest	-2207
rieben	-2208
▁ey	-2209
ders	-2210
▁hope	-2211
▁seen	-2212
▁ways	-2213
▁je	-2214
\".",	-2215
▁Engl	-2216
▁experience	-2217
ots	-2218
▁Menge	-2219
▁Grupp	-2220
▁rest	-2221
ged	-2222
unst	-2223
▁ä	-2224
Here	-2225
▁gesagt	-2226
▁scient	-2227
▁Buch	-2228
▁Woch	-2229
▁rob	-2230
most	-2231
where	-2232
▁Computer	-2233
▁versuchen	-2234
▁later	-2235
▁Ort	-2236
erence	-2237
▁später	-2238
▁glauben	-2239
ash	-2240
▁saw	-2241
▁Ele	-2242
▁program	-2243
wie	-2244
▁fig	-2245
stellung	-2246
▁research	-2247
▁hätte	-2248
▁Fall	-2249
▁unglaub	-2250
▁Frau	-2251
▁col	-2252
work	-2253
athemat	-2254
ily	-2255
scheid	-2256
▁asked	-2257
▁lernen	-2258
▁hour	-2259
▁vielen	-2260
▁beim	-2261
▁goes	-2262
rom	-2263
tellt	-2264
ker	-2265
sicht	-2266
▁System	-2267
ape	-2268
iverse	-2269
▁indem	-2270
▁seiner	-2271
▁happens	-2272
arte	-2273
▁niem	-2274
ähigkeit	-2275
▁particular	-2276
apt	-2277
iker	-2278
▁char	-2279
▁Natur	-2280
▁„	-2281
▁offen	-2282
iety	-2283
stoff	-2284
▁move	-2285
▁Augen	-2286
She	-2287
▁Haus	-2288
mittel	-2289
achten	-2290
öl	-2291
erein	-2292
▁pers	-2293
▁fest	-2294
utes	-2295
▁Antw	-2296
einander	-2297
▁computer	-2298
▁case	-2299
▁eigenen	-2300
schw	-2301
▁effect	-2302
▁answer	-2303
▁having	-2304
▁oft	-2305
ization	-2306
akes	-2307
▁fal	-2308
ament	-2309
onnen	-2310
▁fünf	-2311
ipp	-2312
▁vir	-2313
▁planet	-2314
▁individ	-2315
▁problems	-2316
ants	-2317
folg	-2318
▁family	-2319
racht	-2320
▁öff	-2321
▁Rob	-2322
▁picture	-2323
itz	-2324
▁stellen	-2325
▁nä	-2326
ume	-2327
ared	-2328
unter	-2329
pe	-2330
illiar	-2331
▁Licht	-2332
▁thous	-2333
▁complete	-2334
▁funktioniert	-2335
üh	-2336
▁schaffen	-2337
▁music	-2338
uck	-2339
ritt	-2340
ision	-2341
▁stre	-2342
▁konnten	-2343
▁city	-2344
ilder	-2345
▁days	-2346
▁gehör	-2347
▁langu	-2348
nung	-2349
oman	-2350
▁bro	-2351
▁heißt	-2352
▁six	-2353
ior	-2354
▁Ber	-2355
▁Earth	-2356
▁mil	-2357
▁unt	-2358
Se	-2359
zeich	-2360
tem	-2361
reichen	-2362
▁environment	-2363
iol	-2364
stand	-2365
▁jedes	-2366
▁equ	-2367
▁land	-2368
ändert	-2369
▁single	-2370
Dann	-2371
▁loc	-2372
▁Spra	-2373
▁level	-2374
ellschaft	-2375
▁komple	-2376
asse	-2377
▁25	-2378
▁Erde	-2379
▁inside	-2380
▁Ihr	-2381
▁Probleme	-2382
▁nutzen	-2383
▁began	-2384
cl	-2385
▁Lie	-2386
▁remember	-2387
As	-2388
ünst	-2389
▁ble	-2390
▁helfen	-2391
▁Produ	-2392
▁young	-2393
▁yet	-2394
kte	-2395
▁dig	-2396
▁public	-2397
ktiv	-2398
ready	-2399
▁Groß	-2400
▁invest	-2401
Let	-2402
▁Qu	-2403
fahren	-2404
▁extre	-2405
isches	-2406
▁while	-2407
▁Milliar	-2408
bo	-2409
zuf	-2410
▁neuen	-2411
▁Organ	-2412
▁prote	-2413
▁Gesundheit	-2414
▁watch	-2415
▁besond	-2416
▁biolog	-2417
▁possible	-2418
abe	-2419
ury	-2420
▁amaz	-2421
itut	-2422
zahl	-2423
▁pain	-2424
ruktur	-2425
▁almost	-2426
▁Moment	-2427
▁Sh	-2428
let	-2429
ided	-2430
▁normal	-2431
▁USA	-2432
▁once	-2433
wusst	-2434
uche	-2435
▁che	-2436
▁hear	-2437
▁ideas	-2438
▁Mutter	-2439
▁basically	-2440
▁disco	-2441
inen	-2442
▁Chr	-2443
▁bed	-2444
▁fund	-2445
▁gute	-2446
▁certain	-2447
▁both	-2448
dition	-2449
anc	-2450
ield	-2451
umen	-2452
heiten	-2453
Warum	-2454
▁suc	-2455
▁Wenn	-2456
▁dise	-2457
▁saying	-2458
▁Kont	-2459
▁net	-2460
▁sure	-2461
▁aller	-2462
ait	-2463
▁—	-2464
ahlen	-2465
gefähr	-2466
▁self	-2467
▁wrong	-2468
▁verk	-2469
chs	-2470
▁betra	-2471
idd	-2472
oice	-2473
▁contin	-2474
▁wahrscheinlich	-2475
rum	-2476
▁allen	-2477
▁treat	-2478
▁whether	-2479
auer	-2480
▁guy	-2481
denken	-2482
so	-2483
▁sah	-2484
▁billion	-2485
aren	-2486
!",	-2487
ush	-2488
▁Kunst	-2489
imate	-2490
osten	-2491
▁Form	-2492
▁insp	-2493
▁looks	-2494
▁anders	-2495
▁nothing	-2496
▁matter	-2497
▁history	-2498
▁tot	-2499
▁incred	-2500
welt	-2501
▁already	-2502
▁unserem	-2503
ages	-2504
iful	-2505
uation	-2506
glichen	-2507
lichkeit	-2508
ogn	-2509
ived	-2510
▁community	-2511
▁exist	-2512
▁schön	-2513
▁someone	-2514
ases	-2515
▁often	-2516
▁product	-2517
inter	-2518
aneten	-2519
▁heart	-2520
öt	-2521
▁exact	-2522
▁DNA	-2523
chmal	-2524
▁Bo	-2525
outh	-2526
icro	-2527
▁within	-2528
gem	-2529
inz	-2530
weit	-2531
▁genug	-2532
▁erzählen	-2533
▁nächsten	-2534
aur	-2535
▁looked	-2536
Why	-2537
▁line	-2538
▁Schul	-2539
▁lange	-2540
side	-2541
stead	-2542
▁dev	-2543
▁gir	-2544
▁erkl	-2545
ransp	-2546
▁true	-2547
▁herum	-2548
▁weg	-2549
Denn	-2550
▁amazing	-2551
▁Wahr	-2552
▁frag	-2553
▁kennen	-2554
▁challen	-2555
ären	-2556
▁seinen	-2557
osed	-2558
▁universe	-2559
Okay	-2560
▁mass	-2561
oral	-2562
▁cost	-2563
▁extra	-2564
ösen	-2565
▁cells	-2566
▁erf	-2567
▁iss	-2568
elbst	-2569
▁kill	-2570
liches	-2571
enken	-2572
gleich	-2573
▁ur	-2574
▁begann	-2575
▁works	-2576
aby	-2577
ultur	-2578
▁gemein	-2579
▁term	-2580
▁words	-2581
▁test	-2582
▁erinn	-2583
▁bauen	-2584
▁myself	-2585
Oh	-2586
▁di	-2587
ivity	-2588
▁cond	-2589
less	-2590
forder	-2591
▁Fot	-2592
▁mar	-2593
▁heard	-2594
ones	-2595
zieh	-2596
▁ref	-2597
▁ill	-2598
▁kne	-2599
gangen	-2600
▁Gegen	-2601
▁recht	-2602
innen	-2603
▁class	-2604
▁Planeten	-2605
ollow	-2606
▁built	-2607
▁psych	-2608
▁richtig	-2609
▁wus	-2610
▁order	-2611
▁Bed	-2612
▁Ideen	-2613
ination	-2614
kennen	-2615
▁Forsch	-2616
▁result	-2617
▁imagine	-2618
äre	-2619
▁jede	-2620
ption	-2621
▁figure	-2622
▁beautiful	-2623
par	-2624
▁ü	-2625
ums	-2626
▁Ob	-2627
▁Am	-2628
▁cancer	-2629
▁Projekt	-2630
fect	-2631
▁Musik	-2632
ians	-2633
▁aff	-2634
uchte	-2635
▁United	-2636
chan	-2637
iddle	-2638
ereich	-2639
▁train	-2640
CA	-2641
fä	-2642
rü	-2643
zess	-2644
▁Sta	-2645
▁rad	-2646
▁bevor	-2647
▁wicht	-2648
▁absolut	-2649
▁ungefähr	-2650
mut	-2651
▁sex	-2652
vious	-2653
▁friends	-2654
nisse	-2655
▁night	-2656
▁Als	-2657
▁age	-2658
▁mot	-2659
▁couple	-2660
aper	-2661
aß	-2662
▁Schule	-2663
▁behav	-2664
▁exc	-2665
▁eing	-2666
▁hund	-2667
▁liegt	-2668
▁language	-2669
▁Fähigkeit	-2670
ested	-2671
▁full	-2672
▁stories	-2673
▁verändern	-2674
mö	-2675
ser	-2676
ired	-2677
▁nah	-2678
▁ihrem	-2679
ci	-2680
▁ta	-2681
llig	-2682
▁video	-2683
▁hö	-2684
ücken	-2685
▁months	-2686
▁mother	-2687
▁Wer	-2688
▁face	-2689
▁entire	-2690
eah	-2691
ftw	-2692
iqu	-2693
▁erl	-2694
▁verd	-2695
▁control	-2696
▁bisschen	-2697
voll	-2698
fra	-2699
ivil	-2700
▁Erfahr	-2701
▁intell	-2702
▁ant	-2703
anken	-2704
äche	-2705
▁pay	-2706
▁kurz	-2707
▁government	-2708
▁Geschichten	-2709
ton	-2710
▁sei	-2711
▁link	-2712
▁Informationen	-2713
izin	-2714
ädchen	-2715
▁material	-2716
antw	-2717
ieht	-2718
▁Leuten	-2719
▁group	-2720
ai	-2721
▁front	-2722
▁incre	-2723
▁sw	-2724
▁must	-2725
▁neur	-2726
▁ident	-2727
▁überall	-2728
une	-2729
▁follow	-2730
▁species	-2731
▁hoff	-2732
▁Im	-2733
utzt	-2734
▁innov	-2735
heim	-2736
▁Arten	-2737
▁defin	-2738
com	-2739
ienten	-2740
▁piece	-2741
▁seinem	-2742
▁alt	-2743
▁isn	-2744
Jetzt	-2745
ering	-2746
▁schwer	-2747
▁inner	-2748
▁stehen	-2749
▁los	-2750
▁Ang	-2751
▁Krie	-2752
▁Punkt	-2753
▁Krank	-2754
▁education	-2755
▁Wirtschaft	-2756
▁nature	-2757
ilfe	-2758
▁oce	-2759
immen	-2760
▁model	-2761
▁market	-2762
▁hinter	-2763
cc	-2764
▁...	-2765
▁places	-2766
rug	-2767
▁Exper	-2768
schn	-2769
▁dich	-2770
▁until	-2771
▁60	-2772
wend	-2773
anzen	-2774
▁Antwort	-2775
▁sagten	-2776
:",	-2777
imens	-2778
▁gehört	-2779
raum	-2780
▁emot	-2781
▁Unternehmen	-2782
sh	-2783
satz	-2784
▁All	-2785
▁Kopf	-2786
▁mess	-2787
▁terr	-2788
▁darum	-2789
omet	-2790
oten	-2791
▁schwier	-2792
ielt	-2793
▁wasn	-2794
▁klar	-2795
Mit	-2796
ateg	-2797
▁chem	-2798
▁quick	-2799
▁everybody	-2800
gende	-2801
ene	-2802
asst	-2803
▁tool	-2804
ußen	-2805
▁erh	-2806
ected	-2807
▁dest	-2808
▁ment	-2809
▁Milliarden	-2810
plic	-2811
reif	-2812
inner	-2813
▁completely	-2814
No	-2815
ctor	-2816
rieb	-2817
▁Der	-2818
▁det	-2819
▁Film	-2820
▁writ	-2821
ohl	-2822
▁Fragen	-2823
▁nennen	-2824
▁anf	-2825
▁eben	-2826
▁study	-2827
▁Männer	-2828
lt	-2829
▁Gebä	-2830
▁object	-2831
▁decided	-2832
bra	-2833
ames	-2834
▁musste	-2835
▁miss	-2836
▁large	-2837
ides	-2838
▁reden	-2839
bed	-2840
▁Vort	-2841
▁animals	-2842
▁Lös	-2843
ienen	-2844
▁prov	-2845
▁Jahrh	-2846
▁taking	-2847
▁entwickelt	-2848
beite	-2849
▁großart	-2850
▁What	-2851
ging	-2852
ortun	-2853
▁spend	-2854
▁intern	-2855
alten	-2856
▁const	-2857
▁became	-2858
▁engine	-2859
▁students	-2860
▁Gra	-2861
kten	-2862
▁anderes	-2863
▁exactly	-2864
▁bereits	-2865
osph	-2866
▁adv	-2867
istan	-2868
▁schein	-2869
ibly	-2870
▁Par	-2871
▁share	-2872
med	-2873
face	-2874
▁law	-2875
▁view	-2876
▁itself	-2877
wohl	-2878
▁discover	-2879
inal	-2880
acter	-2881
ively	-2882
▁They	-2883
▁States	-2884
▁wunder	-2885
oh	-2886
▁Di	-2887
bare	-2888
▁past	-2889
▁word	-2890
▁though	-2891
▁spielen	-2892
werk	-2893
▁Dem	-2894
▁son	-2895
▁entde	-2896
ftware	-2897
zept	-2898
▁sow	-2899
50	-2900
este	-2901
▁euch	-2902
▁complex	-2903
▁learned	-2904
▁success	-2905
▁happening	-2906
ütz	-2907
▁Netz	-2908
Vielen	-2909
▁kinds	-2910
▁Minuten	-2911
▁erkennen	-2912
▁priv	-2913
ability	-2914
▁ourselves	-2915
▁Gesellschaft	-2916
iber	-2917
igten	-2918
ource	-2919
▁cool	-2920
▁society	-2921
igung	-2922
▁knew	-2923
▁mem	-2924
▁sens	-2925
▁Mode	-2926
▁minutes	-2927
▁Entscheid	-2928
▁Verhalten	-2929
▁tro	-2930
▁woman	-2931
▁halten	-2932
▁deal	-2933
▁since	-2934
▁besonders	-2935
▁erreichen	-2936
▁questions	-2937
▁80	-2938
port	-2939
indung	-2940
inning	-2941
▁struct	-2942
▁game	-2943
▁fragen	-2944
▁techn	-2945
ral	-2946
reis	-2947
oogle	-2948
▁steht	-2949
oter	-2950
ature	-2951
▁conf	-2952
▁India	-2953
▁against	-2954
▁company	-2955
▁themselves	-2956
ße	-2957
ommt	-2958
ising	-2959
▁This	-2960
▁house	-2961
▁Mädchen	-2962
▁Familie	-2963
▁somebody	-2964
▁relations	-2965
icken	-2966
▁repr	-2967
▁America	-2968
äuf	-2969
▁av	-2970
immer	-2971
▁oben	-2972
▁Gener	-2973
▁Afrika	-2974
fang	-2975
ocus	-2976
▁benutzen	-2977
onne	-2978
▁199	-2979
▁gets	-2980
ager	-2981
▁dir	-2982
▁won	-2983
▁wind	-2984
▁namens	-2985
▁free	-2986
richten	-2987
uden	-2988
▁sym	-2989
▁stat	-2990
▁verschiedene	-2991
ahn	-2992
gung	-2993
haps	-2994
▁del	-2995
▁along	-2996
endet	-2997
▁turns	-2998
of	-2999
iti	-3000
unge	-3001
neh	-3002
bild	-3003
▁meet	-3004
ling	-3005
▁opt	-3006
▁ones	-3007
uchten	-3008
▁gerne	-3009
iste	-3010
grund	-3011
▁hören	-3012
▁hätten	-3013
▁rather	-3014
reit	-3015
roll	-3016
▁created	-3017
▁tradition	-3018
▁fly	-3019
▁red	-3020
▁huge	-3021
itting	-3022
▁darin	-3023
▁Bet	-3024
▁Bilder	-3025
zug	-3026
▁cir	-3027
änger	-3028
▁Ergeb	-3029
▁hours	-3030
▁opportun	-3031
▁aw	-3032
▁var	-3033
▁lead	-3034
▁OK	-3035
▁na	-3036
▁cra	-3037
icult	-3038
▁Flug	-3039
▁Gott	-3040
▁name	-3041
▁machte	-3042
ielleicht	-3043
▁aud	-3044
andel	-3045
ef	-3046
met	-3047
ächt	-3048
▁mov	-3049
Meine	-3050
▁Them	-3051
▁Glück	-3052
liegen	-3053
▁extrem	-3054
On	-3055
iken	-3056
▁att	-3057
▁Wort	-3058
▁pred	-3059
▁risk	-3060
▁focus	-3061
▁Selbst	-3062
▁bott	-3063
▁deep	-3064
▁oper	-3065
▁arbeite	-3066
▁ähn	-3067
▁Macht	-3068
▁statt	-3069
ished	-3070
ples	-3071
wards	-3072
▁Thank	-3073
▁shows	-3074
▁Gruppe	-3075
▁Ur	-3076
gramm	-3077
▁God	-3078
ams	-3079
▁arg	-3080
▁Indien	-3081
Mein	-3082
annte	-3083
▁Beweg	-3084
▁least	-3085
▁braucht	-3086
▁disease	-3087
ekte	-3088
▁But	-3089
haupt	-3090
öhn	-3091
▁Auto	-3092
▁meas	-3093
Or	-3094
▁wohl	-3095
▁jedem	-3096
ress	-3097
▁add	-3098
▁welt	-3099
▁others	-3100
▁Zusammen	-3101
sk	-3102
ump	-3103
▁That	-3104
ließlich	-3105
▁Bro	-3106
▁Kor	-3107
▁news	-3108
▁Gefühl	-3109
▁sometimes	-3110
▁lea	-3111
istic	-3112
ützen	-3113
▁eins	-3114
▁liter	-3115
part	-3116
orden	-3117
▁couldn	-3118
▁difficult	-3119
▁guys	-3120
▁ries	-3121
▁sechs	-3122
▁anal	-3123
▁worked	-3124
▁Sü	-3125
▁early	-3126
▁state	-3127
▁Herz	-3128
▁Angst	-3129
▁Eltern	-3130
▁thousands	-3131
▁non	-3132
inder	-3133
▁film	-3134
▁happy	-3135
cul	-3136
fall	-3137
omes	-3138
▁American	-3139
view	-3140
▁entf	-3141
▁Richt	-3142
▁invol	-3143
osp	-3144
esse	-3145
ning	-3146
ients	-3147
▁glück	-3148
▁speak	-3149
illions	-3150
▁listen	-3151
onen	-3152
▁Jahrhundert	-3153
ined	-3154
pend	-3155
sent	-3156
▁neu	-3157
führt	-3158
▁gesam	-3159
▁micro	-3160
gestellt	-3161
▁Patienten	-3162
▁Kn	-3163
ässt	-3164
▁Spe	-3165
▁Inst	-3166
▁Kultur	-3167
▁systems	-3168
Le	-3169
▁Fü	-3170
▁How	-3171
▁Lin	-3172
icherheit	-3173
aster	-3174
inger	-3175
▁gave	-3176
▁11	-3177
▁redu	-3178
▁führen	-3179
▁Sprache	-3180
▁explain	-3181
▁everyone	-3182
Dieses	-3183
▁entwickeln	-3184
ison	-3185
orth	-3186
▁ange	-3187
▁Freund	-3188
aug	-3189
bes	-3190
indet	-3191
▁poor	-3192
▁appro	-3193
▁Google	-3194
▁instead	-3195
ney	-3196
tend	-3197
punkt	-3198
zeugen	-3199
▁bewegen	-3200
ask	-3201
▁Far	-3202
ätz	-3203
▁behavior	-3204
Für	-3205
▁lik	-3206
anten	-3207
▁natural	-3208
▁vorstellen	-3209
▁sug	-3210
▁third	-3211
▁network	-3212
▁erhalten	-3213
uh	-3214
▁Fir	-3215
▁hold	-3216
▁Gemein	-3217
▁amount	-3218
Auf	-3219
▁arm	-3220
Danke	-3221
▁field	-3222
▁comput	-3223
▁einigen	-3224
▁Fol	-3225
▁behind	-3226
▁impro	-3227
▁richt	-3228
imp	-3229
▁lots	-3230
▁learning	-3231
▁relationship	-3232
ante	-3233
ehen	-3234
▁relig	-3235
▁online	-3236
▁Stunden	-3237
▁collect	-3238
Do	-3239
akter	-3240
schnitt	-3241
▁beiden	-3242
▁Veränder	-3243
▁verschiedenen	-3244
▁erk	-3245
▁Tr	-3246
▁bel	-3247
itions	-3248
▁Vater	-3249
▁einge	-3250
▁manchmal	-3251
amera	-3252
▁Meer	-3253
▁mult	-3254
antast	-3255
▁recent	-3256
uz	-3257
ikro	-3258
▁death	-3259
igte	-3260
äten	-3261
▁interact	-3262
por	-3263
▁Em	-3264
iben	-3265
▁Luft	-3266
▁Städ	-3267
▁irgendwie	-3268
IV	-3269
▁%	-3270
tens	-3271
uren	-3272
ublik	-3273
▁genet	-3274
▁surpr	-3275
▁menschlichen	-3276
rew	-3277
▁oil	-3278
ölker	-3279
!\"	-3280
hlte	-3281
▁connect	-3282
ony	-3283
Then	-3284
apan	-3285
▁bemer	-3286
▁short	-3287
▁ändern	-3288
lex	-3289
alität	-3290
▁machine	-3291
enk	-3292
ither	-3293
▁super	-3294
▁takes	-3295
▁outside	-3296
sw	-3297
▁black	-3298
▁stell	-3299
▁taken	-3300
▁moving	-3301
▁difference	-3302
▁cut	-3303
okrat	-3304
▁seven	-3305
▁bestimm	-3306
hler	-3307
▁201	-3308
▁Krebs	-3309
▁wollten	-3310
▁personal	-3311
ence	-3312
haus	-3313
▁changed	-3314
▁16	-3315
ully	-3316
▁incl	-3317
▁pick	-3318
▁close	-3319
▁Bezieh	-3320
▁Roboter	-3321
▁common	-3322
▁record	-3323
▁powerful	-3324
min	-3325
pect	-3326
▁Mein	-3327
▁Techn	-3328
▁einzel	-3329
▁vorher	-3330
Um	-3331
oph	-3332
häng	-3333
▁leg	-3334
▁jour	-3335
rif	-3336
Every	-3337
▁einzige	-3338
tt	-3339
ana	-3340
ased	-3341
▁HIV	-3342
▁Tod	-3343
▁green	-3344
▁Sinn	-3345
▁disc	-3346
▁besten	-3347
▁Regierung	-3348
▁John	-3349
▁nämlich	-3350
▁pattern	-3351
▁Werk	-3352
▁Hause	-3353
▁Bereich	-3354
▁verwenden	-3355
ards	-3356
stra	-3357
▁Masch	-3358
▁archite	-3359
▁century	-3360
▁verändert	-3361
alax	-3362
ester	-3363
▁Kindern	-3364
▁unterschied	-3365
▁Sc	-3366
gang	-3367
ände	-3368
▁area	-3369
▁Material	-3370
Vor	-3371
opp	-3372
aktion	-3373
▁ocean	-3374
▁transp	-3375
▁dein	-3376
auben	-3377
▁Sachen	-3378
▁experiment	-3379
zustellen	-3380
▁Ant	-3381
▁Har	-3382
▁cann	-3383
▁eher	-3384
▁Heraus	-3385
▁indust	-3386
▁middle	-3387
▁ho	-3388
▁lim	-3389
erweise	-3390
▁culture	-3391
▁14	-3392
▁unglaublich	-3393
▁Fahr	-3394
▁Fran	-3395
▁easy	-3396
▁fand	-3397
▁colle	-3398
▁frü	-3399
▁Europe	-3400
spr	-3401
Some	-3402
unch	-3403
▁eyes	-3404
▁cities	-3405
▁Hö	-3406
▁perhaps	-3407
ummer	-3408
▁Aufg	-3409
ply	-3410
ober	-3411
▁given	-3412
▁innerhalb	-3413
Re	-3414
anger	-3415
▁sage	-3416
▁Organis	-3417
▁yourself	-3418
jor	-3419
▁leave	-3420
▁needs	-3421
▁beginnen	-3422
▁Cl	-3423
augh	-3424
▁serv	-3425
scheiden	-3426
eh	-3427
▁hands	-3428
▁ern	-3429
▁event	-3430
▁turned	-3431
▁Gebäude	-3432
agn	-3433
aul	-3434
▁Zwe	-3435
ließen	-3436
oms	-3437
▁pract	-3438
oud	-3439
rab	-3440
▁tem	-3441
▁Char	-3442
▁Ziel	-3443
zieren	-3444
▁As	-3445
▁team	-3446
genommen	-3447
▁eight	-3448
▁digital	-3449
▁population	-3450
ove	-3451
uld	-3452
ufen	-3453
▁perform	-3454
▁Sk	-3455
▁low	-3456
gress	-3457
verage	-3458
▁getan	-3459
▁paper	-3460
tention	-3461
Pro	-3462
▁90	-3463
▁fort	-3464
▁wegen	-3465
ails	-3466
▁local	-3467
▁überhaupt	-3468
year	-3469
▁Entwicklung	-3470
hor	-3471
iale	-3472
▁communic	-3473
▁terms	-3474
▁Länder	-3475
▁sozial	-3476
by	-3477
cin	-3478
▁saf	-3479
völker	-3480
pid	-3481
▁fish	-3482
▁Stück	-3483
▁World	-3484
▁beginning	-3485
urt	-3486
▁17	-3487
orie	-3488
▁Dar	-3489
▁tut	-3490
Vielleicht	-3491
Ja	-3492
mm	-3493
zy	-3494
▁wonderful	-3495
!"	-3496
hre	-3497
avid	-3498
▁beob	-3499
▁parts	-3500
▁inspir	-3501
hnt	-3502
avor	-3503
system	-3504
▁moral	-3505
▁Vortrag	-3506
▁zer	-3507
idence	-3508
▁finally	-3509
haft	-3510
▁zwar	-3511
▁stellt	-3512
▁Herausforder	-3513
lev	-3514
book	-3515
▁occ	-3516
▁obvious	-3517
▁gleichen	-3518
▁mathemat	-3519
▁friend	-3520
▁potent	-3521
▁seeing	-3522
▁fantast	-3523
▁versucht	-3524
▁Car	-3525
▁inde	-3526
isieren	-3527
▁Umwelt	-3528
▁access	-3529
▁evolution	-3530
▁interessant	-3531
Ver	-3532
▁Ober	-3533
▁stra	-3534
▁profess	-3535
bte	-3536
text	-3537
▁tief	-3538
▁father	-3539
▁Universum	-3540
▁robot	-3541
▁Lage	-3542
ama	-3543
osen	-3544
▁squ	-3545
ängt	-3546
▁ansch	-3547
▁image	-3548
▁simply	-3549
▁Chin	-3550
▁reach	-3551
▁cannot	-3552
▁Sit	-3553
▁fundament	-3554
Ne	-3555
bor	-3556
elten	-3557
eople	-3558
▁ster	-3559
▁allem	-3560
▁during	-3561
baren	-3562
▁blue	-3563
▁schauen	-3564
▁treffen	-3565
▁companies	-3566
oun	-3567
achst	-3568
ichen	-3569
▁Tier	-3570
▁spra	-3571
▁architect	-3572
yl	-3573
iot	-3574
wand	-3575
▁sat	-3576
Doch	-3577
inary	-3578
▁major	-3579
▁economic	-3580
▁realized	-3581
ele	-3582
iting	-3583
orten	-3584
alif	-3585
▁Rest	-3586
▁viol	-3587
▁grand	-3588
▁expect	-3589
wär	-3590
zub	-3591
▁Du	-3592
▁ang	-3593
▁cal	-3594
chter	-3595
▁mole	-3596
iziert	-3597
oon	-3598
umm	-3599
ills	-3600
ilos	-3601
▁bir	-3602
▁Wochen	-3603
▁erstaun	-3604
nahme	-3605
▁media	-3606
▁longer	-3607
▁perfect	-3608
Am	-3609
ahren	-3610
▁Klim	-3611
reg	-3612
hood	-3613
▁Also	-3614
▁thank	-3615
▁nächste	-3616
fully	-3617
▁unters	-3618
▁Erfahrung	-3619
zin	-3620
aring	-3621
▁stay	-3622
rieden	-3623
ziehen	-3624
▁bereit	-3625
▁verste	-3626
▁Ad	-3627
▁Fr	-3628
▁sun	-3629
▁size	-3630
▁surv	-3631
▁weitere	-3632
▁Kap	-3633
ources	-3634
▁Tiere	-3635
▁scale	-3636
▁Anfang	-3637
▁humans	-3638
▁niemand	-3639
fgh	-3640
omat	-3641
▁fühlen	-3642
▁needed	-3643
schaffen	-3644
ledge	-3645
▁Prozess	-3646
▁special	-3647
▁Web	-3648
ichts	-3649
▁orig	-3650
kü	-3651
▁Mil	-3652
▁fore	-3653
▁present	-3654
▁reality	-3655
▁menschliche	-3656
bel	-3657
enne	-3658
▁Prä	-3659
▁ple	-3660
▁Fort	-3661
fläche	-3662
▁Part	-3663
▁parents	-3664
▁Tages	-3665
ublikum	-3666
▁meines	-3667
▁whatever	-3668
acy	-3669
▁Res	-3670
ranken	-3671
▁mussten	-3672
▁vö	-3673
icks	-3674
▁fac	-3675
▁Essen	-3676
Nach	-3677
Oder	-3678
▁Job	-3679
▁Kle	-3680
antwort	-3681
▁Sicherheit	-3682
▁Zug	-3683
▁Neur	-3684
▁lässt	-3685
▁Dingen	-3686
▁Mittel	-3687
▁"1	-3688
isse	-3689
▁verst	-3690
At	-3691
lam	-3692
sein	-3693
ritte	-3694
▁conc	-3695
▁Hilfe	-3696
▁deren	-3697
▁ground	-3698
auso	-3699
▁Rei	-3700
lungs	-3701
▁wait	-3702
▁tried	-3703
▁My	-3704
▁Pap	-3705
▁auss	-3706
▁feed	-3707
▁kamen	-3708
▁Geschäft	-3709
▁Ko	-3710
fghan	-3711
annten	-3712
▁enorm	-3713
▁Lehrer	-3714
ently	-3715
▁growth	-3716
▁wusste	-3717
Is	-3718
▁felt	-3719
▁democ	-3720
merikan	-3721
▁quickly	-3722
▁hy	-3723
ünde	-3724
▁Japan	-3725
ibility	-3726
▁eigene	-3727
▁enc	-3728
▁hol	-3729
ograf	-3730
statt	-3731
ächst	-3732
▁press	-3733
▁Verein	-3734
ötz	-3735
ised	-3736
▁key	-3737
itter	-3738
▁dark	-3739
▁strong	-3740
▁approach	-3741
ban	-3742
▁recogn	-3743
▁interested	-3744
nal	-3745
anach	-3746
▁bringt	-3747
cing	-3748
rück	-3749
▁ability	-3750
▁buy	-3751
▁hab	-3752
▁falsch	-3753
orge	-3754
cious	-3755
▁erre	-3756
▁Grunde	-3757
pression	-3758
▁schlecht	-3759
▁21	-3760
▁value	-3761
▁okay	-3762
▁Durch	-3763
▁spent	-3764
▁Freunde	-3765
▁bi	-3766
▁Kar	-3767
zentr	-3768
▁pres	-3769
▁unten	-3770
▁jedoch	-3771
▁support	-3772
▁Möglichkeiten	-3773
▁Vir	-3774
ürger	-3775
▁persön	-3776
▁political	-3777
▁13	-3778
▁jo	-3779
ains	-3780
ingt	-3781
izing	-3782
▁gone	-3783
ellow	-3784
izieren	-3785
▁solche	-3786
elbe	-3787
isiert	-3788
▁break	-3789
▁Struktur	-3790
elte	-3791
imme	-3792
▁Oze	-3793
falls	-3794
udden	-3795
▁requ	-3796
▁grund	-3797
▁leaders	-3798
sc	-3799
iny	-3800
ales	-3801
▁lost	-3802
eshalb	-3803
▁Polit	-3804
▁animal	-3805
▁Gedanken	-3806
oes	-3807
▁Ja	-3808
▁lab	-3809
▁Tage	-3810
▁Markt	-3811
Ch	-3812
äss	-3813
hält	-3814
usion	-3815
▁send	-3816
Dieser	-3817
▁Video	-3818
▁essen	-3819
▁Gleich	-3820
▁Archite	-3821
▁fu	-3822
▁Typ	-3823
▁worden	-3824
ücke	-3825
▁Haupt	-3826
inde	-3827
▁feet	-3828
▁kont	-3829
▁lösen	-3830
▁verschw	-3831
son	-3832
▁circ	-3833
▁virt	-3834
▁führt	-3835
▁völlig	-3836
▁schreiben	-3837
▁Gren	-3838
nahmen	-3839
▁Boden	-3840
▁wären	-3841
▁opportunity	-3842
▁70	-3843
ball	-3844
ouch	-3845
▁Sek	-3846
rogen	-3847
▁known	-3848
▁stark	-3849
▁letzte	-3850
▁economy	-3851
iction	-3852
▁Unterschied	-3853
mus	-3854
ites	-3855
▁ged	-3856
▁Meth	-3857
▁phone	-3858
▁weeks	-3859
▁damals	-3860
uth	-3861
ysteme	-3862
▁direkt	-3863
spro	-3864
▁dessen	-3865
▁modern	-3866
pos	-3867
▁Su	-3868
▁foot	-3869
orning	-3870
ops	-3871
abil	-3872
wirk	-3873
fluss	-3874
▁verbess	-3875
▁gemeinsam	-3876
hnen	-3877
hrte	-3878
▁Park	-3879
▁fear	-3880
▁Thema	-3881
▁beein	-3882
▁hervor	-3883
omin	-3884
▁Bes	-3885
▁sitting	-3886
ox	-3887
Not	-3888
samkeit	-3889
▁mechan	-3890
ämp	-3891
ustain	-3892
zellen	-3893
▁obwohl	-3894
▁bleiben	-3895
irm	-3896
ades	-3897
aught	-3898
▁Nacht	-3899
▁fight	-3900
bon	-3901
ras	-3902
alle	-3903
▁either	-3904
▁suchen	-3905
hören	-3906
▁draw	-3907
▁anderer	-3908
▁gleiche	-3909
cks	-3910
▁neg	-3911
▁slow	-3912
bol	-3913
▁Mot	-3914
▁Mars	-3915
▁areas	-3916
flanzen	-3917
▁measure	-3918
eng	-3919
hrung	-3920
ierend	-3921
ötzlich	-3922
▁Lösung	-3923
▁sollen	-3924
▁Staaten	-3925
▁respons	-3926
▁surface	-3927
▁incredible	-3928
ests	-3929
rate	-3930
▁write	-3931
▁nu	-3932
▁198	-3933
▁ermö	-3934
uell	-3935
▁fragte	-3936
▁attention	-3937
öße	-3938
ators	-3939
uelle	-3940
▁caus	-3941
▁Mikro	-3942
Uns	-3943
▁Elekt	-3944
▁Afghan	-3945
▁ed	-3946
▁teilen	-3947
▁besteht	-3948
▁challenge	-3949
zogen	-3950
▁Lond	-3951
▁consider	-3952
go	-3953
rän	-3954
▁eat	-3955
ilden	-3956
ission	-3957
▁Woche	-3958
▁structure	-3959
▁individual	-3960
▁Kü	-3961
▁Met	-3962
▁dad	-3963
▁Plan	-3964
ichter	-3965
▁based	-3966
udenten	-3967
▁bottom	-3968
▁patients	-3969
▁betrachten	-3970
▁hor	-3971
ribut	-3972
▁West	-3973
▁prim	-3974
▁Stand	-3975
▁blood	-3976
ausende	-3977
▁numbers	-3978
▁schwierig	-3979
Bei	-3980
jekte	-3981
▁main	-3982
▁Monate	-3983
▁photograph	-3984
▁Tre	-3985
▁direct	-3986
▁komplex	-3987
oid	-3988
tete	-3989
▁App	-3990
▁step	-3991
▁changes	-3992
▁funktionieren	-3993
lin	-3994
▁Ha	-3995
ilar	-3996
▁Ländern	-3997
lang	-3998
erstör	-3999
▁Namen	-4000
▁essent	-4001
▁National	-4002
lef	-4003
▁bar	-4004
▁Nahr	-4005
gebung	-4006
ünstler	-4007
▁unseres	-4008
Te	-4009
Zum	-4010
ology	-4011
▁Schwe	-4012
▁climate	-4013
▁transform	-4014
inos	-4015
▁clos	-4016
▁girl	-4017
▁Innov	-4018
▁zuvor	-4019
▁morning	-4020
▁univers	-4021
äm	-4022
eum	-4023
gefühl	-4024
▁wouldn	-4025
arbeitet	-4026
merk	-4027
▁Ben	-4028
▁box	-4029
▁benöt	-4030
rote	-4031
▁Bar	-4032
▁comb	-4033
▁realize	-4034
▁gefunden	-4035
▁physical	-4036
▁kn	-4037
ikal	-4038
reds	-4039
zeuge	-4040
▁crit	-4041
▁consum	-4042
▁genauso	-4043
▁größten	-4044
▁Kr	-4045
▁Öl	-4046
druck	-4047
People	-4048
▁gives	-4049
▁meaning	-4050
chie	-4051
▁Bra	-4052
▁emp	-4053
gegen	-4054
ustrie	-4055
▁London	-4056
▁international	-4057
▁Sym	-4058
atten	-4059
assion	-4060
forsch	-4061
▁Zellen	-4062
▁average	-4063
▁growing	-4064
▁Familien	-4065
▁Can	-4066
▁log	-4067
ieten	-4068
zeigt	-4069
▁bede	-4070
▁farm	-4071
finden	-4072
▁trotz	-4073
▁brought	-4074
res	-4075
“",	-4076
ores	-4077
▁pull	-4078
Wissen	-4079
▁impact	-4080
zw	-4081
frast	-4082
▁Autos	-4083
▁Liebe	-4084
▁Medik	-4085
▁images	-4086
itze	-4087
ival	-4088
itzen	-4089
▁Ster	-4090
▁emer	-4091
▁fall	-4092
▁sudden	-4093
▁amerikan	-4094
▁Fern	-4095
estern	-4096
lossen	-4097
▁Ihren	-4098
▁developed	-4099
▁"♫	-4100
vest	-4101
stein	-4102
▁teil	-4103
▁neues	-4104
▁zweite	-4105
▁sterben	-4106
▁tw	-4107
ollen	-4108
▁born	-4109
▁schre	-4110
▁Bedeut	-4111
▁knowledge	-4112
uit	-4113
bene	-4114
▁Okay	-4115
▁medic	-4116
▁Modell	-4117
▁feeling	-4118
▁verbunden	-4119
jähr	-4120
wart	-4121
ynam	-4122
▁bew	-4123
▁sieben	-4124
▁Kat	-4125
aft	-4126
ieg	-4127
kre	-4128
blick	-4129
▁inte	-4130
▁Kraft	-4131
▁There	-4132
▁seems	-4133
▁theory	-4134
▁national	-4135
gn	-4136
Nein	-4137
gewöhn	-4138
▁books	-4139
▁scheint	-4140
▁institut	-4141
leep	-4142
▁vol	-4143
ouble	-4144
ziale	-4145
▁spread	-4146
▁English	-4147
Ge	-4148
ks	-4149
ragen	-4150
▁Wahl	-4151
▁nimmt	-4152
▁kaufen	-4153
atürlich	-4154
ätze	-4155
▁prom	-4156
unehmen	-4157
▁größte	-4158
igkeiten	-4159
▁Arbeits	-4160
entlichen	-4161
▁understanding	-4162
bre	-4163
ube	-4164
Weil	-4165
▁deg	-4166
▁ign	-4167
inzip	-4168
reifen	-4169
▁giving	-4170
▁beeinfl	-4171
isst	-4172
ances	-4173
▁Dies	-4174
▁Fisch	-4175
▁Krieg	-4176
▁civil	-4177
▁lesen	-4178
▁forward	-4179
äß	-4180
▁led	-4181
Lassen	-4182
▁erschaffen	-4183
▁technologies	-4184
ored	-4185
▁syn	-4186
▁color	-4187
▁force	-4188
▁liebe	-4189
▁langsam	-4190
▁running	-4191
völkerung	-4192
▁audience	-4193
▁Revolution	-4194
▁Gemeinschaft	-4195
oor	-4196
chsel	-4197
▁Medien	-4198
▁Bewegung	-4199
▁Mc	-4200
bten	-4201
idge	-4202
organ	-4203
▁bitte	-4204
▁wrote	-4205
▁scientists	-4206
To	-4207
▁map	-4208
mosph	-4209
▁flow	-4210
▁tools	-4211
▁gelernt	-4212
▁welches	-4213
ja	-4214
aly	-4215
ktor	-4216
oper	-4217
weis	-4218
▁500	-4219
▁Not	-4220
produ	-4221
▁vill	-4222
aliforn	-4223
▁includ	-4224
▁starting	-4225
cis	-4226
licht	-4227
▁literally	-4228
▁Verl	-4229
agieren	-4230
▁gebaut	-4231
▁inf	-4232
▁Frei	-4233
▁Hoff	-4234
▁favor	-4235
▁visual	-4236
▁erinnern	-4237
▁millions	-4238
lagen	-4239
▁clear	-4240
▁center	-4241
▁Technik	-4242
▁draußen	-4243
▁electric	-4244
▁revolution	-4245
ips	-4246
ersp	-4247
head	-4248
▁Cent	-4249
▁nice	-4250
gliche	-4251
▁Bürger	-4252
opa	-4253
äuft	-4254
▁Wert	-4255
▁hast	-4256
ikaner	-4257
▁Labor	-4258
▁neigh	-4259
prochen	-4260
▁anyone	-4261
▁serious	-4262
▁creating	-4263
▁gegenüber	-4264
▁Zahl	-4265
▁prin	-4266
zeitig	-4267
▁white	-4268
▁Är	-4269
aged	-4270
▁Reihe	-4271
▁erzählt	-4272
▁hundreds	-4273
.,	-4274
Zu	-4275
aff	-4276
ampf	-4277
olz	-4278
ochen	-4279
▁dead	-4280
▁fail	-4281
▁laut	-4282
▁South	-4283
▁erklären	-4284
▁Tats	-4285
▁fair	-4286
▁rein	-4287
▁wachsen	-4288
▁wissenschaft	-4289
ha	-4290
▁24	-4291
▁Gef	-4292
obody	-4293
▁cars	-4294
▁curr	-4295
▁nahm	-4296
▁hinaus	-4297
▁glücklich	-4298
▁Verbindung	-4299
ID	-4300
jen	-4301
▁path	-4302
▁alone	-4303
▁ausge	-4304
▁miles	-4305
▁schließlich	-4306
▁Bau	-4307
▁erfolg	-4308
▁bewusst	-4309
▁sustain	-4310
OK	-4311
mar	-4312
bere	-4313
▁City	-4314
▁optim	-4315
▁gewesen	-4316
▁telling	-4317
▁Technologien	-4318
ploy	-4319
▁Erk	-4320
▁sea	-4321
▁hine	-4322
▁soon	-4323
▁fanden	-4324
▁leicht	-4325
▁passieren	-4326
iod	-4327
zens	-4328
urity	-4329
ändig	-4330
▁Brit	-4331
▁hosp	-4332
▁Muster	-4333
▁bekannt	-4334
▁geworden	-4335
20	-4336
use	-4337
▁eye	-4338
▁lif	-4339
andeln	-4340
▁stage	-4341
▁stran	-4342
▁versch	-4343
org	-4344
▁et	-4345
▁Schritt	-4346
▁unterst	-4347
Our	-4348
▁No	-4349
ules	-4350
▁Tra	-4351
▁ice	-4352
▁mob	-4353
igent	-4354
äsent	-4355
▁bege	-4356
▁worth	-4357
ped	-4358
▁Mag	-4359
▁fert	-4360
▁jemals	-4361
▁Publikum	-4362
Du	-4363
ex	-4364
afft	-4365
rift	-4366
alter	-4367
▁text	-4368
▁suggest	-4369
▁Wahrheit	-4370
wirtschaft	-4371
▁development	-4372
Gen	-4373
Wer	-4374
ativ	-4375
clear	-4376
▁Eine	-4377
▁größer	-4378
▁Kranken	-4379
▁protect	-4380
otyp	-4381
▁Best	-4382
▁Rück	-4383
▁guess	-4384
▁daraus	-4385
▁Wissenschaftler	-4386
umb	-4387
iled	-4388
▁Eis	-4389
▁Well	-4390
▁post	-4391
▁sehe	-4392
▁Programm	-4393
▁discovered	-4394
▁miteinander	-4395
pec	-4396
▁Da	-4397
uals	-4398
▁flu	-4399
▁hil	-4400
▁tri	-4401
▁Team	-4402
▁Blick	-4403
▁developing	-4404
icy	-4405
▁bist	-4406
▁cult	-4407
▁avail	-4408
▁proper	-4409
cker	-4410
rael	-4411
asing	-4412
▁block	-4413
▁issue	-4414
▁folgen	-4415
▁playing	-4416
▁har	-4417
rolle	-4418
älfte	-4419
▁road	-4420
▁movement	-4421
▁Studenten	-4422
▁Afghanistan	-4423
▁Je	-4424
▁On	-4425
örter	-4426
gessen	-4427
▁travel	-4428
die	-4429
gor	-4430
▁Süd	-4431
onstr	-4432
ungsk	-4433
▁schwar	-4434
▁beginnt	-4435
▁verloren	-4436
how	-4437
was	-4438
aves	-4439
oose	-4440
▁San	-4441
▁dru	-4442
wegen	-4443
zeugt	-4444
▁wert	-4445
▁aussehen	-4446
▁ko	-4447
aute	-4448
usch	-4449
▁Tem	-4450
▁def	-4451
▁eth	-4452
▁hon	-4453
▁lay	-4454
▁mom	-4455
▁Phys	-4456
▁aren	-4457
▁song	-4458
iation	-4459
▁Ök	-4460
eden	-4461
▁Maß	-4462
itäten	-4463
▁among	-4464
▁nachdem	-4465
▁positive	-4466
hy	-4467
▁übr	-4468
▁Face	-4469
▁suff	-4470
▁hig	-4471
ichtet	-4472
▁David	-4473
▁Reise	-4474
▁Sicht	-4475
▁concept	-4476
▁Mathemat	-4477
▁anfangen	-4478
▁Krankheit	-4479
Just	-4480
ille	-4481
▁dro	-4482
▁type	-4483
uellen	-4484
▁deshalb	-4485
▁möchten	-4486
▁300	-4487
▁Blut	-4488
▁spir	-4489
▁Anzahl	-4490
▁showed	-4491
▁Platz	-4492
▁neben	-4493
▁solution	-4494
bau	-4495
iko	-4496
▁Dr	-4497
uchs	-4498
▁save	-4499
▁unbe	-4500
▁zehn	-4501
▁mache	-4502
▁voice	-4503
▁attack	-4504
▁Richtung	-4505
öst	-4506
lebt	-4507
ctors	-4508
gorith	-4509
▁Recht	-4510
▁kleines	-4511
yr	-4512
lim	-4513
▁Do	-4514
wind	-4515
▁197	-4516
▁Ris	-4517
recht	-4518
▁raus	-4519
▁benef	-4520
▁Gewalt	-4521
▁industry	-4522
▁innovation	-4523
fern	-4524
▁est	-4525
▁Stre	-4526
▁sell	-4527
▁truth	-4528
▁findet	-4529
▁issues	-4530
▁similar	-4531
▁konzentr	-4532
▁Ke	-4533
dass	-4534
▁Ira	-4535
▁pur	-4536
icans	-4537
▁smart	-4538
▁search	-4539
▁Aufgabe	-4540
yond	-4541
▁Fuß	-4542
▁solve	-4543
achstum	-4544
▁experien	-4545
▁recently	-4546
▁weltweit	-4547
aubt	-4548
ered	-4549
▁tend	-4550
▁guten	-4551
▁chance	-4552
▁danach	-4553
▁faszin	-4554
pecially	-4555
▁convers	-4556
▁patient	-4557
▁resources	-4558
▁X	-4559
▁CO	-4560
▁fa	-4561
ügen	-4562
▁Tit	-4563
▁ear	-4564
griff	-4565
ideos	-4566
▁acht	-4567
▁Besch	-4568
▁absolutely	-4569
▁1,	-4570
Heute	-4571
▁toll	-4572
ustral	-4573
▁Rolle	-4574
▁achie	-4575
▁gefähr	-4576
▁sofort	-4577
▁gezeigt	-4578
▁kleiner	-4579
▁Ihrem	-4580
▁sever	-4581
▁reasons	-4582
▁stellte	-4583
▁Bedeutung	-4584
▁incredibly	-4585
▁Veränderung	-4586
▁entscheiden	-4587
▁Pf	-4588
ique	-4589
▁camp	-4590
Unsere	-4591
▁Umgebung	-4592
▁designed	-4593
ley	-4594
▁cy	-4595
▁tö	-4596
anze	-4597
racy	-4598
bsite	-4599
▁tiny	-4600
setzen	-4601
bringen	-4602
▁schrieb	-4603
▁beschäft	-4604
▁entfernt	-4605
▁Forschung	-4606
▁Kön	-4607
▁War	-4608
ining	-4609
▁Aben	-4610
▁Ihrer	-4611
▁moder	-4612
▁solar	-4613
▁asking	-4614
▁Produkt	-4615
▁plötzlich	-4616
▁compassion	-4617
▁Vorstellung	-4618
omb	-4619
▁Mo	-4620
dlich	-4621
▁falls	-4622
▁Bildung	-4623
▁Facebook	-4624
xy	-4625
amb	-4626
olf	-4627
▁blind	-4628
ierungen	-4629
SA	-4630
▁kü	-4631
fore	-4632
▁infl	-4633
▁shape	-4634
▁Städte	-4635
▁talked	-4636
▁medical	-4637
sichtlich	-4638
asen	-4639
▁196	-4640
▁Rad	-4641
▁cop	-4642
▁fur	-4643
oices	-4644
▁egal	-4645
▁rate	-4646
ishing	-4647
▁soziale	-4648
▁Demokrat	-4649
▁verwendet	-4650
▁knows	-4651
▁genannt	-4652
▁produce	-4653
▁Tatsache	-4654
▁changing	-4655
iers	-4656
ünden	-4657
▁pack	-4658
▁samm	-4659
andelt	-4660
▁Aktiv	-4661
▁Eigen	-4662
▁react	-4663
▁allein	-4664
▁available	-4665
▁Entscheidungen	-4666
...	-4667
▁iP	-4668
auft	-4669
▁Arm	-4670
Viele	-4671
teilt	-4672
▁sold	-4673
gemein	-4674
▁Teile	-4675
▁Christ	-4676
▁evidence	-4677
ossen	-4678
▁verm	-4679
▁cover	-4680
▁message	-4681
zte	-4682
legt	-4683
▁jen	-4684
roffen	-4685
▁elekt	-4686
▁haven	-4687
▁Sonnen	-4688
▁Stimme	-4689
▁vision	-4690
▁Chinese	-4691
▁predict	-4692
Ar	-4693
the	-4694
vin	-4695
ritten	-4696
▁milit	-4697
▁depend	-4698
▁period	-4699
zufinden	-4700
▁Realität	-4701
ified	-4702
ussen	-4703
▁Mich	-4704
▁wall	-4705
▁aufge	-4706
Stellen	-4707
unktion	-4708
wachsen	-4709
0,	-4710
▁..."	-4711
▁choice	-4712
▁bekommt	-4713
▁benutzt	-4714
▁komplett	-4715
ny	-4716
esser	-4717
▁fire	-4718
▁Hälfte	-4719
▁beyond	-4720
▁Meinung	-4721
▁involved	-4722
▁Situation	-4723
IDS	-4724
auch	-4725
▁Größe	-4726
▁veröff	-4727
unkte	-4728
▁baby	-4729
▁fing	-4730
▁tells	-4731
▁touch	-4732
isierung	-4733
▁Straßen	-4734
▁situation	-4735
▁Herausforderung	-4736
▁anc	-4737
▁fix	-4738
▁entsp	-4739
▁sonst	-4740
▁Erfolg	-4741
▁street	-4742
▁Medizin	-4743
▁computers	-4744
▁erfolgreich	-4745
setz	-4746
wood	-4747
▁Sat	-4748
▁tat	-4749
feren	-4750
▁hundred	-4751
▁subject	-4752
▁especially	-4753
sequen	-4754
▁erklär	-4755
▁becomes	-4756
▁pictures	-4757
Al	-4758
Kön	-4759
▁Oh	-4760
▁Zent	-4761
win	-4762
oring	-4763
indern	-4764
▁peace	-4765
▁bigger	-4766
Natürlich	-4767
ms	-4768
hern	-4769
pfer	-4770
wert	-4771
▁ult	-4772
▁Stat	-4773
führen	-4774
▁drive	-4775
▁niemals	-4776
▁nachdenken	-4777
▁ak	-4778
lage	-4779
lied	-4780
▁Mex	-4781
▁Chem	-4782
▁Iran	-4783
▁wish	-4784
▁Super	-4785
▁alten	-4786
▁dream	-4787
▁Entwicklungs	-4788
Wo	-4789
▁ann	-4790
▁geh	-4791
▁yes	-4792
utage	-4793
▁Nord	-4794
▁beide	-4795
▁intelligen	-4796
cts	-4797
anda	-4798
room	-4799
▁girls	-4800
▁Studie	-4801
▁carbon	-4802
▁danger	-4803
▁writing	-4804
gra	-4805
roh	-4806
▁Ken	-4807
▁mögen	-4808
agement	-4809
möglich	-4810
▁erreicht	-4811
oe	-4812
▁Fä	-4813
itch	-4814
▁Dor	-4815
▁hoffe	-4816
▁länger	-4817
▁putting	-4818
elig	-4819
imen	-4820
inne	-4821
▁Kil	-4822
▁Prof	-4823
▁rules	-4824
▁sleep	-4825
itation	-4826
▁except	-4827
▁Gesicht	-4828
▁kontroll	-4829
▁betrachte	-4830
ags	-4831
iar	-4832
ibr	-4833
back	-4834
▁Erd	-4835
▁wid	-4836
stens	-4837
▁Foto	-4838
ologie	-4839
▁lived	-4840
▁likely	-4841
▁generation	-4842
▁Sau	-4843
▁bekam	-4844
▁function	-4845
▁progress	-4846
umor	-4847
▁Red	-4848
plant	-4849
ängen	-4850
üssel	-4851
▁Schü	-4852
▁Generation	-4853
ißen	-4854
ziert	-4855
▁Psych	-4856
▁bacter	-4857
▁groups	-4858
▁invent	-4859
utzutage	-4860
▁general	-4861
▁verrück	-4862
▁jemanden	-4863
▁fundamental	-4864
band	-4865
ford	-4866
▁Tür	-4867
▁fem	-4868
▁Preis	-4869
▁Straße	-4870
▁fahren	-4871
▁laufen	-4872
▁lieben	-4873
esh	-4874
▁ziehen	-4875
▁Prinzip	-4876
Chr	-4877
weil	-4878
▁Hir	-4879
▁Danke	-4880
▁breat	-4881
▁software	-4882
Can	-4883
äume	-4884
▁drug	-4885
▁Mitte	-4886
▁ersch	-4887
▁total	-4888
▁several	-4889
adem	-4890
itet	-4891
▁Now	-4892
arily	-4893
▁ball	-4894
▁rock	-4895
▁Strom	-4896
▁table	-4897
bildung	-4898
▁gegeben	-4899
▁Nachrichten	-4900
mung	-4901
Nicht	-4902
▁sent	-4903
▁gingen	-4904
▁extraord	-4905
fre	-4906
ify	-4907
▁Tat	-4908
▁died	-4909
▁nine	-4910
lassen	-4911
▁device	-4912
oß	-4913
▁Per	-4914
ounds	-4915
▁Einz	-4916
▁Wind	-4917
▁dram	-4918
▁Chris	-4919
▁Geist	-4920
▁drugs	-4921
▁zeige	-4922
▁Zahlen	-4923
▁Austral	-4924
▁bestimmt	-4925
pped	-4926
▁Seit	-4927
▁Sonne	-4928
▁nennt	-4929
▁nachzu	-4930
arbeiten	-4931
▁einfache	-4932
▁conscious	-4933
▁schneller	-4934
aybe	-4935
▁links	-4936
▁Kosten	-4937
▁action	-4938
▁integr	-4939
▁necess	-4940
▁setzen	-4941
▁spricht	-4942
Tatsächlich	-4943
▁evol	-4944
▁motiv	-4945
▁towards	-4946
▁genommen	-4947
▁herauszufinden	-4948
▁op	-4949
kehr	-4950
ällt	-4951
▁rich	-4952
dessen	-4953
▁daher	-4954
jenigen	-4955
▁strateg	-4956
▁überras	-4957
zü	-4958
▁Sol	-4959
ienst	-4960
▁Papier	-4961
▁sounds	-4962
▁capital	-4963
▁geschieht	-4964
▁Bi	-4965
änge	-4966
ously	-4967
spiel	-4968
▁Eink	-4969
▁schools	-4970
ee	-4971
ada	-4972
arf	-4973
kel	-4974
oke	-4975
atic	-4976
atte	-4977
▁akt	-4978
olekü	-4979
▁near	-4980
▁intro	-4981
indungen	-4982
▁geboren	-4983
▁projects	-4984
ami	-4985
rel	-4986
imal	-4987
▁Bel	-4988
▁North	-4989
▁speed	-4990
▁Bakter	-4991
▁Jahrze	-4992
▁machten	-4993
▁potential	-4994
▁Fähigkeiten	-4995
Ihr	-4996
▁Hel	-4997
flict	-4998
▁basic	-4999
▁virus	-5000
▁Europa	-5001
▁brachte	-5002
ows	-5003
ätzen	-5004
▁anzu	-5005
abhäng	-5006
nehmer	-5007
ämpfen	-5008
erstoff	-5009
enschaft	-5010
▁journey	-5011
▁Vereinigten	-5012
▁Tw	-5013
rief	-5014
älter	-5015
▁Hier	-5016
indest	-5017
ivität	-5018
▁refle	-5019
▁Amerika	-5020
▁Bewusst	-5021
▁fliegen	-5022
▁Mitgefühl	-5023
▁000	-5024
▁Fin	-5025
▁lok	-5026
▁mut	-5027
seite	-5028
verty	-5029
▁Geme	-5030
▁onto	-5031
▁games	-5032
wirkungen	-5033
▁materials	-5034
upp	-5035
▁gek	-5036
▁Firma	-5037
▁kreat	-5038
▁Fortsch	-5039
▁examples	-5040
▁Beziehung	-5041
▁University	-5042
▁interessiert	-5043
▁particularly	-5044
With	-5045
unger	-5046
▁frei	-5047
weisen	-5048
▁activ	-5049
▁liegen	-5050
▁Künstler	-5051
Ist	-5052
stru	-5053
▁kur	-5054
ühren	-5055
▁moved	-5056
▁quality	-5057
▁Oberfläche	-5058
▁scientific	-5059
▁wirtschaft	-5060
ta	-5061
▁Ju	-5062
affe	-5063
ette	-5064
artet	-5065
▁Schn	-5066
▁park	-5067
▁Maschine	-5068
▁sozialen	-5069
Me	-5070
▁la	-5071
oming	-5072
pidem	-5073
▁Meter	-5074
ilosoph	-5075
▁anybody	-5076
▁results	-5077
▁Ergebnis	-5078
Don	-5079
piele	-5080
▁Denn	-5081
▁character	-5082
By	-5083
come	-5084
▁Pal	-5085
▁hit	-5086
▁obs	-5087
antly	-5088
▁warm	-5089
▁Warum	-5090
▁track	-5091
▁Israel	-5092
▁office	-5093
▁rece	-5094
ichard	-5095
▁stimmt	-5096
olutions	-5097
▁Politik	-5098
▁zerstör	-5099
▁happiness	-5100
feld	-5101
viel	-5102
▁bee	-5103
munik	-5104
▁Leid	-5105
▁bank	-5106
▁gebe	-5107
Einige	-5108
lungen	-5109
osition	-5110
▁showing	-5111
▁transport	-5112
cial	-5113
▁Som	-5114
▁Hoch	-5115
▁nahe	-5116
▁wild	-5117
▁mount	-5118
▁multi	-5119
Während	-5120
▁Fehler	-5121
▁histor	-5122
▁gesamte	-5123
Of	-5124
cen	-5125
▁TV	-5126
▁mer	-5127
▁heut	-5128
isions	-5129
▁Kolle	-5130
▁trust	-5131
▁wants	-5132
▁anstatt	-5133
▁student	-5134
▁oh	-5135
nern	-5136
onse	-5137
▁arr	-5138
teile	-5139
▁plant	-5140
▁Behand	-5141
▁Hoffnung	-5142
▁demonstr	-5143
▁wichtige	-5144
▁repl	-5145
▁apart	-5146
▁biggest	-5147
▁largest	-5148
merksamkeit	-5149
▁gleichzeitig	-5150
abl	-5151
bung	-5152
▁Det	-5153
auten	-5154
wesen	-5155
▁Viel	-5156
▁nein	-5157
▁verfü	-5158
▁starts	-5159
▁passion	-5160
▁begannen	-5161
▁teachers	-5162
zer	-5163
medi	-5164
▁gas	-5165
▁cris	-5166
▁ernst	-5167
▁Wirklich	-5168
▁geschrieben	-5169
ägt	-5170
ickt	-5171
ikel	-5172
▁Ding	-5173
▁Wand	-5174
▁further	-5175
▁irgende	-5176
▁walking	-5177
▁chemical	-5178
▁violence	-5179
ari	-5180
▁effic	-5181
▁überw	-5182
▁sprach	-5183
▁verurs	-5184
▁zuerst	-5185
▁creative	-5186
▁Sm	-5187
abel	-5188
like	-5189
igens	-5190
altung	-5191
ativen	-5192
gendes	-5193
▁Druck	-5194
▁Islam	-5195
▁separ	-5196
▁screen	-5197
▁Schulen	-5198
▁dachten	-5199
▁exciting	-5200
▁security	-5201
▁obviously	-5202
▁wichtiger	-5203
leg	-5204
▁Beg	-5205
trauen	-5206
▁Armut	-5207
▁Karte	-5208
▁clean	-5209
▁graph	-5210
aughter	-5211
▁memory	-5212
▁poverty	-5213
▁certainly	-5214
more	-5215
Jeder	-5216
▁bill	-5217
▁verh	-5218
teilen	-5219
▁Kreat	-5220
▁Ozean	-5221
▁cross	-5222
▁medizin	-5223
▁democracy	-5224
▁gesprochen	-5225
▁Aufmerksamkeit	-5226
ürf	-5227
▁früher	-5228
▁hinein	-5229
▁terror	-5230
lo	-5231
▁She	-5232
▁desc	-5233
▁Alter	-5234
▁großer	-5235
plicated	-5236
▁Gruppen	-5237
▁totally	-5238
▁everywhere	-5239
nete	-5240
▁Sex	-5241
▁Mark	-5242
▁jobs	-5243
▁prot	-5244
ometer	-5245
tember	-5246
▁tragen	-5247
▁context	-5248
▁Menschheit	-5249
▁Ed	-5250
.“",	-5251
stre	-5252
▁fam	-5253
▁bald	-5254
▁kosten	-5255
▁nobody	-5256
▁threat	-5257
▁neighbor	-5258
▁extremely	-5259
front	-5260
odies	-5261
▁door	-5262
▁role	-5263
▁carry	-5264
▁camera	-5265
▁compet	-5266
▁member	-5267
▁bessere	-5268
▁particip	-5269
Look	-5270
etic	-5271
▁swe	-5272
astic	-5273
▁meant	-5274
ruption	-5275
▁Hinter	-5276
▁bewegt	-5277
▁Experiment	-5278
ror	-5279
deck	-5280
▁400	-5281
▁higher	-5282
▁region	-5283
▁transl	-5284
▁Reaktion	-5285
▁conflict	-5286
▁verlassen	-5287
▁Demokratie	-5288
icle	-5289
▁Fle	-5290
▁Vol	-5291
▁citi	-5292
▁dynam	-5293
▁junge	-5294
▁Zugang	-5295
▁account	-5296
▁passierte	-5297
▁represent	-5298
sth	-5299
plan	-5300
▁nar	-5301
▁Dorf	-5302
▁Russ	-5303
wissen	-5304
▁Diese	-5305
▁ihres	-5306
▁kompl	-5307
▁Seiten	-5308
▁deliver	-5309
▁response	-5310
▁Bevölkerung	-5311
IT	-5312
unt	-5313
rage	-5314
▁capt	-5315
ustand	-5316
▁sahen	-5317
underte	-5318
▁verbra	-5319
▁ähnlich	-5320
▁Pflanzen	-5321
imin	-5322
over	-5323
ramm	-5324
▁Erf	-5325
▁ehr	-5326
▁mis	-5327
▁Büro	-5328
ground	-5329
wasser	-5330
▁Regeln	-5331
▁spirit	-5332
▁verbessern	-5333
erei	-5334
▁hot	-5335
dress	-5336
▁lose	-5337
osystem	-5338
▁continue	-5339
▁beobachten	-5340
30	-5341
ham	-5342
kon	-5343
ares	-5344
bald	-5345
▁boy	-5346
▁appl	-5347
▁deut	-5348
▁poll	-5349
▁minds	-5350
Deshalb	-5351
▁brains	-5352
▁notice	-5353
▁private	-5354
▁collabor	-5355
amin	-5356
ulpt	-5357
immel	-5358
▁Orte	-5359
▁Ress	-5360
▁gern	-5361
ourcen	-5362
▁trial	-5363
▁urban	-5364
▁Bücher	-5365
▁objects	-5366
▁Einfluss	-5367
▁favorite	-5368
▁bestimmten	-5369
mon	-5370
krie	-5371
mark	-5372
Where	-5373
▁Schön	-5374
▁Wörter	-5375
▁Versuch	-5376
▁Kontrolle	-5377
▁ö	-5378
ael	-5379
lei	-5380
pre	-5381
zies	-5382
▁Bab	-5383
▁zus	-5384
eless	-5385
▁birth	-5386
▁sequen	-5387
▁thousand	-5388
will	-5389
▁Kan	-5390
Maybe	-5391
inken	-5392
ächen	-5393
▁Wohl	-5394
▁näher	-5395
▁ready	-5396
unately	-5397
▁including	-5398
▁gearbeitet	-5399
▁Sw	-5400
etze	-5401
ützt	-5402
▁150	-5403
▁Uhr	-5404
▁sil	-5405
ffekt	-5406
▁Baby	-5407
▁Sohn	-5408
▁Terr	-5409
▁safe	-5410
▁sand	-5411
▁adult	-5412
▁prakt	-5413
iologie	-5414
ossible	-5415
▁versuchte	-5416
ala	-5417
olly	-5418
▁Str	-5419
▁ine	-5420
zusch	-5421
▁Wohn	-5422
▁natür	-5423
indruck	-5424
▁watching	-5425
▁individuals	-5426
▁extraordinary	-5427
Sh	-5428
itte	-5429
▁Why	-5430
▁prop	-5431
▁cause	-5432
▁trees	-5433
▁nation	-5434
▁Studien	-5435
▁ständig	-5436
▁supposed	-5437
▁Medikamen	-5438
▁Universität	-5439
▁1.	-5440
▁vac	-5441
orfen	-5442
▁Baum	-5443
▁empf	-5444
▁altern	-5445
▁ansehen	-5446
▁Krankheiten	-5447
Alle	-5448
iegel	-5449
▁named	-5450
▁quant	-5451
▁remark	-5452
▁Grenzen	-5453
▁Monaten	-5454
▁Software	-5455
▁medicine	-5456
▁buildings	-5457
▁connected	-5458
▁Id	-5459
▁fill	-5460
▁finde	-5461
▁models	-5462
▁Konzept	-5463
▁discuss	-5464
▁emotion	-5465
▁bemerken	-5466
▁perspect	-5467
▁eventually	-5468
ragt	-5469
▁Lauf	-5470
▁list	-5471
▁labor	-5472
vention	-5473
▁bleibt	-5474
▁activity	-5475
▁psycholog	-5476
uk	-5477
Dam	-5478
letz	-5479
▁Fil	-5480
Sehen	-5481
atory	-5482
▁lern	-5483
▁meth	-5484
▁Niger	-5485
▁diagn	-5486
▁inform	-5487
▁finding	-5488
▁nuclear	-5489
▁village	-5490
▁communities	-5491
tex	-5492
Alles	-5493
ulate	-5494
▁gehe	-5495
▁grew	-5496
▁laun	-5497
schlag	-5498
▁crazy	-5499
peratur	-5500
▁author	-5501
▁Erinner	-5502
Ob	-5503
▁Hin	-5504
ables	-5505
▁skin	-5506
▁Telef	-5507
schluss	-5508
▁plants	-5509
▁source	-5510
entliche	-5511
▁studies	-5512
windigkeit	-5513
öp	-5514
zwe	-5515
obil	-5516
▁Trä	-5517
▁etc	-5518
▁clin	-5519
▁worse	-5520
▁affect	-5521
▁faster	-5522
▁return	-5523
▁Beispiele	-5524
eles	-5525
ements	-5526
▁sitzen	-5527
▁richtige	-5528
▁essentially	-5529
elf	-5530
lern	-5531
▁tar	-5532
▁2000	-5533
▁Arab	-5534
▁Bank	-5535
▁dete	-5536
▁goal	-5537
▁push	-5538
hington	-5539
▁appear	-5540
▁African	-5541
▁concern	-5542
▁teacher	-5543
▁einzelne	-5544
▁hospital	-5545
▁richtigen	-5546
aue	-5547
ery	-5548
joy	-5549
here	-5550
ücht	-5551
ünft	-5552
aving	-5553
▁Orten	-5554
▁Regen	-5555
▁truly	-5556
▁disapp	-5557
▁taught	-5558
▁arbeitet	-5559
▁conditions	-5560
gy	-5561
kr	-5562
ufe	-5563
After	-5564
▁bunch	-5565
▁movie	-5566
▁Nachbar	-5567
▁position	-5568
▁Innovation	-5569
lauf	-5570
▁Asp	-5571
annen	-5572
ausend	-5573
▁lands	-5574
ilities	-5575
▁Stelle	-5576
▁spezie	-5577
▁introdu	-5578
▁wussten	-5579
▁suddenly	-5580
▁Evolution	-5581
▁offensichtlich	-5582
plex	-5583
▁mine	-5584
aterie	-5585
▁denkt	-5586
▁forms	-5587
▁galax	-5588
▁waste	-5589
▁bilden	-5590
▁immedi	-5591
▁princi	-5592
▁voller	-5593
▁colleag	-5594
▁vergessen	-5595
Pl	-5596
ech	-5597
rior	-5598
stet	-5599
uern	-5600
▁shown	-5601
▁products	-5602
bit	-5603
imb	-5604
▁To	-5605
▁Bud	-5606
räfte	-5607
▁Paul	-5608
▁Spaß	-5609
▁phen	-5610
▁Morgen	-5611
▁doctor	-5612
▁großes	-5613
▁stress	-5614
▁Vergangen	-5615
▁$	-5616
üss	-5617
abet	-5618
cape	-5619
gere	-5620
▁Col	-5621
▁bal	-5622
▁rot	-5623
▁Nicht	-5624
▁choose	-5625
▁verlieren	-5626
▁impossible	-5627
▁Wirklichkeit	-5628
▁nachzudenken	-5629
sm	-5630
edia	-5631
▁Ser	-5632
arian	-5633
auber	-5634
astrop	-5635
▁Tagen	-5636
▁analys	-5637
▁crisis	-5638
▁massive	-5639
Yes	-5640
osh	-5641
urg	-5642
First	-5643
▁Oper	-5644
▁Zeug	-5645
▁late	-5646
▁site	-5647
▁Konfl	-5648
▁above	-5649
ustrial	-5650
▁Gebiet	-5651
ständnis	-5652
zeichnet	-5653
▁Twitter	-5654
▁erzeugen	-5655
▁emotional	-5656
▁möglichen	-5657
▁Mathematik	-5658
▁complicated	-5659
abr	-5660
▁Abs	-5661
▁Bot	-5662
bauen	-5663
▁East	-5664
▁cart	-5665
▁Galax	-5666
▁dahin	-5667
▁sorts	-5668
▁Molekü	-5669
▁indeed	-5670
▁address	-5671
ued	-5672
▁35	-5673
edom	-5674
onent	-5675
▁früh	-5676
▁mist	-5677
▁rele	-5678
Mensch	-5679
ferenz	-5680
▁domin	-5681
▁höher	-5682
▁larger	-5683
▁Schüler	-5684
▁respond	-5685
▁globalen	-5686
▁somewhere	-5687
▁Washington	-5688
▁traditional	-5689
▁Vergangenheit	-5690
ires	-5691
ises	-5692
erven	-5693
▁Kern	-5694
▁rain	-5695
ielten	-5696
ruction	-5697
▁kannst	-5698
▁Francis	-5699
legenheit	-5700
osm	-5701
ürz	-5702
▁sn	-5703
▁doc	-5704
▁rid	-5705
▁Dann	-5706
▁task	-5707
ctions	-5708
ensive	-5709
▁Kampf	-5710
▁Relig	-5711
▁killed	-5712
▁retten	-5713
▁content	-5714
▁erlaubt	-5715
▁anschauen	-5716
▁arbeitete	-5717
▁Ergebnisse	-5718
▁Entscheidung	-5719
dom	-5720
olit	-5721
▁Gel	-5722
ender	-5723
▁Bill	-5724
▁Port	-5725
▁stär	-5726
▁Gerät	-5727
▁lower	-5728
izations	-5729
▁allowed	-5730
▁hundert	-5731
▁gebracht	-5732
▁signific	-5733
Gl	-5734
po	-5735
▁Hy	-5736
▁Ma	-5737
▁tä	-5738
itor	-5739
klär	-5740
ured	-5741
▁Ord	-5742
▁Tas	-5743
▁cat	-5744
▁häuf	-5745
ierende	-5746
▁minute	-5747
▁robots	-5748
Any	-5749
▁Gu	-5750
▁enjoy	-5751
▁Landes	-5752
▁Spezies	-5753
▁Institut	-5754
▁Nachricht	-5755
▁interview	-5756
edes	-5757
iced	-5758
▁Los	-5759
iesen	-5760
rasch	-5761
▁Sign	-5762
▁Gesetz	-5763
▁afford	-5764
▁allows	-5765
▁launch	-5766
▁points	-5767
▁aussieht	-5768
ya	-5769
ckte	-5770
falt	-5771
▁erg	-5772
▁kre	-5773
erman	-5774
▁coun	-5775
stellt	-5776
▁Feuer	-5777
▁Leist	-5778
▁earth	-5779
isation	-5780
▁fascin	-5781
▁mental	-5782
▁Frieden	-5783
▁phenomen	-5784
▁training	-5785
▁zumindest	-5786
▁surprising	-5787
ört	-5788
▁If	-5789
Most	-5790
merz	-5791
▁web	-5792
▁Sand	-5793
▁winz	-5794
▁cases	-5795
▁ended	-5796
▁führte	-5797
▁gewalt	-5798
▁series	-5799
▁produzieren	-5800
Dar	-5801
altet	-5802
▁selt	-5803
▁wife	-5804
ournal	-5805
▁Worte	-5806
▁alive	-5807
▁attra	-5808
▁stick	-5809
Schauen	-5810
▁manche	-5811
▁bacteria	-5812
▁gewinnen	-5813
▁irgendwo	-5814
▁Bakterien	-5815
Tod	-5816
ius	-5817
mand	-5818
▁pen	-5819
Chris	-5820
board	-5821
▁Kong	-5822
▁Priv	-5823
▁deine	-5824
▁Firmen	-5825
▁England	-5826
▁decision	-5827
▁gesamten	-5828
fs	-5829
Hey	-5830
vert	-5831
▁MIT	-5832
econd	-5833
▁Haut	-5834
▁echt	-5835
▁Ebene	-5836
▁hilft	-5837
▁beings	-5838
▁morgen	-5839
▁report	-5840
▁usually	-5841
▁Personen	-5842
▁increase	-5843
ara	-5844
▁Mü	-5845
mals	-5846
orts	-5847
▁bur	-5848
genie	-5849
▁card	-5850
reiten	-5851
▁bodies	-5852
▁symbol	-5853
▁Theorie	-5854
▁college	-5855
▁critical	-5856
▁families	-5857
▁Verantwort	-5858
▁architecture	-5859
ray	-5860
rep	-5861
wür	-5862
leist	-5863
▁inse	-5864
▁roll	-5865
though	-5866
▁check	-5867
▁Objekt	-5868
▁fertig	-5869
▁healthy	-5870
▁schreck	-5871
▁patterns	-5872
▁standing	-5873
▁trotzdem	-5874
▁successful	-5875
lier	-5876
obal	-5877
▁Zuf	-5878
icians	-5879
werfen	-5880
▁older	-5881
▁Terror	-5882
▁einges	-5883
▁keiner	-5884
▁excited	-5885
▁physics	-5886
▁erfahren	-5887
▁perspective	-5888
Sp	-5889
ago	-5890
▁Ern	-5891
▁Yeah	-5892
▁code	-5893
▁kaum	-5894
vented	-5895
▁price	-5896
▁sowohl	-5897
▁Kommunik	-5898
▁conversation	-5899
▁dog	-5900
▁mat	-5901
▁sky	-5902
änden	-5903
örder	-5904
▁Phil	-5905
▁fine	-5906
▁luck	-5907
▁vert	-5908
utzung	-5909
▁pieces	-5910
▁reading	-5911
▁electricity	-5912
ux	-5913
Von	-5914
des	-5915
▁NA	-5916
Even	-5917
aria	-5918
rene	-5919
▁oxy	-5920
blich	-5921
▁burn	-5922
▁traf	-5923
▁throw	-5924
▁prison	-5925
▁solchen	-5926
▁befinden	-5927
▁verbinden	-5928
ids	-5929
agine	-5930
▁Heim	-5931
▁Nein	-5932
▁lines	-5933
▁Comput	-5934
▁doctors	-5935
▁influen	-5936
▁mention	-5937
▁provide	-5938
▁Netzwerk	-5939
▁untersuchen	-5940
Na	-5941
aim	-5942
dig	-5943
prü	-5944
rem	-5945
uls	-5946
isms	-5947
rang	-5948
holen	-5949
▁Test	-5950
▁cook	-5951
ierter	-5952
▁Stamm	-5953
▁Invest	-5954
▁Sekunden	-5955
▁erschein	-5956
▁versuche	-5957
▁treatment	-5958
▁heutzutage	-5959
Nur	-5960
rig	-5961
ählt	-5962
kelet	-5963
orben	-5964
▁Will	-5965
iments	-5966
▁Gespr	-5967
▁aktiv	-5968
▁aufre	-5969
▁Chance	-5970
▁spielt	-5971
ingungen	-5972
▁somehow	-5973
▁specific	-5974
licherweise	-5975
Com	-5976
ulf	-5977
ingu	-5978
▁Bas	-5979
▁lag	-5980
hnung	-5981
▁upon	-5982
machen	-5983
iversity	-5984
▁biology	-5985
▁describ	-5986
▁neurons	-5987
▁Anderson	-5988
▁bestimmte	-5989
▁einzelnen	-5990
▁geschehen	-5991
aging	-5992
iling	-5993
▁alte	-5994
▁Fotos	-5995
▁Gefäng	-5996
▁Geheim	-5997
▁einzig	-5998
▁rights	-5999
▁sodass	-6000
▁zeigte	-6001
▁himself	-6002
▁riesige	-6003
▁argument	-6004
▁entdecken	-6005
▁unmöglich	-6006
aup	-6007
pret	-6008
▁Ker	-6009
▁bor	-6010
riere	-6011
▁tree	-6012
assung	-6013
▁talks	-6014
▁financ	-6015
▁written	-6016
▁anywhere	-6017
▁gekommen	-6018
Auch	-6019
uber	-6020
▁kept	-6021
▁yeah	-6022
glicht	-6023
▁Hände	-6024
▁magic	-6025
▁Denken	-6026
▁Indian	-6027
▁express	-6028
▁recognize	-6029
▁Bewusstsein	-6030
aat	-6031
amt	-6032
▁inn	-6033
gener	-6034
kommt	-6035
seits	-6036
▁AIDS	-6037
▁Disk	-6038
▁Gene	-6039
▁sele	-6040
▁town	-6041
▁Monat	-6042
▁nenne	-6043
▁stars	-6044
erences	-6045
▁smaller	-6046
▁decisions	-6047
Ste	-6048
örp	-6049
▁"[	-6050
wers	-6051
redit	-6052
teten	-6053
▁erhö	-6054
▁port	-6055
▁wirk	-6056
akistan	-6057
▁Formen	-6058
▁School	-6059
▁seconds	-6060
▁aufgrund	-6061
▁military	-6062
▁programm	-6063
ios	-6064
erve	-6065
hyth	-6066
scht	-6067
▁Kur	-6068
▁bab	-6069
ahmen	-6070
▁Kons	-6071
▁hält	-6072
▁rund	-6073
wenden	-6074
▁automat	-6075
▁erklärt	-6076
▁version	-6077
▁ermöglicht	-6078
▁increasing	-6079
▁organization	-6080
Aus	-6081
key	-6082
buch	-6083
ilet	-6084
same	-6085
▁Bei	-6086
▁hop	-6087
äuser	-6088
▁Arzt	-6089
▁math	-6090
▁neun	-6091
▁uses	-6092
▁wund	-6093
ektive	-6094
reitet	-6095
▁Times	-6096
▁letzt	-6097
▁Museum	-6098
▁calcul	-6099
▁runter	-6100
▁gefragt	-6101
▁Kollegen	-6102
▁großartige	-6103
▁Architektur	-6104
▁Auswirkungen	-6105
hang	-6106
▁whe	-6107
lands	-6108
sprün	-6109
▁Miss	-6110
▁Mond	-6111
▁lebt	-6112
▁page	-6113
ightly	-6114
▁angef	-6115
▁occur	-6116
▁skills	-6117
▁Partner	-6118
▁service	-6119
▁Erwachsen	-6120
▁Ressourcen	-6121
2,	-6122
zi	-6123
▁Po	-6124
time	-6125
▁fil	-6126
emand	-6127
▁west	-6128
istent	-6129
▁Bezug	-6130
▁Bühne	-6131
▁Wachstum	-6132
▁becoming	-6133
▁humanity	-6134
▁machines	-6135
▁Regierungen	-6136
5,	-6137
mäß	-6138
ügel	-6139
▁Tal	-6140
▁Präs	-6141
ration	-6142
zimmer	-6143
▁Linie	-6144
▁Prote	-6145
▁genes	-6146
▁molec	-6147
ualität	-6148
▁Vielen	-6149
▁jungen	-6150
▁messen	-6151
▁passen	-6152
▁statist	-6153
▁listening	-6154
▁cele	-6155
▁wann	-6156
atives	-6157
ieties	-6158
▁actual	-6159
▁painting	-6160
▁straight	-6161
fortunately	-6162
leb	-6163
yle	-6164
äte	-6165
▁Gh	-6166
play	-6167
▁veh	-6168
Eines	-6169
äusch	-6170
▁vern	-6171
Denken	-6172
ameras	-6173
zahlen	-6174
▁board	-6175
▁ignor	-6176
▁employ	-6177
▁please	-6178
▁secret	-6179
▁anymore	-6180
▁dadurch	-6181
8,	-6182
ähig	-6183
▁las	-6184
ights	-6185
▁Ball	-6186
▁hell	-6187
▁Entdeck	-6188
▁standard	-6189
▁großartig	-6190
▁Amerikaner	-6191
▁herausfinden	-6192
ino	-6193
▁Sä	-6194
dete	-6195
▁Dan	-6196
▁Nor	-6197
▁rand	-6198
▁spect	-6199
▁Ordnung	-6200
▁irgendw	-6201
▁leisten	-6202
▁sammeln	-6203
▁betrachtet	-6204
▁Beziehungen	-6205
▁performance	-6206
▁öffentlichen	-6207
9,	-6208
tes	-6209
▁sor	-6210
obert	-6211
werke	-6212
▁High	-6213
▁legs	-6214
▁nerv	-6215
▁rise	-6216
▁beauty	-6217
imension	-6218
▁schützen	-6219
▁dangerous	-6220
▁solutions	-6221
Ind	-6222
omm	-6223
▁ca	-6224
reng	-6225
▁Sep	-6226
▁kil	-6227
▁nut	-6228
iegen	-6229
ildet	-6230
steht	-6231
▁Höhe	-6232
▁cold	-6233
▁Traum	-6234
▁hörte	-6235
▁loved	-6236
▁läuft	-6237
▁Bienen	-6238
▁Jahres	-6239
▁Klimaw	-6240
▁determ	-6241
▁policy	-6242
▁current	-6243
▁entdeckt	-6244
▁verstanden	-6245
pts	-6246
▁Nä	-6247
ffic	-6248
seit	-6249
attle	-6250
▁Berg	-6251
▁Rand	-6252
▁lief	-6253
▁Zivil	-6254
▁niedr	-6255
▁strug	-6256
mitteln	-6257
▁Himmel	-6258
▁verfol	-6259
▁Methode	-6260
▁greater	-6261
▁Flugzeug	-6262
▁Funktion	-6263
▁einander	-6264
▁expensive	-6265
Who	-6266
icon	-6267
oden	-6268
pose	-6269
▁desp	-6270
▁harm	-6271
▁zufä	-6272
▁brand	-6273
▁Systeme	-6274
▁bestehen	-6275
▁gestellt	-6276
▁normalerweise	-6277
iat	-6278
ppe	-6279
Yeah	-6280
aker	-6281
ften	-6282
nder	-6283
vard	-6284
ährt	-6285
▁Bus	-6286
Today	-6287
grupp	-6288
itute	-6289
▁höch	-6290
stoffe	-6291
▁catch	-6292
▁danke	-6293
▁police	-6294
▁brother	-6295
▁earlier	-6296
▁willing	-6297
▁erzählte	-6298
▁familiar	-6299
▁entschieden	-6300
▁Ere	-6301
phone	-6302
▁crow	-6303
▁jump	-6304
▁glass	-6305
▁Gründe	-6306
arbeiter	-6307
zunehmen	-6308
▁Richard	-6309
▁zweiten	-6310
iner	-6311
ütter	-6312
▁abge	-6313
▁Sinne	-6314
▁drink	-6315
▁kommun	-6316
▁clearly	-6317
▁genetic	-6318
▁citizens	-6319
▁September	-6320
▁diejenigen	-6321
▁throughout	-6322
▁intelligence	-6323
,"	-6324
fekt	-6325
acity	-6326
▁Verfü	-6327
▁funny	-6328
▁älter	-6329
teilung	-6330
▁plastic	-6331
chnologie	-6332
▁Designer	-6333
ads	-6334
con	-6335
berg	-6336
önen	-6337
▁Wik	-6338
Those	-6339
auern	-6340
▁worry	-6341
schiede	-6342
▁Wieder	-6343
▁bisher	-6344
▁famous	-6345
▁Freiheit	-6346
▁außerhalb	-6347
▁environmental	-6348
iant	-6349
lose	-6350
▁fit	-6351
▁sam	-6352
anter	-6353
cause	-6354
reten	-6355
▁leid	-6356
▁shot	-6357
▁weap	-6358
▁Angel	-6359
▁costs	-6360
▁reich	-6361
▁store	-6362
▁weren	-6363
inosaur	-6364
reprene	-6365
▁Geburt	-6366
▁rechts	-6367
▁weight	-6368
ierenden	-6369
▁Nahrung	-6370
▁comfort	-6371
▁practice	-6372
▁geschaffen	-6373
▁production	-6374
▁Krankenhaus	-6375
sum	-6376
ceed	-6377
ding	-6378
▁ord	-6379
▁Bang	-6380
rochen	-6381
▁range	-6382
▁fallen	-6383
▁levels	-6384
▁random	-6385
▁befindet	-6386
MS	-6387
ae	-6388
osc	-6389
ends	-6390
änomen	-6391
▁berüh	-6392
▁liber	-6393
▁mächt	-6394
▁career	-6395
▁celebr	-6396
▁forest	-6397
▁surger	-6398
▁Gehirns	-6399
▁freedom	-6400
▁greatest	-6401
▁übrigens	-6402
▁Americans	-6403
▁interessante	-6404
7,	-6405
▁Ak	-6406
ancy	-6407
lant	-6408
riff	-6409
▁pan	-6410
▁ther	-6411
▁Brust	-6412
▁behaup	-6413
▁handelt	-6414
▁45	-6415
itat	-6416
mend	-6417
omas	-6418
trag	-6419
ained	-6420
anced	-6421
aries	-6422
iding	-6423
orien	-6424
rifft	-6425
ringt	-6426
▁Inse	-6427
sweise	-6428
tragen	-6429
▁Liebl	-6430
▁decade	-6431
▁saving	-6432
▁values	-6433
▁waiting	-6434
▁website	-6435
▁herunter	-6436
▁effective	-6437
▁therefore	-6438
afr	-6439
iell	-6440
inct	-6441
reche	-6442
reibt	-6443
▁Pass	-6444
▁ille	-6445
▁Frank	-6446
▁final	-6447
▁legal	-6448
▁Nerven	-6449
▁Ingenie	-6450
▁decades	-6451
▁einzigen	-6452
▁Maschinen	-6453
▁distribut	-6454
spe	-6455
afen	-6456
wick	-6457
▁cru	-6458
essor	-6459
etzte	-6460
▁uner	-6461
schuld	-6462
stelle	-6463
▁Fluss	-6464
gesetzt	-6465
▁Jungen	-6466
▁artist	-6467
▁Harvard	-6468
▁driving	-6469
▁welcher	-6470
▁fantastic	-6471
▁grundlegen	-6472
▁unterstützen	-6473
▁Dis	-6474
▁sus	-6475
!\"",	-6476
Daher	-6477
itten	-6478
▁Gold	-6479
▁antw	-6480
▁desto	-6481
▁forth	-6482
imately	-6483
▁ebenso	-6484
▁profit	-6485
▁meeting	-6486
▁teaching	-6487
▁wundersch	-6488
▁Erfahrungen	-6489
▁amerikanischen	-6490
uc	-6491
▁Mr	-6492
iens	-6493
▁Ame	-6494
▁Che	-6495
▁See	-6496
▁dri	-6497
▁inj	-6498
▁Wege	-6499
achtet	-6500
▁aufzu	-6501
▁gradu	-6502
▁taten	-6503
▁Ärzte	-6504
▁Beginn	-6505
▁Drogen	-6506
apes	-6507
imul	-6508
uchst	-6509
ählen	-6510
▁Gefü	-6511
▁ausz	-6512
▁poet	-6513
nungen	-6514
▁Farbe	-6515
▁König	-6516
▁encou	-6517
▁shark	-6518
unächst	-6519
▁Intell	-6520
▁mobile	-6521
▁remind	-6522
▁selben	-6523
▁temper	-6524
▁walked	-6525
▁remarkable	-6526
▁Verständnis	-6527
ih	-6528
uzz	-6529
▁One	-6530
▁ran	-6531
aptop	-6532
lecht	-6533
wärts	-6534
▁Lehr	-6535
▁foss	-6536
▁floor	-6537
▁unver	-6538
▁warten	-6539
▁respect	-6540
▁strange	-6541
▁direction	-6542
▁Behandlung	-6543
▁connection	-6544
▁intelligent	-6545
▁»	-6546
für	-6547
hib	-6548
ikt	-6549
▁Hirn	-6550
schirm	-6551
▁Einzel	-6552
▁babies	-6553
▁dritte	-6554
▁improv	-6555
▁square	-6556
▁Erkennt	-6557
▁Pakistan	-6558
▁entweder	-6559
▁heutigen	-6560
▁einfachen	-6561
▁herstellen	-6562
▁governments	-6563
▁Organisation	-6564
200	-6565
hers	-6566
▁cry	-6567
Somet	-6568
▁Mont	-6569
▁Wald	-6570
▁lust	-6571
passen	-6572
rennen	-6573
▁Regel	-6574
ätzlich	-6575
▁Muslim	-6576
▁myster	-6577
▁wealth	-6578
▁Western	-6579
▁Lösungen	-6580
▁bedeuten	-6581
▁erwarten	-6582
▁invented	-6583
▁politics	-6584
▁institutions	-6585
ady	-6586
▁Lö	-6587
stes	-6588
▁deb	-6589
platz	-6590
▁Herr	-6591
Können	-6592
▁ahead	-6593
▁types	-6594
Another	-6595
▁Westen	-6596
▁wenige	-6597
Menschen	-6598
▁choices	-6599
▁erleben	-6600
ikanischen	-6601
▁,	-6602
ils	-6603
▁km	-6604
▁div	-6605
Right	-6606
endes	-6607
unsch	-6608
▁laws	-6609
▁Instr	-6610
▁Liste	-6611
▁match	-6612
▁method	-6613
▁services	-6614
▁Interesse	-6615
▁getroffen	-6616
ellschaften	-6617
▁außergewöhn	-6618
Ex	-6619
bü	-6620
rees	-6621
▁gutes	-6622
▁Zeitpunkt	-6623
▁challenges	-6624
▁immediately	-6625
▁neighborhood	-6626
ibl	-6627
▁Wo	-6628
▁Nun	-6629
▁grü	-6630
▁jud	-6631
▁win	-6632
arter	-6633
dings	-6634
hrten	-6635
▁Name	-6636
▁guter	-6637
zugehen	-6638
▁abstra	-6639
▁fühlte	-6640
▁helped	-6641
▁Englisch	-6642
▁dasselbe	-6643
urm	-6644
hnte	-6645
gency	-6646
▁rule	-6647
ildern	-6648
barkeit	-6649
▁Lernen	-6650
▁Stunde	-6651
▁honest	-6652
▁income	-6653
▁unique	-6654
ervation	-6655
▁Californ	-6656
1,	-6657
ieß	-6658
▁zero	-6659
▁whose	-6660
▁Meeres	-6661
▁Individ	-6662
▁effects	-6663
▁mehrere	-6664
▁popular	-6665
▁engineering	-6666
▁Jahrhunderts	-6667
fel	-6668
▁Ru	-6669
▁Chic	-6670
▁Weil	-6671
aurant	-6672
▁Wesen	-6673
▁surve	-6674
▁Ereign	-6675
▁flying	-6676
▁various	-6677
▁electron	-6678
stellungen	-6679
▁Einkommen	-6680
▁following	-6681
PS	-6682
seh	-6683
uhl	-6684
esis	-6685
Inter	-6686
masch	-6687
▁blog	-6688
▁race	-6689
anning	-6690
▁James	-6691
▁concl	-6692
▁erfor	-6693
▁radio	-6694
Imagine	-6695
▁decide	-6696
▁seines	-6697
▁shared	-6698
frastruct	-6699
▁Francisco	-6700
▁Medikamente	-6701
▁Veränderungen	-6702
hi	-6703
Ihre	-6704
erem	-6705
▁Gal	-6706
▁Jul	-6707
▁Mut	-6708
Which	-6709
round	-6710
stück	-6711
▁hart	-6712
▁jene	-6713
▁apply	-6714
▁Punkte	-6715
▁Zeiten	-6716
▁gewiss	-6717
▁selten	-6718
▁useful	-6719
\"-	-6720
urb	-6721
öse	-6722
anne	-6723
▁Ton	-6724
▁unc	-6725
▁unf	-6726
ypoth	-6727
▁--",	-6728
▁Sold	-6729
▁hinge	-6730
▁relev	-6731
▁voraus	-6732
▁Artikel	-6733
▁condition	-6734
▁financial	-6735
▁societies	-6736
iete	-6737
iles	-6738
▁Kol	-6739
alley	-6740
▁Gewe	-6741
▁Prot	-6742
▁Worten	-6743
gefunden	-6744
▁install	-6745
▁instance	-6746
imensional	-6747
▁Schönheit	-6748
aign	-6749
ammt	-6750
aste	-6751
▁Kir	-6752
ustom	-6753
▁Fakt	-6754
▁hous	-6755
itionen	-6756
▁expand	-6757
Ab	-6758
ico	-6759
brit	-6760
pack	-6761
▁Fen	-6762
▁Mär	-6763
▁Sil	-6764
eting	-6765
▁Auge	-6766
▁Green	-6767
▁Tisch	-6768
▁telev	-6769
▁trade	-6770
▁German	-6771
▁Kamera	-6772
▁Telefon	-6773
▁ehrlich	-6774
▁diseases	-6775
▁enormous	-6776
▁erinnere	-6777
▁schlechte	-6778
gain	-6779
▁hyd	-6780
▁sad	-6781
elche	-6782
▁Quad	-6783
▁worst	-6784
standen	-6785
wendung	-6786
▁forget	-6787
▁nachhalt	-6788
▁terrible	-6789
▁Schlüssel	-6790
▁vollständ	-6791
▁California	-6792
▁creativity	-6793
▁unglaubliche	-6794
▁Verantwortung	-6795
▁Sl	-6796
ners	-6797
▁Arg	-6798
auert	-6799
▁Cong	-6800
▁Körp	-6801
▁hair	-6802
▁tiss	-6803
▁raise	-6804
▁Finanz	-6805
▁Tieren	-6806
▁commit	-6807
▁nahmen	-6808
▁although	-6809
▁schicken	-6810
▁infrastruct	-6811
hem	-6812
▁Sal	-6813
▁wün	-6814
eller	-6815
stütz	-6816
▁fuel	-6817
▁below	-6818
▁Polize	-6819
▁Videos	-6820
▁accept	-6821
▁elektr	-6822
▁journal	-6823
▁possibly	-6824
▁Gefängnis	-6825
▁ebenfalls	-6826
▁verkaufen	-6827
▁entreprene	-6828
wise	-6829
▁Let	-6830
▁bio	-6831
▁bud	-6832
▁zug	-6833
Einer	-6834
angel	-6835
hlung	-6836
▁dunk	-6837
▁isol	-6838
▁verme	-6839
▁Bedürf	-6840
▁George	-6841
▁Teilen	-6842
▁wählen	-6843
▁Projekte	-6844
▁erfunden	-6845
▁Vergleich	-6846
▁üb	-6847
ilien	-6848
selben	-6849
▁dauer	-6850
▁fällt	-6851
▁posit	-6852
▁print	-6853
gebracht	-6854
▁Chicago	-6855
▁Glauben	-6856
▁Position	-6857
▁pressure	-6858
frastruktur	-6859
▁durchschnitt	-6860
Tube	-6861
▁Eth	-6862
▁aid	-6863
▁hom	-6864
bewer	-6865
gaben	-6866
▁vict	-6867
▁anyway	-6868
▁effekt	-6869
▁Städten	-6870
▁globale	-6871
▁wunderv	-6872
▁jemandem	-6873
▁original	-6874
▁religion	-6875
▁behandeln	-6876
▁existiert	-6877
▁vergleich	-6878
aber	-6879
▁"19	-6880
essed	-6881
hlten	-6882
iated	-6883
kraft	-6884
ufact	-6885
▁mitt	-6886
▁aware	-6887
▁slide	-6888
isierte	-6889
▁summer	-6890
▁supply	-6891
▁Komplex	-6892
▁explore	-6893
▁gedacht	-6894
▁prevent	-6895
▁survive	-6896
▁Fortschritt	-6897
▁Eigenschaften	-6898
maß	-6899
val	-6900
▁Co	-6901
cies	-6902
reib	-6903
räge	-6904
odell	-6905
▁Right	-6906
▁Suche	-6907
▁Werte	-6908
▁assoc	-6909
zusagen	-6910
▁Physik	-6911
▁female	-6912
minister	-6913
▁answers	-6914
▁eigenes	-6915
▁geschah	-6916
▁cultural	-6917
▁Antworten	-6918
bet	-6919
oge	-6920
rot	-6921
vit	-6922
ifft	-6923
uing	-6924
wohn	-6925
▁Del	-6926
▁Dre	-6927
folge	-6928
gründ	-6929
ießen	-6930
▁loss	-6931
▁metap	-6932
geführt	-6933
▁dramat	-6934
▁senten	-6935
▁Journal	-6936
▁Männern	-6937
▁Nigeria	-6938
▁improve	-6939
▁profound	-6940
▁slightly	-6941
▁unabhäng	-6942
▁verrückt	-6943
▁konzentrieren	-6944
▁relationships	-6945
edy	-6946
!\""	-6947
ikas	-6948
▁Bru	-6949
▁imm	-6950
▁äuß	-6951
cribe	-6952
water	-6953
▁Grad	-6954
▁Post	-6955
▁base	-6956
▁dank	-6957
▁rede	-6958
▁echte	-6959
▁shock	-6960
▁Darwin	-6961
▁Freude	-6962
▁Schutz	-6963
▁forces	-6964
▁atmosph	-6965
▁trouble	-6966
▁Produkte	-6967
▁directly	-6968
▁programs	-6969
▁überleben	-6970
▁colleagues	-6971
▁television	-6972
nam	-6973
▁ök	-6974
geht	-6975
nden	-6976
▁Jan	-6977
omant	-6978
▁Gang	-6979
▁Mill	-6980
▁boys	-6981
▁male	-6982
▁Ident	-6983
ierungs	-6984
▁Ahnung	-6985
▁beantw	-6986
▁frühen	-6987
▁purpose	-6988
▁Freunden	-6989
▁controll	-6990
▁Verfügung	-6991
▁Intelligen	-6992
▁understood	-6993
▁verbringen	-6994
RI	-6995
rech	-6996
▁Don	-6997
▁drop	-6998
ennung	-6999
ologen	-7000
treten	-7001
▁analy	-7002
▁komme	-7003
▁offic	-7004
▁commer	-7005
▁target	-7006
▁central	-7007
▁algorith	-7008
▁capacity	-7009
Like	-7010
azon	-7011
onie	-7012
üsse	-7013
▁ext	-7014
weite	-7015
▁Nähe	-7016
▁paid	-7017
ochter	-7018
▁Insel	-7019
brechen	-7020
▁Herzen	-7021
▁causes	-7022
▁YouTube	-7023
▁kulture	-7024
▁wunderbar	-7025
▁Materialien	-7026
▁Leidenschaft	-7027
Je	-7028
▁Ü	-7029
aven	-7030
hner	-7031
oßen	-7032
▁Nie	-7033
▁bat	-7034
▁iPh	-7035
▁mid	-7036
▁vul	-7037
stadt	-7038
▁NASA	-7039
▁hall	-7040
▁tens	-7041
▁agric	-7042
▁brilli	-7043
▁lernte	-7044
▁vorbei	-7045
▁öffnen	-7046
▁tremend	-7047
geschichte	-7048
▁industrial	-7049
lös	-7050
hilfe	-7051
▁hole	-7052
▁synth	-7053
▁zeich	-7054
▁destro	-7055
▁double	-7056
▁mostly	-7057
▁trifft	-7058
ographic	-7059
▁angefangen	-7060
▁Kreativität	-7061
▁ermöglichen	-7062
\".	-7063
zul	-7064
deut	-7065
uman	-7066
▁Öff	-7067
Unter	-7068
ctive	-7069
ograp	-7070
▁conv	-7071
orgung	-7072
▁hinzu	-7073
britann	-7074
ktionen	-7075
▁frustr	-7076
▁states	-7077
▁Statist	-7078
▁consequen	-7079
▁sustainable	-7080
mel	-7081
ason	-7082
▁Band	-7083
▁Hall	-7084
▁Wass	-7085
▁erne	-7086
▁sick	-7087
▁Plast	-7088
▁manip	-7089
▁perfe	-7090
▁sobald	-7091
▁spaces	-7092
▁erzeugt	-7093
▁schlimm	-7094
▁workers	-7095
▁Biologie	-7096
▁gegangen	-7097
▁speaking	-7098
▁Industrie	-7099
▁entstehen	-7100
▁published	-7101
▁experiments	-7102
▁temperature	-7103
scheinlichkeit	-7104
▁ve	-7105
▁fro	-7106
▁sal	-7107
aling	-7108
azine	-7109
raten	-7110
▁hört	-7111
brauch	-7112
▁chair	-7113
▁Waffen	-7114
▁fangen	-7115
ognitive	-7116
▁Zustand	-7117
▁helping	-7118
▁noticed	-7119
▁ursprün	-7120
▁Karriere	-7121
▁Unterstütz	-7122
▁Gelegenheit	-7123
▁differences	-7124
▁kontrollieren	-7125
das	-7126
izes	-7127
rian	-7128
▁Neu	-7129
▁hus	-7130
▁mix	-7131
cules	-7132
pping	-7133
▁unge	-7134
▁calls	-7135
▁dance	-7136
▁Sommer	-7137
▁Street	-7138
▁häufig	-7139
▁Kapital	-7140
▁Religion	-7141
▁beeinflusst	-7142
▁communicate	-7143
▁Verbindungen	-7144
▁infrastructure	-7145
Are	-7146
col	-7147
zil	-7148
▁Pil	-7149
▁Wid	-7150
haben	-7151
icles	-7152
istry	-7153
oston	-7154
▁When	-7155
▁Abend	-7156
ception	-7157
haltung	-7158
▁Schlaf	-7159
▁Spitze	-7160
▁closer	-7161
▁intens	-7162
▁meters	-7163
▁vertra	-7164
▁Charles	-7165
▁creates	-7166
▁evolved	-7167
▁surgery	-7168
▁campaign	-7169
▁negative	-7170
▁networks	-7171
▁reagieren	-7172
▁organizations	-7173
▁75	-7174
▁Na	-7175
▁Pa	-7176
such	-7177
▁sou	-7178
Unser	-7179
ergie	-7180
rench	-7181
stieg	-7182
▁Rede	-7183
▁heat	-7184
istenz	-7185
▁Zelle	-7186
▁frame	-7187
führung	-7188
ichtbar	-7189
▁Ansatz	-7190
▁Finger	-7191
▁Massen	-7192
▁Transp	-7193
▁chines	-7194
▁Schluss	-7195
▁Tochter	-7196
▁genutzt	-7197
▁kämpfen	-7198
▁markets	-7199
▁spreche	-7200
▁größeren	-7201
▁einzigart	-7202
▁experiences	-7203
▁herzustellen	-7204
gin	-7205
pan	-7206
ärm	-7207
erin	-7208
gers	-7209
▁Tex	-7210
▁Wol	-7211
▁neh	-7212
▁rep	-7213
ampag	-7214
ibiot	-7215
äumen	-7216
▁Alex	-7217
▁Iraq	-7218
▁Jobs	-7219
▁lack	-7220
▁reve	-7221
▁Kreis	-7222
▁wider	-7223
▁oxygen	-7224
▁Vielfalt	-7225
▁begonnen	-7226
▁riesigen	-7227
▁Werkzeuge	-7228
▁geschafft	-7229
▁biological	-7230
4,	-7231
dy	-7232
rize	-7233
▁Tor	-7234
▁kor	-7235
▁vast	-7236
fassen	-7237
▁dying	-7238
▁motor	-7239
▁trick	-7240
▁twice	-7241
ulieren	-7242
▁Farben	-7243
▁Region	-7244
▁Schlag	-7245
▁Schwar	-7246
▁akzept	-7247
▁played	-7248
▁Michael	-7249
▁größere	-7250
▁streets	-7251
▁Einstein	-7252
▁scientist	-7253
▁Überleben	-7254
▁erstaunlich	-7255
▁politischen	-7256
▁Entwicklungsl	-7257
kn	-7258
▁fat	-7259
▁King	-7260
▁krie	-7261
▁plat	-7262
▁rout	-7263
erecht	-7264
▁erwäh	-7265
▁shoot	-7266
istisch	-7267
▁Atlant	-7268
▁Dienst	-7269
▁highly	-7270
zeichnen	-7271
▁atmosphere	-7272
▁Gesundheits	-7273
▁wichtigsten	-7274
▁Infrastruktur	-7275
▁&	-7276
urf	-7277
▁99	-7278
cise	-7279
▁Hom	-7280
▁Rep	-7281
▁dür	-7282
fraid	-7283
isted	-7284
▁Arme	-7285
▁ließ	-7286
▁Colle	-7287
▁adapt	-7288
▁Schrift	-7289
▁missing	-7290
▁planets	-7291
▁Sauerstoff	-7292
▁profession	-7293
▁aufgenommen	-7294
▁beeinflussen	-7295
aced	-7296
onym	-7297
rect	-7298
spra	-7299
▁amb	-7300
ekten	-7301
iffen	-7302
neten	-7303
ubble	-7304
▁Bein	-7305
▁Ther	-7306
▁bein	-7307
▁koll	-7308
wohner	-7309
▁Altern	-7310
▁afraid	-7311
▁applic	-7312
▁custom	-7313
▁gather	-7314
▁verfüg	-7315
▁Klassen	-7316
▁präsent	-7317
▁stopped	-7318
▁Ausdruck	-7319
▁manufact	-7320
▁surround	-7321
▁verantwort	-7322
rt	-7323
▁od	-7324
bank	-7325
gypt	-7326
itär	-7327
uert	-7328
utsch	-7329
▁Denk	-7330
etzten	-7331
lieben	-7332
▁assum	-7333
▁feels	-7334
▁Risiko	-7335
▁active	-7336
▁bezahl	-7337
▁broken	-7338
▁speech	-7339
▁Angeles	-7340
▁Knochen	-7341
industrie	-7342
▁brauchte	-7343
▁mountain	-7344
▁tax	-7345
akten	-7346
heben	-7347
▁basis	-7348
▁parad	-7349
▁Amazon	-7350
▁Center	-7351
▁Nummer	-7352
▁Wunder	-7353
▁corner	-7354
mosphäre	-7355
▁produced	-7356
▁differently	-7357
▁Geschwindigkeit	-7358
kur	-7359
oom	-7360
▁Pe	-7361
größ	-7362
lder	-7363
leun	-7364
rupt	-7365
mente	-7366
mmern	-7367
▁Titel	-7368
▁absol	-7369
▁fühlt	-7370
▁oppos	-7371
▁sogen	-7372
▁gotten	-7373
ettbewer	-7374
ollywood	-7375
▁Fenster	-7376
▁Gefühle	-7377
▁notwend	-7378
▁bringing	-7379
▁inspired	-7380
▁Unterschiede	-7381
ida	-7382
zif	-7383
ware	-7384
▁Con	-7385
idden	-7386
olden	-7387
▁Mehr	-7388
▁flex	-7389
▁gift	-7390
▁wire	-7391
estens	-7392
imeter	-7393
umente	-7394
▁Opfer	-7395
▁absch	-7396
▁birds	-7397
▁fragt	-7398
▁rapid	-7399
▁bought	-7400
ological	-7401
▁achieve	-7402
▁Phänomen	-7403
▁daughter	-7404
▁designers	-7405
▁politische	-7406
▁communication	-7407
▁responsibility	-7408
▁Wä	-7409
holt	-7410
odes	-7411
ogel	-7412
term	-7413
Genau	-7414
frage	-7415
hause	-7416
rical	-7417
right	-7418
▁krit	-7419
stände	-7420
▁Osten	-7421
▁hielt	-7422
▁rough	-7423
änderte	-7424
▁Boston	-7425
▁nearly	-7426
▁reduce	-7427
▁endlich	-7428
▁seltsam	-7429
▁Geschäfts	-7430
▁diversity	-7431
▁efficient	-7432
▁Verhaltens	-7433
▁conference	-7434
car	-7435
glie	-7436
onds	-7437
ston	-7438
wahr	-7439
▁194	-7440
▁Big	-7441
ratic	-7442
▁nütz	-7443
▁teen	-7444
ipedia	-7445
▁seien	-7446
▁smell	-7447
auschen	-7448
otograf	-7449
▁Rücken	-7450
▁easily	-7451
▁seemed	-7452
▁extreme	-7453
▁einfacher	-7454
▁molecules	-7455
▁weiterhin	-7456
▁Großbritann	-7457
▁consciousness	-7458
En	-7459
gas	-7460
▁Zw	-7461
used	-7462
▁Lab	-7463
▁Sun	-7464
bruch	-7465
light	-7466
▁Mart	-7467
▁coff	-7468
schutz	-7469
▁auszu	-7470
▁Klasse	-7471
▁satell	-7472
▁Materie	-7473
▁element	-7474
▁entlang	-7475
▁knowing	-7476
▁studying	-7477
▁Experimen	-7478
▁Universums	-7479
▁Klimawandel	-7480
kop	-7481
eler	-7482
▁Ist	-7483
▁jün	-7484
markt	-7485
volle	-7486
▁Bere	-7487
▁Hund	-7488
▁Sport	-7489
▁fühle	-7490
▁10,000	-7491
▁Norden	-7492
▁Wunsch	-7493
▁window	-7494
▁ancient	-7495
▁degrees	-7496
▁dorthin	-7497
▁handeln	-7498
▁members	-7499
▁Botschaft	-7500
▁creatures	-7501
▁complexity	-7502
▁Gesellschaften	-7503
60	-7504
ola	-7505
\"",	-7506
izen	-7507
lege	-7508
load	-7509
▁Mat	-7510
▁nöt	-7511
▁tom	-7512
▁wis	-7513
Jedes	-7514
alien	-7515
fälle	-7516
▁Holz	-7517
▁Text	-7518
▁Vier	-7519
▁bomb	-7520
▁gilt	-7521
▁kürz	-7522
▁Bäume	-7523
▁photo	-7524
▁Brazil	-7525
▁eating	-7526
▁iPhone	-7527
▁langen	-7528
▁Because	-7529
▁Begriff	-7530
▁Einsatz	-7531
▁Werkzeug	-7532
▁erlauben	-7533
▁stellten	-7534
▁Kilometer	-7535
▁produziert	-7536
▁significant	-7537
500	-7538
abt	-7539
emen	-7540
▁Hig	-7541
▁Las	-7542
▁Mos	-7543
entle	-7544
ließt	-7545
▁Kore	-7546
▁rare	-7547
▁tele	-7548
anging	-7549
izität	-7550
▁Paris	-7551
▁Todes	-7552
▁kenne	-7553
▁Privat	-7554
▁schaut	-7555
ulen	-7556
▁600	-7557
▁afr	-7558
antas	-7559
mögen	-7560
setzt	-7561
▁Loch	-7562
▁Stan	-7563
▁gele	-7564
▁prep	-7565
gramme	-7566
▁Schle	-7567
▁shift	-7568
ssystem	-7569
▁Vision	-7570
▁engage	-7571
▁shares	-7572
▁switch	-7573
▁verein	-7574
▁ändert	-7575
Manchmal	-7576
ationale	-7577
▁erstellen	-7578
bin	-7579
dam	-7580
opt	-7581
uum	-7582
▁2,	-7583
kung	-7584
▁GPS	-7585
▁fle	-7586
▁bees	-7587
▁none	-7588
uments	-7589
▁sowie	-7590
zubauen	-7591
änglich	-7592
▁genome	-7593
▁vermut	-7594
▁dagegen	-7595
▁Insekten	-7596
▁Neuronen	-7597
erspektive	-7598
▁behandelt	-7599
▁überzeugen	-7600
▁Durchschnitt	-7601
▁23	-7602
▁Hü	-7603
Your	-7604
king	-7605
uild	-7606
▁Sim	-7607
▁flo	-7608
Damit	-7609
andid	-7610
based	-7611
▁Blog	-7612
▁Glas	-7613
▁trag	-7614
gebaut	-7615
▁cheap	-7616
▁email	-7617
▁neuer	-7618
▁weird	-7619
ctually	-7620
▁kostet	-7621
▁Diskuss	-7622
▁alleine	-7623
▁entsteht	-7624
▁spending	-7625
▁ecosystem	-7626
▁philosoph	-7627
la	-7628
Noch	-7629
angt	-7630
chem	-7631
sinn	-7632
üben	-7633
▁Bon	-7634
▁May	-7635
▁Pop	-7636
ätsel	-7637
▁join	-7638
ording	-7639
▁Beruf	-7640
▁Junge	-7641
▁Steve	-7642
▁gaben	-7643
▁künst	-7644
▁nehme	-7645
stronom	-7646
▁Online	-7647
▁buchst	-7648
▁ganzes	-7649
▁physic	-7650
▁therap	-7651
▁vulner	-7652
▁Zentrum	-7653
▁perfekt	-7654
▁Korallen	-7655
▁identity	-7656
▁erforschen	-7657
▁imagination	-7658
▁Kommunikation	-7659
bie	-7660
ded	-7661
orb	-7662
ses	-7663
cell	-7664
ieso	-7665
teln	-7666
verb	-7667
▁Lat	-7668
▁san	-7669
▁gene	-7670
▁Stein	-7671
▁agree	-7672
▁demand	-7673
isierten	-7674
ulations	-7675
▁Version	-7676
▁devices	-7677
▁entschied	-7678
▁Zusammenhang	-7679
hö	-7680
kle	-7681
▁Sa	-7682
mmer	-7683
orgt	-7684
losen	-7685
rauch	-7686
▁disk	-7687
Nehmen	-7688
▁Ziele	-7689
▁giant	-7690
▁visit	-7691
Instead	-7692
▁photos	-7693
▁presen	-7694
▁sexual	-7695
▁College	-7696
▁Soldaten	-7697
▁begeister	-7698
▁benötigen	-7699
▁landscape	-7700
▁Komplexität	-7701
▁fascinating	-7702
▁Unterstützung	-7703
Two	-7704
cel	-7705
det	-7706
▁Kä	-7707
Seit	-7708
▁Kop	-7709
▁Szen	-7710
▁boat	-7711
▁darf	-7712
▁enth	-7713
formen	-7714
ährung	-7715
▁effort	-7716
▁epidem	-7717
▁lights	-7718
istische	-7719
▁hearing	-7720
▁sharing	-7721
▁Temperatur	-7722
▁tremendous	-7723
ros	-7724
▁UN	-7725
▁ep	-7726
▁sü	-7727
From	-7728
olds	-7729
▁Air	-7730
▁Dec	-7731
▁Sam	-7732
▁Spr	-7733
▁dom	-7734
beweg	-7735
etwas	-7736
house	-7737
usive	-7738
▁Feld	-7739
▁Life	-7740
▁hero	-7741
▁1,000	-7742
▁Jetzt	-7743
▁Typen	-7744
▁Virus	-7745
▁Jugend	-7746
▁Karten	-7747
▁cooper	-7748
▁erhält	-7749
▁focused	-7750
▁verkauft	-7751
▁Wikipedia	-7752
▁interpret	-7753
▁verursacht	-7754
▁Intelligenz	-7755
▁opportunities	-7756
▁Zusammenarbeit	-7757
opä	-7758
ruf	-7759
▁Go	-7760
angs	-7761
▁Beh	-7762
▁Gar	-7763
▁pig	-7764
Haben	-7765
Think	-7766
icket	-7767
▁Heil	-7768
▁Mitt	-7769
▁Tanz	-7770
▁bloß	-7771
▁heav	-7772
▁vari	-7773
afrika	-7774
▁avoid	-7775
▁davor	-7776
▁fully	-7777
▁gross	-7778
▁legen	-7779
▁pleas	-7780
▁unbed	-7781
▁Kohlen	-7782
▁Middle	-7783
▁batter	-7784
▁breast	-7785
▁Plastik	-7786
▁mission	-7787
▁addition	-7788
▁Ausbildung	-7789
▁commercial	-7790
▁Bedingungen	-7791
▁investieren	-7792
▁2.	-7793
▁eg	-7794
ifik	-7795
reci	-7796
spir	-7797
▁saß	-7798
isher	-7799
verse	-7800
▁Satz	-7801
▁poem	-7802
wirken	-7803
▁...",	-7804
▁Result	-7805
▁Thomas	-7806
▁Sekunde	-7807
▁Zeichen	-7808
▁forever	-7809
▁schafft	-7810
▁betrifft	-7811
▁entwickelten	-7812
▁kommunizieren	-7813
que	-7814
▁Ir	-7815
ffiz	-7816
hung	-7817
obel	-7818
well	-7819
▁Les	-7820
quenz	-7821
swert	-7822
ugier	-7823
▁Drit	-7824
▁Just	-7825
▁Proz	-7826
▁Autor	-7827
▁enter	-7828
zeichen	-7829
▁Inform	-7830
▁einsch	-7831
▁victim	-7832
entlicht	-7833
▁Kontakt	-7834
▁artists	-7835
▁turning	-7836
▁Aufgaben	-7837
▁überzeugt	-7838
DP	-7839
Her	-7840
ays	-7841
van	-7842
Many	-7843
cles	-7844
tech	-7845
▁Golf	-7846
▁recy	-7847
▁tour	-7848
▁Great	-7849
Erstens	-7850
mission	-7851
▁Kunden	-7852
▁Wandel	-7853
zwischen	-7854
▁Objekte	-7855
▁Stellen	-7856
▁letztes	-7857
▁umgehen	-7858
forschung	-7859
▁gewonnen	-7860
▁modernen	-7861
▁weiteres	-7862
▁Atmosphäre	-7863
▁phenomenon	-7864
aos	-7865
emb	-7866
far	-7867
kom	-7868
tle	-7869
stag	-7870
unte	-7871
▁Sen	-7872
▁zuk	-7873
...",	-7874
acher	-7875
▁Müll	-7876
▁erfü	-7877
▁gros	-7878
▁stem	-7879
▁zent	-7880
▁Babys	-7881
▁Klima	-7882
▁Micro	-7883
▁disor	-7884
▁könnt	-7885
klärung	-7886
▁desert	-7887
▁klingt	-7888
▁passed	-7889
▁streng	-7890
▁Ameisen	-7891
▁failure	-7892
▁moments	-7893
▁Qualität	-7894
▁Präsident	-7895
▁Vertrauen	-7896
dimensional	-7897
▁alternative	-7898
hes	-7899
ias	-7900
Talk	-7901
igur	-7902
know	-7903
pass	-7904
▁Ext	-7905
▁Tom	-7906
igend	-7907
ocken	-7908
print	-7909
▁core	-7910
▁sinn	-7911
aining	-7912
führer	-7913
▁bread	-7914
▁digit	-7915
▁simpl	-7916
ivalent	-7917
▁fairly	-7918
▁infect	-7919
▁symmet	-7920
▁Fernsehen	-7921
▁Lieblings	-7922
▁verbreitet	-7923
▁beschreiben	-7924
▁veröffentlicht	-7925
na	-7926
iefe	-7927
üren	-7928
▁Den	-7929
▁Wal	-7930
ansen	-7931
elesc	-7932
▁Sche	-7933
▁fash	-7934
▁habt	-7935
▁ancest	-7936
▁aspect	-7937
▁brings	-7938
▁leider	-7939
▁resist	-7940
▁yellow	-7941
▁erinnert	-7942
▁Institute	-7943
▁Untersuch	-7944
▁gestalten	-7945
▁religious	-7946
▁unbedingt	-7947
▁possibility	-7948
BG	-7949
iop	-7950
ris	-7951
äbe	-7952
hört	-7953
krebs	-7954
schte	-7955
ungsf	-7956
urcht	-7957
▁Fach	-7958
▁Volk	-7959
Manche	-7960
isible	-7961
▁effiz	-7962
weitens	-7963
▁bitten	-7964
▁clever	-7965
▁dreams	-7966
▁sculpt	-7967
▁buchstä	-7968
▁farmers	-7969
▁geführt	-7970
▁benefits	-7971
▁leadership	-7972
▁structures	-7973
▁Hintergrund	-7974
6,	-7975
ety	-7976
lymp	-7977
renz	-7978
▁Are	-7979
▁Tro	-7980
appen	-7981
athan	-7982
▁puzz	-7983
abetes	-7984
▁Beste	-7985
▁helps	-7986
▁lucky	-7987
▁party	-7988
ography	-7989
▁Robert	-7990
▁events	-7991
▁lautet	-7992
▁Gesetze	-7993
▁steigen	-7994
▁virtual	-7995
▁Gemeinde	-7996
▁accident	-7997
▁deutlich	-7998
▁metaphor	-7999
▁opposite	-8000
▁22	-8001
▁gun	-8002
▁hau	-8003
krieg	-8004
▁exer	-8005
▁mort	-8006
▁note	-8007
antage	-8008
▁Stoff	-8009
▁selber	-8010
▁signal	-8011
▁counter	-8012
▁foreign	-8013
▁partners	-8014
▁beschäftigt	-8015
▁wunderschön	-8016
80	-8017
osis	-8018
ührt	-8019
▁250	-8020
▁End	-8021
aters	-8022
werte	-8023
zweif	-8024
▁Gest	-8025
▁eure	-8026
ördern	-8027
▁Handy	-8028
▁mouth	-8029
▁spiel	-8030
▁Fällen	-8031
▁Schiff	-8032
▁gentle	-8033
▁Schwier	-8034
▁despite	-8035
ification	-8036
schaftler	-8037
ständlich	-8038
▁Nahrungs	-8039
▁Identität	-8040
▁brilliant	-8041
▁definition	-8042
▁Organisationen	-8043
▁herausgefunden	-8044
3,	-8045
ka	-8046
izz	-8047
kam	-8048
pfl	-8049
änn	-8050
▁CE	-8051
pted	-8052
▁Für	-8053
▁Yes	-8054
▁joy	-8055
cting	-8056
etter	-8057
▁Fest	-8058
▁Stär	-8059
▁merk	-8060
▁ship	-8061
▁Affen	-8062
▁Basis	-8063
▁Higgs	-8064
▁names	-8065
▁tolle	-8066
▁gewöhn	-8067
▁glaubt	-8068
▁oceans	-8069
▁balance	-8070
▁leading	-8071
▁rechten	-8072
▁Kindheit	-8073
▁vermutlich	-8074
▁vollkommen	-8075
▁Landwirtschaft	-8076
bert	-8077
▁Des	-8078
▁Mac	-8079
▁Wür	-8080
anzie	-8081
chnen	-8082
frist	-8083
halte	-8084
schlä	-8085
▁ausl	-8086
▁nutz	-8087
▁Masse	-8088
▁prior	-8089
▁tough	-8090
istence	-8091
▁Sterne	-8092
▁easier	-8093
▁sorgen	-8094
▁British	-8095
▁zukünft	-8096
▁describe	-8097
▁dieselbe	-8098
▁eingesch	-8099
▁Konferenz	-8100
▁particles	-8101
▁verdienen	-8102
▁Großbritannien	-8103
Sc	-8104
pol	-8105
soft	-8106
▁Bur	-8107
▁Haw	-8108
anner	-8109
etten	-8110
hnten	-8111
iefen	-8112
ormal	-8113
▁Abst	-8114
▁held	-8115
▁spot	-8116
fallen	-8117
kehren	-8118
▁alter	-8119
▁coast	-8120
setzung	-8121
zusehen	-8122
▁Global	-8123
▁Valley	-8124
▁drehen	-8125
▁magnet	-8126
▁notion	-8127
▁raised	-8128
▁schöne	-8129
▁verwir	-8130
▁anderem	-8131
▁fashion	-8132
▁figured	-8133
▁regular	-8134
▁weapons	-8135
istischen	-8136
▁Großteil	-8137
▁außerdem	-8138
▁erwartet	-8139
▁rational	-8140
▁übertragen	-8141
De	-8142
bur	-8143
▁Wü	-8144
fält	-8145
pper	-8146
stab	-8147
▁tox	-8148
asion	-8149
sagen	-8150
▁magn	-8151
▁repe	-8152
ending	-8153
oppelt	-8154
▁condu	-8155
▁sorry	-8156
bereich	-8157
gewicht	-8158
wechsel	-8159
▁Heimat	-8160
▁Sozial	-8161
▁Spiele	-8162
▁coffee	-8163
illionen	-8164
▁benötigt	-8165
▁besitzen	-8166
▁entirely	-8167
▁wiederum	-8168
▁Problemen	-8169
▁suffering	-8170
▁responsible	-8171
▁durchgeführt	-8172
PA	-8173
di	-8174
ua	-8175
▁27	-8176
apie	-8177
cked	-8178
phen	-8179
▁Gut	-8180
eline	-8181
▁Asia	-8182
▁abzu	-8183
▁jung	-8184
▁mamm	-8185
▁mill	-8186
▁wood	-8187
idents	-8188
▁bound	-8189
▁origin	-8190
▁tissue	-8191
▁Polizei	-8192
▁Schmerz	-8193
▁definit	-8194
▁require	-8195
▁stecken	-8196
▁bezahlen	-8197
▁Professor	-8198
▁importantly	-8199
▁buchstäblich	-8200
iox	-8201
von	-8202
ünf	-8203
▁Mö	-8204
itzt	-8205
vity	-8206
▁lat	-8207
▁usw	-8208
▁♫",	-8209
Außer	-8210
▁Fabr	-8211
▁Graf	-8212
▁edge	-8213
ession	-8214
jekten	-8215
▁Laden	-8216
▁Vogel	-8217
▁obser	-8218
▁haupts	-8219
▁hinweg	-8220
▁master	-8221
▁steckt	-8222
▁werfen	-8223
▁Bildern	-8224
▁Gründen	-8225
▁fragten	-8226
ungskraft	-8227
▁billions	-8228
▁document	-8229
▁exponent	-8230
▁childhood	-8231
ky	-8232
tr	-8233
Zwe	-8234
ani	-8235
anst	-8236
▁Bio	-8237
▁Jer	-8238
▁shr	-8239
asche	-8240
bling	-8241
laden	-8242
▁Fund	-8243
▁Hack	-8244
▁Jack	-8245
▁seed	-8246
▁vorh	-8247
▁Ghana	-8248
▁Mobil	-8249
▁claim	-8250
▁faith	-8251
▁sitzt	-8252
▁wirst	-8253
▁French	-8254
▁Mexico	-8255
▁deeply	-8256
▁erstes	-8257
▁pollut	-8258
▁Gewicht	-8259
▁appreci	-8260
▁derzeit	-8261
▁identif	-8262
▁distance	-8263
▁previous	-8264
▁Milliarde	-8265
▁bestimmen	-8266
▁Bildschirm	-8267
▁natürliche	-8268
▁sicherlich	-8269
▁öffentlich	-8270
▁öffentliche	-8271
bas	-8272
aiti	-8273
enkt	-8274
ibel	-8275
iest	-8276
ords	-8277
rale	-8278
ties	-8279
▁Boot	-8280
▁Lang	-8281
▁Pers	-8282
Selbst	-8283
▁Beine	-8284
▁Schne	-8285
▁accur	-8286
▁dreht	-8287
▁hohen	-8288
▁laugh	-8289
▁wohin	-8290
▁Satell	-8291
▁charge	-8292
▁lesson	-8293
richtung	-8294
▁Drittel	-8295
▁kümmern	-8296
▁shouldn	-8297
▁täglich	-8298
▁elements	-8299
▁einsetzen	-8300
▁mindestens	-8301
do	-8302
üp	-8303
iban	-8304
ötet	-8305
▁20.	-8306
▁dur	-8307
agers	-8308
ckten	-8309
zelle	-8310
▁Lern	-8311
▁host	-8312
▁hung	-8313
ighten	-8314
nissen	-8315
▁grass	-8316
▁indic	-8317
▁proud	-8318
oration	-8319
▁antwor	-8320
▁bridge	-8321
▁remote	-8322
ifically	-8323
▁contact	-8324
▁matters	-8325
▁European	-8326
▁relevant	-8327
▁zufällig	-8328
inosaurier	-8329
▁entwerfen	-8330
▁Forschungs	-8331
▁verwandeln	-8332
▁necessarily	-8333
xis	-8334
ifen	-8335
sens	-8336
vere	-8337
▁Ros	-8338
▁ban	-8339
▁kit	-8340
ingly	-8341
▁Verk	-8342
▁anti	-8343
▁forg	-8344
mother	-8345
zeiten	-8346
▁leads	-8347
meister	-8348
▁Gefahr	-8349
▁Themen	-8350
▁adults	-8351
▁corpor	-8352
▁dürfen	-8353
▁pounds	-8354
▁versus	-8355
▁Kontext	-8356
▁concent	-8357
▁illegal	-8358
▁insects	-8359
▁kompliz	-8360
▁absolute	-8361
▁gelangen	-8362
▁background	-8363
Mir	-8364
▁II	-8365
gern	-8366
unkl	-8367
▁mor	-8368
▁pet	-8369
▁wes	-8370
chern	-8371
▁Brot	-8372
▁Komp	-8373
▁halb	-8374
▁iron	-8375
laufen	-8376
▁Obama	-8377
▁Treib	-8378
▁quote	-8379
▁subst	-8380
▁Nutzen	-8381
▁opened	-8382
▁romant	-8383
jährigen	-8384
▁Verkehr	-8385
▁abgesch	-8386
▁ausgest	-8387
▁studied	-8388
▁scheinen	-8389
▁allgemein	-8390
▁contribut	-8391
▁necessary	-8392
▁repräsent	-8393
▁sozusagen	-8394
▁Strukturen	-8395
▁ultimately	-8396
▁competition	-8397
ota	-8398
geln	-8399
roph	-8400
▁dou	-8401
fisch	-8402
▁Irak	-8403
▁bird	-8404
▁plus	-8405
▁eröff	-8406
▁hängt	-8407
▁ideal	-8408
▁offer	-8409
▁Schimp	-8410
▁Sorgen	-8411
▁Spielen	-8412
▁Wahrneh	-8413
▁succeed	-8414
ibilities	-8415
▁designer	-8416
▁fighting	-8417
▁tausende	-8418
▁discovery	-8419
.'	-8420
Nie	-8421
«",	-8422
▁♫"	-8423
care	-8424
oler	-8425
▁Hil	-8426
▁Tun	-8427
▁daß	-8428
▁mig	-8429
Again	-8430
icted	-8431
itete	-8432
ulous	-8433
ächer	-8434
▁2008	-8435
▁Janu	-8436
inhalb	-8437
ispiel	-8438
tended	-8439
▁Every	-8440
▁Kaffe	-8441
▁compl	-8442
▁stolz	-8443
▁töten	-8444
▁wheel	-8445
entwick	-8446
▁Rahmen	-8447
▁beteil	-8448
▁colors	-8449
▁convin	-8450
▁failed	-8451
▁flight	-8452
▁lieber	-8453
▁religi	-8454
▁correct	-8455
▁holding	-8456
▁Leistung	-8457
▁separate	-8458
alifornien	-8459
▁Erinnerung	-8460
▁investment	-8461
▁interagieren	-8462
Os	-8463
len	-8464
▁Ac	-8465
athy	-8466
ilde	-8467
illed	-8468
scher	-8469
▁Here	-8470
▁auth	-8471
▁pair	-8472
▁Egypt	-8473
▁Staat	-8474
▁broad	-8475
▁cloud	-8476
▁gebra	-8477
▁Änder	-8478
gesehen	-8479
sichtig	-8480
steller	-8481
▁Geräte	-8482
▁Island	-8483
▁hidden	-8484
▁sector	-8485
▁wächst	-8486
Zweitens	-8487
▁falsche	-8488
▁traffic	-8489
▁Forscher	-8490
▁intellect	-8491
▁verfolgen	-8492
esentlichen	-8493
▁gefährlich	-8494
▁vollständig	-8495
▁Lebensmittel	-8496
ipe	-8497
▁Ox	-8498
apse	-8499
wide	-8500
▁Cam	-8501
▁Log	-8502
▁reb	-8503
agram	-8504
atively	-8505
jährige	-8506
ausenden	-8507
▁Führung	-8508
▁Science	-8509
▁husband	-8510
ikanische	-8511
▁Bildungs	-8512
▁Konflikt	-8513
▁Teilchen	-8514
▁believed	-8515
▁besseren	-8516
▁Charakter	-8517
▁irgendwann	-8518
▁wunderbare	-8519
▁Öffentlich	-8520
▁überrascht	-8521
Bl	-8522
Per	-8523
arr	-8524
yed	-8525
best	-8526
enty	-8527
icke	-8528
obby	-8529
oret	-8530
▁eur	-8531
▁pun	-8532
▁ter	-8533
Durch	-8534
eared	-8535
▁Maus	-8536
▁Oder	-8537
▁purs	-8538
atoren	-8539
▁Liter	-8540
▁embra	-8541
▁exhib	-8542
▁faces	-8543
▁river	-8544
▁stuck	-8545
▁aussch	-8546
▁contra	-8547
▁dollar	-8548
▁narrat	-8549
▁related	-8550
▁platform	-8551
▁surprise	-8552
▁weiteren	-8553
▁influence	-8554
▁schließen	-8555
▁verhindern	-8556
▁professional	-8557
▁möglicherweise	-8558
2-	-8559
öpf	-8560
Amer	-8561
ears	-8562
kton	-8563
▁Mad	-8564
▁Tur	-8565
arent	-8566
hafte	-8567
pielt	-8568
uries	-8569
▁Arch	-8570
▁Chir	-8571
▁Trad	-8572
ilosop	-8573
werten	-8574
▁mouse	-8575
▁moves	-8576
▁newsp	-8577
▁truck	-8578
However	-8579
ampagne	-8580
▁Mechan	-8581
▁Stress	-8582
▁erweit	-8583
▁finanz	-8584
▁letter	-8585
▁testen	-8586
Actually	-8587
▁Sprachen	-8588
▁nächstes	-8589
▁zunehmen	-8590
▁Gegenteil	-8591
▁concerned	-8592
▁gegenseit	-8593
▁depression	-8594
▁Institutionen	-8595
▁unfortunately	-8596
DH	-8597
His	-8598
olph	-8599
prob	-8600
teid	-8601
▁Kal	-8602
ausch	-8603
inkel	-8604
utzer	-8605
▁Eing	-8606
▁Führ	-8607
▁lies	-8608
itness	-8609
▁Außen	-8610
▁Reich	-8611
▁click	-8612
▁krank	-8613
▁weder	-8614
▁weiss	-8615
▁Nation	-8616
▁caught	-8617
▁Modelle	-8618
▁getötet	-8619
▁illustr	-8620
▁leaving	-8621
▁finanzie	-8622
▁independ	-8623
▁president	-8624
▁überraschen	-8625
▁letztendlich	-8626
AR	-8627
Des	-8628
Mar	-8629
set	-8630
Kein	-8631
thal	-8632
udes	-8633
wahl	-8634
idung	-8635
orrow	-8636
▁Ecke	-8637
▁myth	-8638
ancing	-8639
hrough	-8640
▁Genom	-8641
▁begeg	-8642
▁crash	-8643
▁walls	-8644
ometers	-8645
ächtnis	-8646
▁bieten	-8647
▁degree	-8648
▁detail	-8649
▁kurzen	-8650
▁wisdom	-8651
uationen	-8652
▁acceler	-8653
▁benefit	-8654
▁justice	-8655
▁Verstand	-8656
▁prototyp	-8657
▁verbracht	-8658
möglichkeit	-8659
▁begeistert	-8660
▁university	-8661
▁hauptsächlich	-8662
Gut	-8663
igm	-8664
ita	-8665
xim	-8666
ädt	-8667
prof	-8668
sing	-8669
yram	-8670
David	-8671
ialog	-8672
▁Bett	-8673
▁arch	-8674
▁exch	-8675
▁hate	-8676
▁ober	-8677
▁weib	-8678
iminal	-8679
▁Haiti	-8680
▁noise	-8681
issions	-8682
▁Häuser	-8683
▁begins	-8684
▁gesund	-8685
▁mitten	-8686
▁parent	-8687
▁slowly	-8688
▁General	-8689
▁sequence	-8690
▁collective	-8691
▁eingesetzt	-8692
▁Kohlenstoff	-8693
;",	-8694
rol	-8695
yer	-8696
▁Sy	-8697
▁Vö	-8698
oben	-8699
wegs	-8700
ößen	-8701
▁Ass	-8702
▁Get	-8703
▁cro	-8704
inson	-8705
ippen	-8706
riage	-8707
uster	-8708
▁1950	-8709
▁band	-8710
▁glam	-8711
Second	-8712
ildren	-8713
▁Filme	-8714
▁Smith	-8715
▁angew	-8716
▁argue	-8717
▁halte	-8718
▁paint	-8719
▁setzt	-8720
▁garden	-8721
esterday	-8722
▁Patient	-8723
▁protein	-8724
▁creation	-8725
▁strategy	-8726
▁principles	-8727
▁mathematics	-8728
▁interessieren	-8729
▁Emp	-8730
▁tit	-8731
▁tue	-8732
▁ält	-8733
itzer	-8734
ordin	-8735
▁Emot	-8736
▁ants	-8737
▁anges	-8738
▁coral	-8739
▁equal	-8740
▁homes	-8741
▁kurze	-8742
hältnis	-8743
▁Fische	-8744
▁Meilen	-8745
▁expert	-8746
▁phones	-8747
▁Fleisch	-8748
▁capable	-8749
▁Gespräch	-8750
▁compared	-8751
▁emotions	-8752
▁everyday	-8753
▁fotograf	-8754
▁investig	-8755
▁strength	-8756
richtungen	-8757
▁vorhanden	-8758
▁constantly	-8759
▁wichtigste	-8760
▁Öffentlichkeit	-8761
Cl	-8762
Zwei	-8763
aßen	-8764
eper	-8765
läss	-8766
▁Fel	-8767
▁sac	-8768
alent	-8769
▁Code	-8770
▁Kurz	-8771
▁bone	-8772
▁hohe	-8773
▁moon	-8774
▁seat	-8775
heimer	-8776
igsten	-8777
▁Apple	-8778
▁Mount	-8779
▁Willi	-8780
▁Gewebe	-8781
▁closed	-8782
▁deinen	-8783
▁gehabt	-8784
▁reward	-8785
▁thinks	-8786
maschine	-8787
▁Mission	-8788
▁bemerkt	-8789
▁display	-8790
▁reprodu	-8791
▁typical	-8792
▁invisible	-8793
▁versuchten	-8794
▁amerikanische	-8795
obe	-8796
Mich	-8797
bahn	-8798
▁Deb	-8799
▁Pra	-8800
▁era	-8801
▁prä	-8802
allel	-8803
asten	-8804
krank	-8805
macht	-8806
orted	-8807
ropri	-8808
unken	-8809
▁Flor	-8810
▁Frem	-8811
▁Lied	-8812
▁Manh	-8813
▁flie	-8814
agiert	-8815
weiten	-8816
▁Motor	-8817
▁hyper	-8818
▁nutzt	-8819
▁Rätsel	-8820
▁budget	-8821
▁manage	-8822
▁museum	-8823
▁Verletz	-8824
▁basiert	-8825
▁gewisse	-8826
▁managed	-8827
▁quantum	-8828
▁trained	-8829
▁feedback	-8830
▁majority	-8831
▁Aktivität	-8832
▁Katastrop	-8833
▁Microsoft	-8834
▁engineers	-8835
▁Dinosaurier	-8836
▁interaction	-8837
▁civilization	-8838
Wow	-8839
anth	-8840
zähl	-8841
▁.",	-8842
▁bie	-8843
▁emb	-8844
▁fab	-8845
andem	-8846
geber	-8847
ischt	-8848
owers	-8849
▁TEDx	-8850
▁opin	-8851
▁Brenn	-8852
▁Jungs	-8853
▁Kohle	-8854
▁Sehen	-8855
▁Spekt	-8856
▁Stift	-8857
▁grown	-8858
▁polic	-8859
▁starb	-8860
▁Bauern	-8861
▁reform	-8862
▁factory	-8863
▁volunte	-8864
▁wenigen	-8865
▁Galaxien	-8866
▁Stanford	-8867
▁finished	-8868
▁described	-8869
▁operating	-8870
▁organisms	-8871
▁otherwise	-8872
aks	-8873
rip	-8874
uel	-8875
More	-8876
Over	-8877
alog	-8878
otic	-8879
ynth	-8880
▁row	-8881
apers	-8882
ength	-8883
throp	-8884
ängst	-8885
▁frage	-8886
▁lebte	-8887
▁Händen	-8888
▁Republ	-8889
▁sister	-8890
▁einiger	-8891
▁schönen	-8892
zubringen	-8893
▁followed	-8894
▁advantage	-8895
▁classroom	-8896
▁entworfen	-8897
▁praktisch	-8898
▁verantwortlich	-8899
▁unterschiedlich	-8900
Fra	-8901
tte	-8902
▁ju	-8903
loss	-8904
▁Aug	-8905
▁Dra	-8906
▁spl	-8907
▁ten	-8908
craft	-8909
ipped	-8910
known	-8911
▁1960	-8912
▁Bras	-8913
▁Laufe	-8914
▁climb	-8915
▁surge	-8916
udience	-8917
▁attach	-8918
▁desire	-8919
▁erster	-8920
▁paying	-8921
▁toward	-8922
▁erzähle	-8923
▁worried	-8924
▁normalen	-8925
▁Erkenntnis	-8926
cil	-8927
inc	-8928
▁Ok	-8929
Once	-8930
ardo	-8931
inkt	-8932
▁Ill	-8933
▁Rat	-8934
drück	-8935
▁Open	-8936
▁gäbe	-8937
▁herr	-8938
▁meat	-8939
Zuerst	-8940
ischem	-8941
▁Anges	-8942
▁Folge	-8943
▁Olymp	-8944
▁Solar	-8945
▁brief	-8946
▁klass	-8947
▁users	-8948
▁nannte	-8949
▁stelle	-8950
▁artific	-8951
▁Experten	-8952
önlichkeit	-8953
▁perfectly	-8954
▁wichtigen	-8955
▁businesses	-8956
▁untersucht	-8957
▁beantworten	-8958
▁consumption	-8959
▁unterscheiden	-8960
Go	-8961
SP	-8962
Bis	-8963
üst	-8964
▁65	-8965
Take	-8966
aped	-8967
iate	-8968
prom	-8969
adies	-8970
▁earn	-8971
▁king	-8972
▁roof	-8973
neiden	-8974
▁Nobel	-8975
▁holen	-8976
▁kennt	-8977
▁somit	-8978
▁verbl	-8979
uations	-8980
▁dauert	-8981
▁finger	-8982
▁Algorith	-8983
▁Standard	-8984
▁surprised	-8985
▁arbeiteten	-8986
▁Interaktion	-8987
▁Unternehmer	-8988
▁irgendetwas	-8989
▁kompliziert	-8990
NS	-8991
Etw	-8992
aked	-8993
keln	-8994
▁Dok	-8995
▁Ehe	-8996
▁Law	-8997
▁ton	-8998
aming	-8999
rippe	-9000
▁Bush	-9001
▁Mund	-9002
▁hasn	-9003
▁puts	-9004
▁schm	-9005
▁wear	-9006
▁whom	-9007
mutter	-9008
schule	-9009
werden	-9010
▁Defin	-9011
▁accom	-9012
▁immun	-9013
▁lernt	-9014
▁veget	-9015
ystemen	-9016
▁Haufen	-9017
▁Martin	-9018
▁bright	-9019
▁harder	-9020
▁dennoch	-9021
▁empower	-9022
Sometimes	-9023
▁Nationen	-9024
▁gehalten	-9025
▁hunderte	-9026
▁meistens	-9027
▁schlimmer	-9028
▁allerdings	-9029
▁entstanden	-9030
▁Experimente	-9031
▁Perspektive	-9032
MA	-9033
exp	-9034
hte	-9035
äst	-9036
▁Ho	-9037
aled	-9038
gabe	-9039
omit	-9040
tert	-9041
▁Nan	-9042
▁Opt	-9043
place	-9044
▁1990	-9045
▁Dunk	-9046
▁Mach	-9047
▁fell	-9048
▁stup	-9049
▁zeit	-9050
immung	-9051
stream	-9052
▁Momen	-9053
▁Texas	-9054
▁Zeich	-9055
▁contr	-9056
▁eleph	-9057
▁heads	-9058
▁quiet	-9059
▁wahre	-9060
▁Zimmer	-9061
▁leader	-9062
▁Gedanke	-9063
▁Gehirne	-9064
▁Militär	-9065
▁Project	-9066
▁weather	-9067
blichkeit	-9068
▁Elektron	-9069
▁galaxies	-9070
▁magazine	-9071
▁soldiers	-9072
▁currently	-9073
▁languages	-9074
▁beeindruck	-9075
▁existieren	-9076
Ph	-9077
ko	-9078
nel	-9079
elly	-9080
iors	-9081
life	-9082
oted	-9083
▁Mod	-9084
▁mel	-9085
▁rev	-9086
▁unl	-9087
Statt	-9088
osion	-9089
▁1980	-9090
▁Beob	-9091
▁Sing	-9092
▁bull	-9093
▁empt	-9094
▁fiel	-9095
▁soil	-9096
fragen	-9097
ipment	-9098
ulated	-9099
▁Found	-9100
▁attem	-9101
▁Bruder	-9102
▁Toilet	-9103
▁ausgeb	-9104
▁linken	-9105
▁schien	-9106
▁Deutsch	-9107
▁Elektro	-9108
▁Manhatt	-9109
▁fördern	-9110
▁limited	-9111
▁treated	-9112
▁aufhören	-9113
▁multiple	-9114
▁planning	-9115
▁suggests	-9116
▁Australia	-9117
▁Wettbewer	-9118
▁angesehen	-9119
▁mentioned	-9120
▁seriously	-9121
▁universal	-9122
Did	-9123
äum	-9124
avig	-9125
cast	-9126
lieb	-9127
schm	-9128
▁Akt	-9129
▁due	-9130
▁pal	-9131
Would	-9132
▁Samm	-9133
▁beat	-9134
▁dran	-9135
▁fold	-9136
aschen	-9137
bracht	-9138
person	-9139
▁Kapit	-9140
▁These	-9141
▁categ	-9142
▁cycle	-9143
▁lunch	-9144
▁regel	-9145
▁traur	-9146
bewesen	-9147
▁driver	-9148
▁galaxy	-9149
▁incent	-9150
▁stabil	-9151
▁depress	-9152
▁mothers	-9153
▁station	-9154
▁watched	-9155
▁wearing	-9156
▁erkannte	-9157
▁received	-9158
▁Schwester	-9159
▁Entdeckung	-9160
▁Individuen	-9161
▁Landschaft	-9162
▁entspricht	-9163
Mann	-9164
ctic	-9165
iano	-9166
wärt	-9167
▁Pan	-9168
▁anz	-9169
▁mos	-9170
▁Span	-9171
▁agre	-9172
▁arms	-9173
▁aufw	-9174
▁bear	-9175
▁Ihres	-9176
▁Zusch	-9177
▁fresh	-9178
▁instr	-9179
▁limit	-9180
▁natur	-9181
▁wieso	-9182
▁Elektr	-9183
▁Kräfte	-9184
▁Planet	-9185
▁belong	-9186
▁benutz	-9187
▁circle	-9188
▁debate	-9189
▁diskut	-9190
▁fellow	-9191
▁gering	-9192
▁string	-9193
▁100,000	-9194
▁Quadrat	-9195
▁Stimmen	-9196
▁curious	-9197
▁nochmal	-9198
▁schaute	-9199
▁vehicle	-9200
igentlich	-9201
▁demokrat	-9202
▁equivalent	-9203
▁grandmother	-9204
▁medizinische	-9205
ees	-9206
ibe	-9207
▁32	-9208
▁ru	-9209
oons	-9210
▁Ans	-9211
▁Anw	-9212
▁dry	-9213
aufte	-9214
reise	-9215
▁drag	-9216
gewalt	-9217
ipping	-9218
▁Carol	-9219
▁Erleb	-9220
▁Kenya	-9221
▁Wellen	-9222
▁belief	-9223
▁erlebt	-9224
▁ließen	-9225
▁Körpers	-9226
▁Spiegel	-9227
▁bekamen	-9228
▁dritten	-9229
▁invited	-9230
▁partner	-9231
▁Moleküle	-9232
▁Gegensatz	-9233
▁economics	-9234
▁Bewegungen	-9235
▁statistics	-9236
▁wesentlich	-9237
▁agriculture	-9238
▁hoffentlich	-9239
▁consequences	-9240
sl	-9241
asi	-9242
Jede	-9243
akte	-9244
rett	-9245
wich	-9246
▁Frü	-9247
▁Pac	-9248
▁gre	-9249
▁tag	-9250
▁zog	-9251
itung	-9252
plane	-9253
power	-9254
▁Budd	-9255
ushing	-9256
▁Klang	-9257
▁Metap	-9258
▁musst	-9259
▁teuer	-9260
▁Grenze	-9261
▁echten	-9262
▁shapes	-9263
▁starke	-9264
▁married	-9265
▁Eindruck	-9266
▁Methoden	-9267
▁erfinden	-9268
▁molecule	-9269
▁ordinary	-9270
▁survival	-9271
▁ungewöhn	-9272
▁continent	-9273
▁instrument	-9274
▁Kalifornien	-9275
▁entwickelte	-9276
▁hergestellt	-9277
ca	-9278
gyp	-9279
▁'9	-9280
▁La	-9281
▁Ug	-9282
▁ap	-9283
adel	-9284
ocks	-9285
▁Nov	-9286
▁rat	-9287
cking	-9288
itude	-9289
▁Adam	-9290
▁Phot	-9291
▁aufs	-9292
▁coal	-9293
▁gesp	-9294
▁reef	-9295
▁vacc	-9296
hängig	-9297
▁Innen	-9298
▁Peter	-9299
▁pages	-9300
▁plane	-9301
▁trägt	-9302
▁versp	-9303
fassung	-9304
glieder	-9305
reitung	-9306
tential	-9307
▁Minute	-9308
▁breath	-9309
▁fourth	-9310
▁unless	-9311
schlagen	-9312
▁illness	-9313
▁normale	-9314
▁spannen	-9315
▁Mikroben	-9316
▁launched	-9317
▁persönlich	-9318
▁reduzieren	-9319
▁increasingly	-9320
▁persönlichen	-9321
▁interessanter	-9322
Ke	-9323
box	-9324
atom	-9325
fung	-9326
herr	-9327
ifer	-9328
mitt	-9329
rotz	-9330
▁Ach	-9331
▁Lar	-9332
▁2010	-9333
▁Hins	-9334
▁Sens	-9335
gruppe	-9336
▁crime	-9337
flächen	-9338
▁Folgen	-9339
▁Kontin	-9340
▁Oxford	-9341
▁aufgew	-9342
▁exists	-9343
▁hoffen	-9344
▁implic	-9345
▁schick	-9346
▁stammt	-9347
▁vieler	-9348
▁drawing	-9349
▁highest	-9350
▁schwarz	-9351
▁Politiker	-9352
▁effizient	-9353
▁entscheid	-9354
▁equipment	-9355
▁vergleichen	-9356
▁Gesundheitsw	-9357
BI	-9358
SS	-9359
\"]	-9360
gien	-9361
iern	-9362
läuf	-9363
▁Pfl	-9364
▁Sar	-9365
▁sum	-9366
▁van	-9367
bares	-9368
emble	-9369
leren	-9370
oster	-9371
tocin	-9372
▁Säug	-9373
▁Vide	-9374
▁gold	-9375
▁wave	-9376
anders	-9377
▁chann	-9378
▁roten	-9379
▁sites	-9380
▁steps	-9381
▁Beweis	-9382
▁Effekt	-9383
▁Fakten	-9384
▁Mütter	-9385
▁Steuer	-9386
▁Yorker	-9387
▁dinner	-9388
▁gender	-9389
▁müsste	-9390
▁zahlen	-9391
▁beinhal	-9392
▁testing	-9393
▁brachten	-9394
▁struggle	-9395
▁Manhattan	-9396
▁cognitive	-9397
▁Schimpansen	-9398
▁generations	-9399
eme	-9400
Dort	-9401
ader	-9402
andt	-9403
engu	-9404
mann	-9405
stud	-9406
zing	-9407
äuse	-9408
▁Inn	-9409
▁Rot	-9410
▁Ven	-9411
teuer	-9412
ähren	-9413
▁1970	-9414
▁Eins	-9415
▁engl	-9416
▁intu	-9417
▁scen	-9418
ondere	-9419
▁Krise	-9420
ordnung	-9421
▁academ	-9422
▁lustig	-9423
▁Zuhause	-9424
▁genauer	-9425
▁gestern	-9426
▁nervous	-9427
▁warming	-9428
▁Arbeiten	-9429
▁aufbauen	-9430
▁identify	-9431
▁existence	-9432
▁persönliche	-9433
▁Ro	-9434
leid	-9435
rete	-9436
sage	-9437
wach	-9438
▁Gas	-9439
▁gig	-9440
istor	-9441
▁Flag	-9442
▁umge	-9443
▁daily	-9444
▁initi	-9445
▁lifet	-9446
▁novel	-9447
▁rural	-9448
fordert	-9449
zentrum	-9450
zheimer	-9451
▁Rechte	-9452
▁losing	-9453
▁motion	-9454
▁perman	-9455
▁stimul	-9456
▁stupid	-9457
▁Details	-9458
▁Gleiche	-9459
▁Wichtig	-9460
▁bezahlt	-9461
▁eindeut	-9462
▁gelesen	-9463
▁organic	-9464
▁players	-9465
▁relativ	-9466
▁stärker	-9467
▁welchen	-9468
▁effektiv	-9469
▁engineer	-9470
▁normally	-9471
▁resource	-9472
▁Gemeinden	-9473
▁brauchten	-9474
▁verbrachte	-9475
▁institution	-9476
ij	-9477
ete	-9478
▁Ap	-9479
down	-9480
kept	-9481
rain	-9482
▁21.	-9483
▁Uns	-9484
besch	-9485
izont	-9486
mäßig	-9487
ologe	-9488
▁Fett	-9489
▁Gras	-9490
▁Orig	-9491
▁Rock	-9492
▁Star	-9493
▁cosm	-9494
▁tail	-9495
olitik	-9496
▁Ganze	-9497
▁dolph	-9498
▁round	-9499
iologen	-9500
ologist	-9501
▁Zucker	-9502
▁verlie	-9503
zusetzen	-9504
▁Vorteil	-9505
▁privile	-9506
▁setting	-9507
▁tausend	-9508
▁wechsel	-9509
▁Hinsicht	-9510
▁microbes	-9511
▁schlagen	-9512
▁hopefully	-9513
▁principle	-9514
▁processes	-9515
▁Augenblick	-9516
▁Foundation	-9517
▁Satelliten	-9518
▁erscheinen	-9519
▁Generationen	-9520
Ir	-9521
aj	-9522
hh	-9523
mas	-9524
pet	-9525
▁26	-9526
Each	-9527
acle	-9528
▁120	-9529
▁Bal	-9530
▁Joe	-9531
▁gap	-9532
Falls	-9533
▁Ange	-9534
▁Dere	-9535
▁Impf	-9536
▁Pfer	-9537
▁beit	-9538
▁männ	-9539
▁rück	-9540
▁soph	-9541
atures	-9542
ifying	-9543
merzen	-9544
vollen	-9545
▁Count	-9546
▁Gates	-9547
▁Titan	-9548
▁grade	-9549
▁north	-9550
▁bietet	-9551
▁enable	-9552
▁filled	-9553
▁poetry	-9554
▁Ansicht	-9555
▁Theater	-9556
▁article	-9557
▁brauche	-9558
▁entschl	-9559
▁theater	-9560
▁vorbere	-9561
imensions	-9562
▁Netzwerke	-9563
▁designing	-9564
▁verbindet	-9565
▁associated	-9566
▁corruption	-9567
▁kilometers	-9568
▁verbreiten	-9569
▁Wahrnehmung	-9570
▁comfortable	-9571
▁natürlichen	-9572
▁transformation	-9573
▁Cy	-9574
▁af	-9575
Kann	-9576
aust	-9577
baut	-9578
iend	-9579
öpfe	-9580
▁Hor	-9581
▁Sur	-9582
estic	-9583
iable	-9584
▁Link	-9585
▁Zell	-9586
▁date	-9587
▁pure	-9588
apital	-9589
ibrary	-9590
onomen	-9591
plomat	-9592
▁2,000	-9593
▁Armen	-9594
▁Milch	-9595
▁Radio	-9596
▁State	-9597
▁Stock	-9598
▁angeb	-9599
▁einst	-9600
▁facts	-9601
owissen	-9602
▁Garten	-9603
▁Linien	-9604
▁Streit	-9605
▁caused	-9606
▁fossil	-9607
▁leaves	-9608
▁safety	-9609
▁compare	-9610
▁details	-9611
▁signals	-9612
▁Existenz	-9613
▁airplane	-9614
▁sentence	-9615
▁zunächst	-9616
▁Alzheimer	-9617
▁Vorfahren	-9618
▁Zeitalter	-9619
▁according	-9620
▁irgendein	-9621
▁studieren	-9622
▁importance	-9623
▁inspiriert	-9624
▁zugänglich	-9625
▁beschlossen	-9626
▁distribution	-9627
▁erstaunliche	-9628
Ok	-9629
wä	-9630
sph	-9631
ura	-9632
ints	-9633
izop	-9634
ltra	-9635
▁195	-9636
▁Hem	-9637
▁bom	-9638
▁nan	-9639
alyse	-9640
cture	-9641
ifest	-9642
inted	-9643
letzt	-9644
rator	-9645
rehen	-9646
▁Alle	-9647
▁Elef	-9648
▁Jeff	-9649
▁Mess	-9650
▁trip	-9651
ichern	-9652
rechte	-9653
ribute	-9654
▁awful	-9655
▁chain	-9656
▁colon	-9657
▁saved	-9658
▁scene	-9659
▁signs	-9660
▁solch	-9661
▁south	-9662
▁10.000	-9663
▁Buchst	-9664
▁Uganda	-9665
▁circum	-9666
▁fields	-9667
▁forced	-9668
▁island	-9669
▁kurzem	-9670
▁movies	-9671
Außerdem	-9672
izophren	-9673
▁covered	-9674
▁dealing	-9675
▁reichen	-9676
▁starten	-9677
▁verschl	-9678
▁behalten	-9679
▁kürzlich	-9680
▁property	-9681
▁Konsequen	-9682
▁essential	-9683
▁gestorben	-9684
▁technical	-9685
▁vergangen	-9686
▁yesterday	-9687
▁beobachtet	-9688
▁dimensions	-9689
▁auseinander	-9690
▁verschwinden	-9691
-1	-9692
▁“	-9693
azz	-9694
hek	-9695
üte	-9696
▁CA	-9697
aurs	-9698
cipl	-9699
star	-9700
▁ruh	-9701
agina	-9702
ancen	-9703
nimmt	-9704
▁Atom	-9705
▁Doch	-9706
▁ethn	-9707
▁pock	-9708
▁tall	-9709
▁vess	-9710
▁wide	-9711
▁zahl	-9712
artige	-9713
design	-9714
▁Viren	-9715
▁folks	-9716
▁fängt	-9717
▁infin	-9718
▁stood	-9719
▁wobei	-9720
▁Ausmaß	-9721
▁announ	-9722
▁grunds	-9723
▁propos	-9724
▁refuge	-9725
▁spring	-9726
▁analysis	-9727
▁diagnost	-9728
▁schwarze	-9729
▁Folgendes	-9730
▁Jahrzehnt	-9731
▁Lebewesen	-9732
▁aufzubauen	-9733
▁electrical	-9734
▁schlechter	-9735
▁connections	-9736
▁researchers	-9737
▁grundlegende	-9738
hm	-9739
See	-9740
kan	-9741
üge	-9742
sver	-9743
test	-9744
▁dat	-9745
gment	-9746
zieht	-9747
▁asks	-9748
▁hide	-9749
▁jähr	-9750
stitut	-9751
▁aufta	-9752
▁meist	-9753
▁shoes	-9754
amerika	-9755
auspiel	-9756
forscht	-9757
frieden	-9758
schrift	-9759
▁Aspekt	-9760
▁Grafik	-9761
▁Träume	-9762
▁Germany	-9763
▁angesch	-9764
▁gehören	-9765
▁killing	-9766
▁Prototyp	-9767
▁abhängig	-9768
▁entgegen	-9769
▁Interessen	-9770
▁Organismen	-9771
▁Produktion	-9772
▁artificial	-9773
▁innovative	-9774
70	-9775
uhr	-9776
vas	-9777
▁sy	-9778
▁ut	-9779
edic	-9780
icip	-9781
▁10-	-9782
▁SMS	-9783
Video	-9784
lease	-9785
▁2007	-9786
▁Atem	-9787
▁Ever	-9788
▁Koll	-9789
▁bits	-9790
▁fuhr	-9791
▁init	-9792
▁tons	-9793
ibliot	-9794
minist	-9795
riften	-9796
▁Brook	-9797
▁Kreuz	-9798
▁chimp	-9799
▁folgt	-9800
▁halbe	-9801
▁heavy	-9802
▁nötig	-9803
▁vorbe	-9804
drücken	-9805
rategie	-9806
umenten	-9807
▁explan	-9808
▁hypoth	-9809
▁verblü	-9810
achstums	-9811
▁Beweise	-9812
▁Website	-9813
▁arrived	-9814
▁Elemente	-9815
▁Tausende	-9816
▁clinical	-9817
▁geändert	-9818
▁komplexe	-9819
▁professor	-9820
▁Medikament	-9821
▁faszinierend	-9822
▁International	-9823
üb	-9824
isf	-9825
zed	-9826
▁Jo	-9827
agon	-9828
gely	-9829
ören	-9830
▁Urs	-9831
▁Vis	-9832
▁cam	-9833
kreis	-9834
rooms	-9835
▁enem	-9836
▁horr	-9837
▁resc	-9838
▁surf	-9839
endung	-9840
onents	-9841
▁Start	-9842
▁anger	-9843
▁blieb	-9844
▁erled	-9845
▁spoke	-9846
▁waves	-9847
orthern	-9848
▁Staats	-9849
▁finish	-9850
▁kombin	-9851
ätigkeit	-9852
▁Gedicht	-9853
▁Spieler	-9854
▁lessons	-9855
▁Japanese	-9856
▁Schatten	-9857
▁astronom	-9858
▁tomorrow	-9859
▁Abschluss	-9860
▁considered	-9861
▁experienced	-9862
▁beschäftigen	-9863
▁traditionellen	-9864
Wor	-9865
oli	-9866
ula	-9867
ario	-9868
resp	-9869
▁Pfe	-9870
▁Ren	-9871
schau	-9872
▁Echt	-9873
▁Klin	-9874
▁Mass	-9875
▁Roll	-9876
▁Wild	-9877
▁copy	-9878
▁hadn	-9879
▁trib	-9880
ündete	-9881
▁layer	-9882
▁negot	-9883
anthrop	-9884
erneath	-9885
ografie	-9886
wirkung	-9887
▁Geräus	-9888
▁damage	-9889
▁reicht	-9890
▁voices	-9891
▁zählen	-9892
inosaurs	-9893
▁Einfach	-9894
▁letters	-9895
▁sources	-9896
▁Kulturen	-9897
▁appropri	-9898
▁epidemic	-9899
▁feelings	-9900
▁zerstört	-9901
▁convinced	-9902
▁wondering	-9903
▁darstellen	-9904
▁Elektrizität	-9905
▁construction	-9906
fle	-9907
zep	-9908
Mail	-9909
Sind	-9910
adow	-9911
atik	-9912
fish	-9913
uous	-9914
▁700	-9915
▁Net	-9916
▁Top	-9917
▁cow	-9918
▁tim	-9919
chnet	-9920
igern	-9921
▁Dach	-9922
▁Viet	-9923
▁diet	-9924
▁flag	-9925
▁kick	-9926
▁shif	-9927
isters	-9928
▁Tests	-9929
▁Weile	-9930
▁autom	-9931
▁divid	-9932
▁flies	-9933
▁liked	-9934
▁pengu	-9935
▁recon	-9936
▁wuchs	-9937
stellte	-9938
▁Canada	-9939
▁Mexiko	-9940
▁Saturn	-9941
▁credit	-9942
▁drüben	-9943
▁lebten	-9944
▁meiste	-9945
▁sample	-9946
elescope	-9947
ichtlich	-9948
struktur	-9949
▁autonom	-9950
▁calling	-9951
▁erkennt	-9952
▁morgens	-9953
▁neurosc	-9954
▁opening	-9955
isationen	-9956
▁Chemikal	-9957
▁reaction	-9958
▁thoughts	-9959
▁Geheimnis	-9960
▁beschleun	-9961
▁beschloss	-9962
▁chemicals	-9963
▁geschickt	-9964
▁satellite	-9965
▁verhalten	-9966
▁Überrasch	-9967
▁Geschlecht	-9968
▁healthcare	-9969
▁Architekten	-9970
▁Schwierigkeiten	-9971
Br	-9972
Ent	-9973
uhe	-9974
iche	-9975
igem	-9976
skop	-9977
▁Dat	-9978
▁Eng	-9979
▁Rio	-9980
Keine	-9981
elben	-9982
gerät	-9983
iques	-9984
ünder	-9985
▁Fehl	-9986
▁Sitz	-9987
▁dots	-9988
▁gall	-9989
▁grab	-9990
▁shut	-9991
▁spät	-9992
▁verg	-9993
▁Ägyp	-9994
▁cloth	-9995
▁geist	-9996
▁heran	-9997
▁holes	-9998
▁maint	-9999
▁minim	-10000
▁passt	-10001
spielen	-10002
▁Umfeld	-10003
▁deeper	-10004
▁encoun	-10005
▁körper	-10006
▁leiden	-10007
▁picked	-10008
▁player	-10009
▁spezif	-10010
▁trials	-10011
▁Britain	-10012
▁Florida	-10013
▁radical	-10014
▁anwenden	-10015
▁cultures	-10016
▁erstellt	-10017
▁expected	-10018
▁messages	-10019
▁Emotionen	-10020
▁Erklärung	-10021
▁aufregend	-10022
▁chemistry	-10023
▁entdeckte	-10024
▁entertain	-10025
▁sophistic	-10026
▁Korruption	-10027
▁expression	-10028
▁management	-10029
▁possibilities	-10030
BC	-10031
ET	-10032
▁Cr	-10033
▁Ev	-10034
ller	-10035
ping	-10036
rägt	-10037
▁10,	-10038
▁Tim	-10039
erves	-10040
igste	-10041
linge	-10042
lying	-10043
▁Gand	-10044
▁Gree	-10045
▁Teen	-10046
▁erle	-10047
▁gefü	-10048
▁user	-10049
orient	-10050
▁Alles	-10051
▁Seele	-10052
▁prove	-10053
▁Quelle	-10054
▁advert	-10055
▁analog	-10056
▁enorme	-10057
▁establ	-10058
▁muscle	-10059
▁nieder	-10060
▁steigt	-10061
bewegung	-10062
zuführen	-10063
▁Maßstab	-10064
▁cartoon	-10065
▁cutting	-10066
▁nations	-10067
▁variety	-10068
▁Nachbarn	-10069
▁annehmen	-10070
▁sprachen	-10071
▁erscheint	-10072
▁interface	-10073
▁verfügbar	-10074
▁vermeiden	-10075
▁zerstören	-10076
▁definieren	-10077
ups	-10078
umin	-10079
▁DNS	-10080
▁Soc	-10081
llekt	-10082
oking	-10083
omben	-10084
uable	-10085
▁Merk	-10086
▁Resp	-10087
▁drin	-10088
▁evil	-10089
▁fern	-10090
▁klin	-10091
▁maps	-10092
▁vote	-10093
▁youn	-10094
bridge	-10095
▁Fälle	-10096
▁Genau	-10097
▁ermut	-10098
▁perce	-10099
▁zieht	-10100
▁übrig	-10101
gedacht	-10102
quality	-10103
steigen	-10104
▁berühm	-10105
▁videos	-10106
programm	-10107
▁Konflik	-10108
▁keeping	-10109
▁spielte	-10110
▁Vorstell	-10111
▁Weltraum	-10112
▁emerging	-10113
▁nützlich	-10114
▁Brasilien	-10115
▁aufgebaut	-10116
▁dinosaurs	-10117
▁Diskussion	-10118
▁collection	-10119
▁schlechten	-10120
▁underneath	-10121
möglichkeiten	-10122
11	-10123
IP	-10124
ye	-10125
Ger	-10126
Zur	-10127
afe	-10128
cal	-10129
vis	-10130
oder	-10131
▁Dam	-10132
▁Sir	-10133
genda	-10134
iquid	-10135
passt	-10136
▁Aust	-10137
▁Camp	-10138
▁Wein	-10139
▁beib	-10140
▁scri	-10141
▁shel	-10142
acters	-10143
haften	-10144
holfen	-10145
iences	-10146
▁Korea	-10147
▁Zweck	-10148
▁schwe	-10149
▁solid	-10150
▁sympt	-10151
▁setzte	-10152
ographie	-10153
▁TEDTalk	-10154
▁battery	-10155
▁erwähnt	-10156
▁experts	-10157
▁deswegen	-10158
▁marriage	-10159
imensionen	-10160
versorgung	-10161
▁Philosoph	-10162
▁carefully	-10163
▁worldwide	-10164
▁vermitteln	-10165
▁Mitarbeiter	-10166
▁independent	-10167
▁menschlicher	-10168
hel	-10169
rix	-10170
äne	-10171
John	-10172
alem	-10173
aube	-10174
gant	-10175
gent	-10176
illa	-10177
izer	-10178
▁Ost	-10179
▁Roh	-10180
glied	-10181
karte	-10182
state	-10183
▁Anim	-10184
▁Bron	-10185
▁Kerl	-10186
▁Pres	-10187
▁blow	-10188
▁hurt	-10189
▁wake	-10190
▁weak	-10191
▁Parte	-10192
▁Union	-10193
▁Zitat	-10194
▁außen	-10195
▁broke	-10196
▁spont	-10197
▁unend	-10198
Niemand	-10199
ontroll	-10200
▁einzus	-10201
▁formen	-10202
▁review	-10203
▁capture	-10204
▁dynamic	-10205
▁müssten	-10206
verbrauch	-10207
▁advanced	-10208
▁consumer	-10209
▁disaster	-10210
▁exercise	-10211
▁whenever	-10212
▁Verbesser	-10213
▁invention	-10214
▁characters	-10215
▁Erwachsenen	-10216
▁entrepreneurs	-10217
bru	-10218
can	-10219
not	-10220
pra	-10221
sta	-10222
▁wü	-10223
agos	-10224
dest	-10225
eres	-10226
▁Sum	-10227
▁Wei	-10228
▁sem	-10229
fahrt	-10230
iency	-10231
ierer	-10232
inahe	-10233
itals	-10234
staat	-10235
▁Good	-10236
▁Tour	-10237
▁Verw	-10238
▁Zwei	-10239
▁arts	-10240
▁ends	-10241
▁flat	-10242
▁getr	-10243
agramm	-10244
jemand	-10245
▁Neues	-10246
▁empty	-10247
▁quasi	-10248
▁rates	-10249
▁sucht	-10250
outhern	-10251
ziehung	-10252
züglich	-10253
▁Batter	-10254
▁Chemie	-10255
▁Erwart	-10256
▁Flücht	-10257
▁Gewinn	-10258
▁Kaffee	-10259
▁facing	-10260
▁status	-10261
▁Vietnam	-10262
▁aggress	-10263
▁beinahe	-10264
▁umgeben	-10265
▁viruses	-10266
fähigkeit	-10267
▁Interess	-10268
▁gewissen	-10269
▁valuable	-10270
▁vertraut	-10271
▁organized	-10272
▁Verhältnis	-10273
▁unabhängig	-10274
▁verbessert	-10275
ispielsweise	-10276
▁stattdessen	-10277
▁transparent	-10278
▁Informations	-10279
mü	-10280
▁.	-10281
Afr	-10282
gte	-10283
lyn	-10284
Dass	-10285
Sehr	-10286
mehr	-10287
what	-10288
▁Bay	-10289
▁Gro	-10290
Trotz	-10291
asste	-10292
maßen	-10293
rufen	-10294
▁Wurz	-10295
▁unus	-10296
Obwohl	-10297
chnung	-10298
imming	-10299
muster	-10300
▁Black	-10301
▁fähig	-10302
▁humor	-10303
▁zweit	-10304
▁Bedroh	-10305
▁Größen	-10306
▁Nichts	-10307
▁ausgel	-10308
▁heißen	-10309
▁houses	-10310
▁treten	-10311
▁Angriff	-10312
▁cameras	-10313
▁moderne	-10314
▁Freundin	-10315
▁requires	-10316
Eigentlich	-10317
▁Bereichen	-10318
▁Hollywood	-10319
▁photograp	-10320
▁überrasch	-10321
▁relatively	-10322
▁transition	-10323
-,	-10324
LA	-10325
abb	-10326
bors	-10327
izon	-10328
▁ped	-10329
▁rig	-10330
▁zut	-10331
iform	-10332
▁Coll	-10333
▁chap	-10334
▁rief	-10335
▁summ	-10336
▁Brown	-10337
▁beweg	-10338
gründet	-10339
igungen	-10340
▁Voraus	-10341
▁ergibt	-10342
▁kannte	-10343
▁sharks	-10344
▁zusätz	-10345
qualität	-10346
▁Auswahl	-10347
▁Erkrank	-10348
▁Quanten	-10349
▁microsc	-10350
▁rapidly	-10351
▁solcher	-10352
▁ersetzen	-10353
▁exchange	-10354
▁generate	-10355
▁location	-10356
▁behaviors	-10357
▁disappear	-10358
▁movements	-10359
▁Definition	-10360
▁beschreibt	-10361
▁discussion	-10362
▁properties	-10363
▁situations	-10364
erechtigkeit	-10365
verständlich	-10366
▁intellectual	-10367
PM	-10368
ria	-10369
sun	-10370
umn	-10371
▁Ol	-10372
aler	-10373
alte	-10374
arre	-10375
oved	-10376
würd	-10377
▁Pen	-10378
▁bul	-10379
▁tap	-10380
Bitte	-10381
artig	-10382
öpfen	-10383
▁Gore	-10384
▁Kurs	-10385
▁Null	-10386
▁deta	-10387
▁exec	-10388
▁ride	-10389
▁suit	-10390
elling	-10391
esents	-10392
äusern	-10393
▁crowd	-10394
▁dunkl	-10395
▁fewer	-10396
▁passw	-10397
▁teeth	-10398
areness	-10399
steroid	-10400
▁Kriegs	-10401
▁Ozeane	-10402
▁Riesen	-10403
▁Second	-10404
▁gelöst	-10405
▁Fernseh	-10406
▁Verlust	-10407
▁gebeten	-10408
▁roughly	-10409
▁victims	-10410
▁worüber	-10411
▁convince	-10412
▁entstand	-10413
▁gefangen	-10414
▁hydrogen	-10415
▁verwende	-10416
▁Cambridge	-10417
▁Potential	-10418
▁chimpanze	-10419
▁specifically	-10420
aa	-10421
sa	-10422
ruh	-10423
ähn	-10424
▁28	-10425
führ	-10426
laub	-10427
osex	-10428
temp	-10429
ämpf	-10430
▁800	-10431
▁Dro	-10432
▁Mel	-10433
▁biz	-10434
▁pil	-10435
▁–",	-10436
ician	-10437
otten	-10438
▁Verd	-10439
▁erwe	-10440
▁höre	-10441
▁trop	-10442
▁Antar	-10443
▁Brief	-10444
▁Gutes	-10445
▁cards	-10446
▁chart	-10447
▁goals	-10448
achtung	-10449
griffen	-10450
▁Anteil	-10451
▁Inhalt	-10452
▁Sprach	-10453
▁former	-10454
▁skelet	-10455
▁Entfern	-10456
▁Präsent	-10457
▁Schnitt	-10458
▁Student	-10459
▁depends	-10460
▁promise	-10461
▁welchem	-10462
▁Bereiche	-10463
▁lifetime	-10464
▁Erfindung	-10465
▁digitalen	-10466
▁practical	-10467
▁schwimmen	-10468
▁Australien	-10469
▁represents	-10470
▁vulnerable	-10471
▁Neurowissen	-10472
▁Situationen	-10473
▁effectively	-10474
▁schrecklich	-10475
bek	-10476
ini	-10477
ubb	-10478
ült	-10479
Good	-10480
frei	-10481
rane	-10482
tels	-10483
▁Fas	-10484
▁Hol	-10485
▁Int	-10486
▁Jew	-10487
▁hur	-10488
▁lic	-10489
Other	-10490
Their	-10491
cling	-10492
lines	-10493
▁"200	-10494
▁Vern	-10495
▁corn	-10496
▁cure	-10497
▁gain	-10498
▁neut	-10499
sprung	-10500
titude	-10501
▁Hilfs	-10502
▁admit	-10503
▁chron	-10504
▁vorne	-10505
ständen	-10506
▁Helden	-10507
▁Signal	-10508
▁battle	-10509
▁prefer	-10510
▁Malaria	-10511
▁authent	-10512
▁primary	-10513
▁theoret	-10514
▁Arbeiter	-10515
▁Congress	-10516
▁langweil	-10517
▁President	-10518
▁industrie	-10519
▁beinhaltet	-10520
▁techniques	-10521
▁Erinnerungen	-10522
EC	-10523
ati	-10524
wel	-10525
▁95	-10526
Stud	-10527
oles	-10528
▁11.	-10529
▁Pet	-10530
▁rit	-10531
gling	-10532
greif	-10533
halts	-10534
nchen	-10535
otion	-10536
quare	-10537
sters	-10538
weile	-10539
▁Früh	-10540
▁Mary	-10541
▁Prim	-10542
▁Trag	-10543
▁bran	-10544
▁diss	-10545
▁irre	-10546
▁qual	-10547
▁scre	-10548
▁snow	-10549
indert	-10550
uliert	-10551
▁Diagn	-10552
▁Stuhl	-10553
▁honor	-10554
▁navig	-10555
ffizien	-10556
zufügen	-10557
▁Epidem	-10558
▁bottle	-10559
▁buying	-10560
▁dunkle	-10561
▁langer	-10562
issionen	-10563
▁Risiken	-10564
▁contain	-10565
▁seitdem	-10566
▁überprü	-10567
▁Echtzeit	-10568
▁Geräusch	-10569
▁besuchen	-10570
▁parallel	-10571
▁verteilt	-10572
▁besondere	-10573
▁emissions	-10574
▁langfrist	-10575
▁notwendig	-10576
▁producing	-10577
▁Buchstaben	-10578
▁gemeinsame	-10579
▁underwater	-10580
▁westlichen	-10581
▁gesellschaft	-10582
▁collaboration	-10583
Den	-10584
Sein	-10585
iler	-10586
▁Cal	-10587
▁LED	-10588
▁[\"	-10589
▁err	-10590
ränkt	-10591
▁Cart	-10592
▁Dire	-10593
▁Hill	-10594
▁With	-10595
▁blau	-10596
▁jüng	-10597
▁lady	-10598
gehend	-10599
iglich	-10600
▁Passw	-10601
▁defen	-10602
▁fiber	-10603
▁risks	-10604
itarian	-10605
▁Schuld	-10606
▁Tonnen	-10607
▁Virgin	-10608
▁bubble	-10609
▁define	-10610
▁hinten	-10611
▁inevit	-10612
▁length	-10613
▁Element	-10614
▁enthält	-10615
▁insight	-10616
▁konstru	-10617
▁liefern	-10618
▁musical	-10619
▁regener	-10620
▁unusual	-10621
Everybody	-10622
besondere	-10623
▁explains	-10624
▁relative	-10625
▁schätzen	-10626
▁verwandelt	-10627
▁veränderte	-10628
▁unterstützt	-10629
▁mathematical	-10630
▁internationale	-10631
ehm	-10632
har	-10633
▁Zä	-10634
Have	-10635
Very	-10636
flug	-10637
kins	-10638
okus	-10639
rass	-10640
▁Jon	-10641
▁pot	-10642
Jeden	-10643
chron	-10644
hythm	-10645
icing	-10646
▁Komb	-10647
▁arab	-10648
▁thro	-10649
▁unit	-10650
▁wand	-10651
lösung	-10652
rieren	-10653
ächeln	-10654
▁Pingu	-10655
▁Süden	-10656
▁Vögel	-10657
▁added	-10658
▁befre	-10659
▁repor	-10660
▁reven	-10661
▁smile	-10662
▁staff	-10663
▁übert	-10664
örungen	-10665
▁Wetter	-10666
▁bauten	-10667
▁explod	-10668
▁junger	-10669
▁organs	-10670
▁Momente	-10671
▁Wissens	-10672
▁berührt	-10673
▁kitchen	-10674
▁malaria	-10675
▁release	-10676
▁steuern	-10677
▁carrying	-10678
▁darunter	-10679
▁zurückzu	-10680
▁generally	-10681
▁molecular	-10682
▁überwinden	-10683
▁Statistiken	-10684
▁fantastisch	-10685
▁Wesentlichen	-10686
▁vorzustellen	-10687
▁wirtschaftliche	-10688
Ah	-10689
▁0	-10690
Bas	-10691
hai	-10692
oma	-10693
sec	-10694
airs	-10695
bers	-10696
ials	-10697
netz	-10698
samm	-10699
▁GDP	-10700
▁Lou	-10701
▁Skl	-10702
▁asp	-10703
▁bow	-10704
Leute	-10705
acken	-10706
akers	-10707
oting	-10708
ville	-10709
▁2005	-10710
▁Anst	-10711
▁Bund	-10712
▁Homo	-10713
▁biom	-10714
▁firm	-10715
▁mode	-10716
▁prec	-10717
▁stir	-10718
ueller	-10719
▁Lager	-10720
▁doubt	-10721
▁shall	-10722
▁silen	-10723
▁sugar	-10724
Nachdem	-10725
aurants	-10726
▁Health	-10727
▁Nieder	-10728
▁Stärke	-10729
▁detect	-10730
▁thanks	-10731
▁worlds	-10732
▁Bestand	-10733
▁Werbung	-10734
▁erhielt	-10735
▁include	-10736
▁nachden	-10737
▁selling	-10738
▁sending	-10739
▁standen	-10740
▁verring	-10741
▁äußerst	-10742
▁überein	-10743
▁übersch	-10744
▁Minister	-10745
▁circumst	-10746
▁pleasure	-10747
▁systemat	-10748
▁versteht	-10749
▁Operation	-10750
▁Strategie	-10751
▁mortality	-10752
▁pollution	-10753
▁terrorism	-10754
▁Großmutter	-10755
▁übernehmen	-10756
▁Deutschland	-10757
▁Kombination	-10758
▁Zivilisation	-10759
▁unglaublichen	-10760
▁Persönlichkeit	-10761
▁internationalen	-10762
Qu	-10763
▁NG	-10764
▁ce	-10765
bell	-10766
imit	-10767
rict	-10768
ught	-10769
▁Imp	-10770
▁ing	-10771
▁nor	-10772
cover	-10773
ortex	-10774
▁grid	-10775
▁grün	-10776
▁ring	-10777
▁soft	-10778
▁Grand	-10779
▁Stern	-10780
▁beach	-10781
▁maxim	-10782
▁sides	-10783
▁traum	-10784
▁Belohn	-10785
▁Laptop	-10786
▁Mandel	-10787
▁assign	-10788
▁fehlen	-10789
▁remain	-10790
▁sparen	-10791
▁winter	-10792
material	-10793
sprozess	-10794
▁Fahrrad	-10795
▁Geistes	-10796
▁Komment	-10797
▁Taliban	-10798
▁hierher	-10799
▁lokalen	-10800
▁regions	-10801
▁Kongress	-10802
▁beweisen	-10803
▁encourag	-10804
▁kreieren	-10805
▁prepared	-10806
▁released	-10807
▁Anwendung	-10808
▁interests	-10809
bevölkerung	-10810
▁Vielleicht	-10811
▁restaurant	-10812
▁Jahrzehnten	-10813
▁überraschend	-10814
▁Gerechtigkeit	-10815
▁medizinischen	-10816
▁x	-10817
Pat	-10818
Rob	-10819
hab	-10820
han	-10821
sey	-10822
vey	-10823
▁Ec	-10824
Mehr	-10825
appy	-10826
fert	-10827
foot	-10828
half	-10829
ikes	-10830
quar	-10831
▁19.	-10832
▁191	-10833
▁Mas	-10834
▁dün	-10835
▁gay	-10836
▁gee	-10837
▁Allt	-10838
▁Paar	-10839
▁Show	-10840
▁Teuf	-10841
▁Wall	-10842
▁Weib	-10843
▁acqu	-10844
▁heir	-10845
▁sorg	-10846
freund	-10847
mented	-10848
▁Derek	-10849
▁Pfund	-10850
▁Stufe	-10851
▁drauf	-10852
▁serve	-10853
gegeben	-10854
▁Winter	-10855
▁Wolken	-10856
▁blauen	-10857
▁durchs	-10858
▁factor	-10859
▁meinte	-10860
▁Schicks	-10861
▁factors	-10862
abilities	-10863
▁gespielt	-10864
▁mögliche	-10865
▁verstehe	-10866
Everything	-10867
▁eindeutig	-10868
▁Ökosystem	-10869
▁components	-10870
▁passionate	-10871
▁Chemikalien	-10872
▁Einstellung	-10873
▁beschrieben	-10874
▁photographs	-10875
▁politicians	-10876
▁environments	-10877
Beim	-10878
Char	-10879
anen	-10880
esus	-10881
Spiel	-10882
illen	-10883
opter	-10884
ätter	-10885
üssen	-10886
▁brit	-10887
▁runs	-10888
▁soul	-10889
▁vent	-10890
▁zust	-10891
Design	-10892
ammelt	-10893
▁Jeder	-10894
▁Moral	-10895
▁Neben	-10896
▁Poten	-10897
▁Schäd	-10898
▁armen	-10899
▁inher	-10900
▁steel	-10901
dlichen	-10902
prechen	-10903
wärmung	-10904
▁Gegend	-10905
▁Lungen	-10906
▁begren	-10907
▁besagt	-10908
▁conver	-10909
▁furcht	-10910
▁geomet	-10911
putation	-10912
▁Galaxie	-10913
▁Pacific	-10914
▁Respekt	-10915
▁attempt	-10916
▁engaged	-10917
▁feature	-10918
▁gefällt	-10919
▁however	-10920
▁impress	-10921
▁privacy	-10922
▁vergröß	-10923
▁leichter	-10924
▁trillion	-10925
▁aufnehmen	-10926
▁lediglich	-10927
▁typically	-10928
▁Instrument	-10929
▁fasziniert	-10930
▁introduced	-10931
▁perception	-10932
▁psychology	-10933
▁feststellen	-10934
▁großartigen	-10935
▁sophisticated	-10936
ao	-10937
rey	-10938
uba	-10939
▁3.	-10940
Will	-10941
ense	-10942
gibt	-10943
grad	-10944
hips	-10945
inte	-10946
kind	-10947
▁Krä	-10948
▁Rom	-10949
boden	-10950
ielle	-10951
level	-10952
ratch	-10953
örung	-10954
▁Empf	-10955
▁Long	-10956
▁Rake	-10957
▁atom	-10958
▁beiz	-10959
▁genü	-10960
▁shop	-10961
▁swim	-10962
▁verf	-10963
▁wars	-10964
icious	-10965
ternal	-10966
▁Bauch	-10967
▁Febru	-10968
▁Küste	-10969
▁atoms	-10970
▁cyber	-10971
▁goods	-10972
▁habit	-10973
▁metal	-10974
▁occup	-10975
▁stehe	-10976
▁stock	-10977
▁sweet	-10978
▁unbek	-10979
erstand	-10980
▁Herren	-10981
▁Inspir	-10982
▁Mengen	-10983
▁Symbol	-10984
▁Zauber	-10985
▁blocks	-10986
▁fisher	-10987
▁gelebt	-10988
▁mirror	-10989
Audience	-10990
▁Bibliot	-10991
▁Lektion	-10992
▁Wirkung	-10993
losigkeit	-10994
▁Komponen	-10995
▁affected	-10996
▁dahinter	-10997
▁graduate	-10998
▁spectrum	-10999
▁ähnliche	-11000
▁employees	-11001
▁entfernen	-11002
▁introduce	-11003
▁newspaper	-11004
▁wirkliche	-11005
▁democratic	-11006
▁Bedürfnisse	-11007
▁menschliches	-11008
Fin	-11009
Reg	-11010
ora	-11011
öss	-11012
abol	-11013
erer	-11014
leib	-11015
nahm	-11016
uses	-11017
▁erz	-11018
▁lon	-11019
daten	-11020
▁Alph	-11021
▁Expl	-11022
▁clim	-11023
▁fürs	-11024
▁seid	-11025
Irgend	-11026
leitet	-11027
ruppen	-11028
source	-11029
unting	-11030
▁Koran	-11031
▁toxic	-11032
▁tumor	-11033
ermaßen	-11034
zwungen	-11035
▁Brücke	-11036
▁Handel	-11037
▁advice	-11038
▁anonym	-11039
▁compar	-11040
▁depart	-11041
▁driven	-11042
▁ingred	-11043
▁replic	-11044
▁stattf	-11045
▁talent	-11046
▁Einheit	-11047
▁grundle	-11048
▁Betracht	-11049
▁Ungleich	-11050
▁folgende	-11051
▁Grundlage	-11052
▁Wohlstand	-11053
▁ancestors	-11054
▁gegründet	-11055
▁mountains	-11056
▁radiation	-11057
▁algorithms	-11058
▁gegenseitig	-11059
ücklicherweise	-11060
Dr	-11061
Fl	-11062
Sol	-11063
hst	-11064
pel	-11065
oint	-11066
ränk	-11067
äfte	-11068
▁Mah	-11069
▁Mor	-11070
▁bag	-11071
▁dot	-11072
▁wra	-11073
anned	-11074
antom	-11075
iring	-11076
▁bare	-11077
▁dogs	-11078
forest	-11079
penden	-11080
▁imple	-11081
▁notes	-11082
▁polar	-11083
▁unerw	-11084
▁unexp	-11085
▁verab	-11086
▁Doktor	-11087
▁Fellow	-11088
▁Skulpt	-11089
▁jeweil	-11090
▁option	-11091
▁satisf	-11092
▁season	-11093
▁Johnson	-11094
▁Wechsel	-11095
▁actions	-11096
▁berühmt	-11097
▁gravity	-11098
▁mistake	-11099
▁replace	-11100
▁singing	-11101
▁sichtbar	-11102
▁weiterer	-11103
leistungen	-11104
▁Interview	-11105
▁Verbrechen	-11106
▁unexpected	-11107
▁Aktivitäten	-11108
▁akzeptieren	-11109
▁Innovationen	-11110
▁Wirtschaftsw	-11111
▁evolutionary	-11112
BM	-11113
pa	-11114
lar	-11115
▁"„	-11116
▁Ve	-11117
Does	-11118
ugel	-11119
▁Ham	-11120
▁Ray	-11121
iogen	-11122
seins	-11123
▁Zahn	-11124
▁legt	-11125
▁sees	-11126
▁tank	-11127
making	-11128
mechan	-11129
plätze	-11130
recher	-11131
urance	-11132
▁Blatt	-11133
▁Klein	-11134
▁Trick	-11135
▁Weihn	-11136
▁aging	-11137
▁baute	-11138
▁innen	-11139
▁refer	-11140
gruppen	-11141
ulating	-11142
▁Einsch	-11143
▁heisst	-11144
▁liquid	-11145
▁medium	-11146
▁realen	-11147
▁regard	-11148
▁singen	-11149
sprechen	-11150
▁centers	-11151
▁manchen	-11152
▁opinion	-11153
▁proport	-11154
▁reached	-11155
▁Gesichts	-11156
▁Lebenser	-11157
▁elektron	-11158
▁mistakes	-11159
▁recorded	-11160
haltigkeit	-11161
▁Transport	-11162
▁encounter	-11163
▁erweitern	-11164
▁Depression	-11165
▁Schauspiel	-11166
▁definitely	-11167
▁protection	-11168
▁combination	-11169
BF	-11170
Dan	-11171
agh	-11172
ero	-11173
see	-11174
▁85	-11175
emin	-11176
mord	-11177
omme	-11178
ulin	-11179
umps	-11180
west	-11181
zipl	-11182
äden	-11183
▁Act	-11184
▁phr	-11185
▁que	-11186
▁ums	-11187
alled	-11188
chnik	-11189
eding	-11190
iveau	-11191
samen	-11192
▁Erst	-11193
▁Fünf	-11194
▁Mult	-11195
▁nett	-11196
reffen	-11197
▁Kenia	-11198
▁Platt	-11199
▁Tumor	-11200
▁Wüste	-11201
▁aston	-11202
▁piano	-11203
▁skill	-11204
▁toler	-11205
stoffen	-11206
▁Blumen	-11207
▁Gesamt	-11208
▁Welten	-11209
▁cortex	-11210
▁eingel	-11211
▁scared	-11212
▁soviel	-11213
underten	-11214
▁courage	-11215
▁electro	-11216
▁fishing	-11217
▁forests	-11218
▁kriegen	-11219
▁Mehrheit	-11220
▁Spektrum	-11221
▁combined	-11222
▁falschen	-11223
▁Gegenwart	-11224
▁Tradition	-11225
▁hospitals	-11226
▁neighbors	-11227
▁scheinbar	-11228
▁traveling	-11229
▁meaningful	-11230
▁Terrorismus	-11231
▁schwieriger	-11232
DA	-11233
fir	-11234
ißt	-11235
oir	-11236
äub	-11237
örm	-11238
▁CD	-11239
Welt	-11240
ifth	-11241
orte	-11242
▁Bem	-11243
▁Bob	-11244
▁Brü	-11245
▁Von	-11246
▁bug	-11247
▁wüs	-11248
Wieso	-11249
athie	-11250
chest	-11251
chner	-11252
kehrt	-11253
räume	-11254
uther	-11255
▁Kenn	-11256
▁Penn	-11257
▁Tele	-11258
▁bath	-11259
▁clip	-11260
▁erwä	-11261
▁gang	-11262
▁quad	-11263
▁vibr	-11264
friend	-11265
igungs	-11266
▁Media	-11267
▁dedic	-11268
▁estim	-11269
▁horse	-11270
▁keeps	-11271
▁Hunger	-11272
▁aftern	-11273
▁kümmer	-11274
▁ungehe	-11275
▁vieles	-11276
▁Fliegen	-11277
▁Hindern	-11278
▁Viertel	-11279
▁Zeitung	-11280
▁chicken	-11281
▁empathy	-11282
▁erhöhen	-11283
▁zeigten	-11284
verhalten	-11285
▁Vorteile	-11286
▁besseres	-11287
▁memories	-11288
▁required	-11289
▁stronger	-11290
▁Gesichter	-11291
▁Südafrika	-11292
▁awareness	-11293
▁komplexen	-11294
▁angenommen	-11295
Aut	-11296
isl	-11297
uts	-11298
war	-11299
▁33	-11300
?“",	-11301
Last	-11302
aret	-11303
nach	-11304
uits	-11305
wald	-11306
▁adj	-11307
▁spr	-11308
Could	-11309
ahnen	-11310
bleme	-11311
ettet	-11312
räger	-11313
scale	-11314
utete	-11315
▁Eric	-11316
▁Rett	-11317
▁Tief	-11318
▁Weit	-11319
▁eggs	-11320
▁froh	-11321
▁gere	-11322
▁heim	-11323
▁länd	-11324
▁rote	-11325
▁tape	-11326
illing	-11327
reiche	-11328
zähler	-11329
▁Motiv	-11330
▁Teles	-11331
▁false	-11332
▁geste	-11333
▁immen	-11334
▁mosqu	-11335
▁ought	-11336
▁topic	-11337
▁Fabrik	-11338
▁Pflege	-11339
▁Zufall	-11340
▁anfing	-11341
▁ausgew	-11342
▁belieb	-11343
▁lokale	-11344
▁pulled	-11345
▁sauber	-11346
▁solved	-11347
▁stream	-11348
atastrop	-11349
▁Afrikas	-11350
▁gewählt	-11351
▁glaubte	-11352
erstörung	-11353
▁features	-11354
▁konfront	-11355
▁ultimate	-11356
▁vehicles	-11357
▁bekannten	-11358
▁dieselben	-11359
▁encourage	-11360
▁naturally	-11361
▁Sicherheits	-11362
▁geschlossen	-11363
▁funktionierte	-11364
Ges	-11365
lad	-11366
enew	-11367
erte	-11368
etik	-11369
rüst	-11370
thur	-11371
ulse	-11372
▁Ban	-11373
▁Ins	-11374
▁Tes	-11375
▁hey	-11376
Since	-11377
acles	-11378
adium	-11379
erung	-11380
nungs	-11381
▁Jung	-11382
▁Nase	-11383
▁baut	-11384
▁brut	-11385
▁hang	-11386
▁iPod	-11387
▁tick	-11388
Leider	-11389
apping	-11390
estyle	-11391
ondern	-11392
unkten	-11393
zeigen	-11394
▁5,000	-11395
▁Damen	-11396
▁Hotel	-11397
▁Hunde	-11398
▁Sympt	-11399
▁embar	-11400
▁input	-11401
▁tests	-11402
▁ultra	-11403
▁verkn	-11404
▁bestät	-11405
▁senden	-11406
chnology	-11407
▁Central	-11408
▁Gebiete	-11409
▁Signale	-11410
▁applied	-11411
▁besitzt	-11412
▁dropped	-11413
▁records	-11414
schriften	-11415
▁Aufnahme	-11416
▁Schritte	-11417
▁zeichnen	-11418
▁framework	-11419
▁functions	-11420
▁increased	-11421
▁mechanism	-11422
▁Prinzipien	-11423
▁literature	-11424
▁personally	-11425
▁Stammzellen	-11426
▁destruction	-11427
▁gemeinsamen	-11428
▁inspiration	-11429
▁participate	-11430
▁technological	-11431
▁transportation	-11432
Kon	-11433
ffe	-11434
wen	-11435
.«",	-11436
igma	-11437
ombe	-11438
reck	-11439
ätzt	-11440
▁Who	-11441
▁ens	-11442
belie	-11443
▁Inte	-11444
▁arme	-11445
▁bicy	-11446
▁heil	-11447
▁hits	-11448
Andere	-11449
ducing	-11450
gesamt	-11451
ichert	-11452
▁3,000	-11453
▁White	-11454
▁athle	-11455
▁fährt	-11456
▁jener	-11457
▁legit	-11458
▁prime	-11459
▁storm	-11460
▁theme	-11461
▁August	-11462
▁Dunkel	-11463
▁Führer	-11464
▁Kirche	-11465
▁advent	-11466
▁church	-11467
▁drives	-11468
▁execut	-11469
▁formed	-11470
▁hoping	-11471
▁lachen	-11472
▁senses	-11473
▁sports	-11474
▁ökonom	-11475
lerweile	-11476
▁largely	-11477
▁witness	-11478
ventional	-11479
▁birthday	-11480
▁digitale	-11481
▁internal	-11482
▁schlafen	-11483
▁speziell	-11484
▁sunlight	-11485
▁Überzeug	-11486
▁computing	-11487
▁erforscht	-11488
▁überlegen	-11489
▁activities	-11490
▁efficiency	-11491
▁physically	-11492
▁Fortschritte	-11493
▁Untersuchung	-11494
▁fundamentally	-11495
Em	-11496
li	-11497
Ach	-11498
Fre	-11499
Rem	-11500
irt	-11501
önt	-11502
▁36	-11503
▁ka	-11504
cons	-11505
enry	-11506
lief	-11507
look	-11508
mack	-11509
reht	-11510
sper	-11511
▁Day	-11512
▁FBI	-11513
▁Hal	-11514
▁Kam	-11515
▁Leg	-11516
▁mad	-11517
▁sau	-11518
Gesch	-11519
being	-11520
benen	-11521
istin	-11522
reibe	-11523
▁erhe	-11524
▁mile	-11525
▁peak	-11526
▁tats	-11527
Anyway	-11528
Dollar	-11529
ateful	-11530
father	-11531
▁Erdbe	-11532
▁Phase	-11533
▁Stahl	-11534
▁günst	-11535
▁score	-11536
▁shame	-11537
▁France	-11538
▁Gottes	-11539
▁Säuget	-11540
▁desper	-11541
▁leiten	-11542
▁studio	-11543
pflanzen	-11544
▁Sternen	-11545
▁accompl	-11546
▁amounts	-11547
▁ansieht	-11548
▁führten	-11549
▁operate	-11550
▁silence	-11551
erkennung	-11552
▁Diagramm	-11553
▁Metapher	-11554
▁afternoon	-11555
▁behaupten	-11556
▁collected	-11557
▁marketing	-11558
▁bezeichnen	-11559
▁foundation	-11560
▁aufgewachsen	-11561
▁konzentriert	-11562
▁manufacturing	-11563
▁sustainability	-11564
],	-11565
dis	-11566
oto	-11567
▁"♪	-11568
Naja	-11569
atar	-11570
etch	-11571
irds	-11572
whel	-11573
▁Alt	-11574
▁Que	-11575
China	-11576
abeth	-11577
elson	-11578
iders	-11579
linie	-11580
umble	-11581
▁1000	-11582
▁Baus	-11583
▁joke	-11584
▁wine	-11585
Welche	-11586
aptops	-11587
kosten	-11588
nitten	-11589
recken	-11590
umines	-11591
▁pregn	-11592
▁repar	-11593
antasie	-11594
ließend	-11595
schläge	-11596
ältigen	-11597
▁Russia	-11598
▁elimin	-11599
▁weißen	-11600
▁willst	-11601
▁ökolog	-11602
Publikum	-11603
ktivität	-11604
▁cooking	-11605
▁herausf	-11606
▁Bevölker	-11607
▁antibiot	-11608
▁constant	-11609
▁gefallen	-11610
▁occurred	-11611
schmutzung	-11612
▁Billionen	-11613
▁Literatur	-11614
▁embarrass	-11615
▁gebraucht	-11616
▁kostenlos	-11617
▁protected	-11618
▁conclusion	-11619
▁automatisch	-11620
▁conservation	-11621
▁afrikanischen	-11622
▁Gemeinschaften	-11623
Mus	-11624
opy	-11625
▁sä	-11626
Erst	-11627
bage	-11628
ello	-11629
illy	-11630
▁Jim	-11631
▁Mio	-11632
▁Wil	-11633
▁ere	-11634
▁hem	-11635
esome	-11636
ismen	-11637
jamin	-11638
wagen	-11639
▁Bege	-11640
▁Mama	-11641
▁Norm	-11642
▁Such	-11643
▁Weis	-11644
▁trig	-11645
hängen	-11646
kelett	-11647
opping	-11648
quelle	-11649
▁Chaos	-11650
▁House	-11651
▁Kabel	-11652
▁Wagen	-11653
▁Zweif	-11654
▁anget	-11655
▁pharm	-11656
▁roads	-11657
▁verhe	-11658
ishment	-11659
▁Alters	-11660
▁Anwend	-11661
▁Grippe	-11662
▁Mittag	-11663
▁acting	-11664
▁anhand	-11665
▁assist	-11666
▁golden	-11667
▁laptop	-11668
▁neuron	-11669
▁rocket	-11670
▁Absicht	-11671
▁Annahme	-11672
▁Chancen	-11673
▁attacks	-11674
▁bekomme	-11675
▁diction	-11676
▁discipl	-11677
▁falling	-11678
▁kreativ	-11679
probieren	-11680
▁Webseite	-11681
▁concrete	-11682
▁dramatic	-11683
▁geholfen	-11684
▁hinunter	-11685
▁threaten	-11686
▁Elefanten	-11687
▁Kontinent	-11688
▁algorithm	-11689
▁beobachte	-11690
▁centuries	-11691
▁darstellt	-11692
▁narrative	-11693
▁processing	-11694
▁dargestellt	-11695
▁grundsätzlich	-11696
Pr	-11697
Wür	-11698
urr	-11699
▁3,	-11700
ania	-11701
irat	-11702
ocal	-11703
tein	-11704
utze	-11705
älde	-11706
▁anx	-11707
▁toy	-11708
achel	-11709
obile	-11710
opard	-11711
orous	-11712
zepte	-11713
änner	-11714
▁Ganz	-11715
▁Jose	-11716
▁Leon	-11717
▁hind	-11718
▁zoom	-11719
Thanks	-11720
bücher	-11721
profit	-11722
schiff	-11723
▁Folie	-11724
▁charm	-11725
▁films	-11726
▁inten	-11727
▁renew	-11728
▁staat	-11729
▁wofür	-11730
Perhaps	-11731
ategien	-11732
▁Howard	-11733
▁Löcher	-11734
▁erhöht	-11735
▁fingen	-11736
▁patent	-11737
cription	-11738
ffizienz	-11739
vermögen	-11740
▁besorgt	-11741
▁dauerte	-11742
▁equally	-11743
▁figures	-11744
▁therapy	-11745
▁visible	-11746
▁bemerkte	-11747
▁overwhel	-11748
▁proteins	-11749
▁swimming	-11750
▁Geräusche	-11751
▁berichten	-11752
▁zufrieden	-11753
▁beibringen	-11754
▁controlled	-11755
▁weltweiten	-11756
▁durchführen	-11757
▁potentially	-11758
▁Unterhaltung	-11759
▁Vorstellungen	-11760
--	-11761
10	-11762
SW	-11763
Yet	-11764
ima	-11765
irk	-11766
ixt	-11767
▁ok	-11768
avel	-11769
burg	-11770
gefü	-11771
rise	-11772
▁Dep	-11773
▁Lib	-11774
▁Okt	-11775
▁spo	-11776
Dabei	-11777
Seine	-11778
While	-11779
▁Balk	-11780
▁Play	-11781
▁cast	-11782
▁lens	-11783
▁sets	-11784
Damals	-11785
karten	-11786
▁Rhyth	-11787
▁Samen	-11788
▁blaue	-11789
▁frank	-11790
▁sowas	-11791
▁umher	-11792
rechend	-11793
systems	-11794
▁Unfall	-11795
▁achten	-11796
▁button	-11797
▁critic	-11798
▁landen	-11799
▁merken	-11800
▁tempor	-11801
▁trafen	-11802
▁wander	-11803
chnungen	-11804
ologists	-11805
▁Molekül	-11806
▁burning	-11807
▁starben	-11808
▁suppose	-11809
▁zweimal	-11810
▁Resultat	-11811
▁Teenager	-11812
▁presence	-11813
▁somewhat	-11814
▁tracking	-11815
oberfläche	-11816
▁Allgemein	-11817
▁Potenzial	-11818
▁Wachstums	-11819
▁erwachsen	-11820
▁vertrauen	-11821
▁Gedächtnis	-11822
▁confidence	-11823
▁percentage	-11824
▁Konsequenzen	-11825
▁Präsentation	-11826
Ad	-11827
je	-11828
Car	-11829
ema	-11830
pth	-11831
▁PC	-11832
cers	-11833
ihad	-11834
isph	-11835
▁Moo	-11836
▁mur	-11837
Three	-11838
behör	-11839
burgh	-11840
menge	-11841
telef	-11842
▁2009	-11843
▁Eier	-11844
▁horm	-11845
▁pill	-11846
▁silk	-11847
Please	-11848
eitern	-11849
gebiet	-11850
iertes	-11851
iosity	-11852
punkte	-11853
▁Jesus	-11854
▁Prize	-11855
▁River	-11856
▁Spann	-11857
▁clock	-11858
▁globe	-11859
▁kaput	-11860
▁upper	-11861
chester	-11862
sterben	-11863
ultural	-11864
▁boring	-11865
▁freien	-11866
▁reisen	-11867
▁Nutzung	-11868
▁einiges	-11869
▁offenen	-11870
▁Anführer	-11871
▁Physiker	-11872
▁creature	-11873
▁perfekte	-11874
▁springen	-11875
▁Ernährung	-11876
▁Spielzeug	-11877
▁bemerkens	-11878
▁permanent	-11879
▁schwarzen	-11880
unternehmen	-11881
▁moralische	-11882
▁voneinander	-11883
▁irgendjemand	-11884
▁presentation	-11885
▁unterrichten	-11886
▁verschwunden	-11887
▁conversations	-11888
▁psychological	-11889
▁veröffentlich	-11890
RB	-11891
add	-11892
brü	-11893
het	-11894
itu	-11895
osn	-11896
yan	-11897
üse	-11898
▁Ky	-11899
nehm	-11900
▁Amy	-11901
▁Hon	-11902
Sogar	-11903
retch	-11904
unate	-11905
veled	-11906
▁Snow	-11907
▁club	-11908
▁gewö	-11909
▁icon	-11910
▁kalt	-11911
▁pump	-11912
▁subs	-11913
ansion	-11914
▁Bronx	-11915
▁Fokus	-11916
▁Jones	-11917
▁Meine	-11918
▁Noten	-11919
▁Offen	-11920
▁Where	-11921
▁adopt	-11922
▁cents	-11923
▁enden	-11924
▁rooms	-11925
▁städt	-11926
identen	-11927
▁Budget	-11928
▁Dieses	-11929
▁Studio	-11930
▁Thanks	-11931
▁autism	-11932
▁forder	-11933
▁hinauf	-11934
▁marine	-11935
▁Aussage	-11936
▁beenden	-11937
▁closely	-11938
▁defined	-11939
▁drücken	-11940
▁options	-11941
▁stoppen	-11942
▁trinken	-11943
▁unknown	-11944
▁verlang	-11945
▁Ereignis	-11946
▁Erlebnis	-11947
▁subjects	-11948
▁umfassen	-11949
▁verstand	-11950
▁Angestell	-11951
▁Aufnahmen	-11952
▁Marketing	-11953
▁Schicksal	-11954
▁betreiben	-11955
▁providing	-11956
▁Darstellung	-11957
▁explanation	-11958
▁transformed	-11959
▁implications	-11960
▁beispielsweise	-11961
ava	-11962
zne	-11963
▁li	-11964
etra	-11965
keys	-11966
zykl	-11967
▁Sup	-11968
Women	-11969
gence	-11970
iture	-11971
point	-11972
▁2006	-11973
▁Flie	-11974
▁Vari	-11975
▁Vent	-11976
▁Walk	-11977
▁diam	-11978
▁fake	-11979
▁frem	-11980
▁furn	-11981
▁grad	-11982
▁load	-11983
▁plot	-11984
osphor	-11985
rücken	-11986
▁Eisen	-11987
▁Human	-11988
▁Magie	-11989
▁Ohren	-11990
▁chose	-11991
▁depth	-11992
▁fehlt	-11993
▁ridic	-11994
▁songs	-11995
▁teilt	-11996
▁trend	-11997
▁voran	-11998
▁whist	-11999
artigen	-12000
inction	-12001
▁Besuch	-12002
▁Kanada	-12003
▁Steven	-12004
▁europä	-12005
▁filter	-12006
▁flower	-12007
▁monkey	-12008
▁writer	-12009
aneously	-12010
leistung	-12011
▁Musiker	-12012
▁comment	-12013
▁decline	-12014
▁designs	-12015
▁outcome	-12016
▁quarter	-12017
▁treiben	-12018
▁unteren	-12019
▁Argument	-12020
▁Russland	-12021
▁abstract	-12022
▁accurate	-12023
▁director	-12024
▁election	-12025
▁existing	-12026
▁genügend	-12027
▁physikal	-12028
▁Computern	-12029
▁Programme	-12030
▁Zuschauer	-12031
▁enthalten	-12032
▁versteckt	-12033
Stattdessen	-12034
▁Ereignisse	-12035
▁electronic	-12036
▁speziellen	-12037
▁surrounded	-12038
▁transplant	-12039
▁Ausstellung	-12040
▁appropriate	-12041
▁biologische	-12042
▁circumstances	-12043
▁Nachhaltigkeit	-12044
40	-12045
oz	-12046
obi	-12047
adic	-12048
gren	-12049
gten	-12050
▁Bol	-12051
▁Jun	-12052
▁odd	-12053
barer	-12054
imine	-12055
preis	-12056
▁2050	-12057
▁Beij	-12058
▁Jane	-12059
▁Krit	-12060
▁bell	-12061
▁hack	-12062
▁hook	-12063
▁tack	-12064
Danach	-12065
asters	-12066
dienst	-12067
phones	-12068
ranche	-12069
▁Roman	-12070
▁Space	-12071
▁angem	-12072
▁bedro	-12073
▁brill	-12074
▁error	-12075
▁plans	-12076
▁platz	-12077
▁split	-12078
▁wisst	-12079
▁woher	-12080
ahnsinn	-12081
▁Kindes	-12082
▁Lachen	-12083
▁Strand	-12084
▁deaths	-12085
▁grosse	-12086
▁grünen	-12087
▁handle	-12088
▁heaven	-12089
▁hörten	-12090
▁orange	-12091
▁stayed	-12092
▁suchte	-12093
▁tested	-12094
▁wirken	-12095
▁Debatte	-12096
▁Verwand	-12097
▁Vorhers	-12098
▁breathe	-12099
▁circuit	-12100
▁clothes	-12101
▁erkannt	-12102
▁glamour	-12103
▁hielten	-12104
▁housing	-12105
▁overall	-12106
▁remains	-12107
▁reverse	-12108
▁tonight	-12109
▁Freiwill	-12110
▁Geschenk	-12111
▁Kampagne	-12112
▁Regionen	-12113
▁begegnen	-12114
▁infected	-12115
▁reagiert	-12116
▁schreibt	-12117
▁transfer	-12118
▁verdient	-12119
▁villages	-12120
▁wertvoll	-12121
▁wireless	-12122
▁authority	-12123
▁bekämpfen	-12124
▁betroffen	-12125
▁einfaches	-12126
▁explained	-12127
▁operation	-12128
▁sensitive	-12129
▁productive	-12130
▁sogenannte	-12131
▁applications	-12132
▁organisieren	-12133
▁bemerkenswert	-12134
KB	-12135
ga	-12136
Wel	-12137
erd	-12138
zut	-12139
coln	-12140
holz	-12141
icit	-12142
ooth	-12143
rand	-12144
uben	-12145
vely	-12146
öten	-12147
▁Abl	-12148
▁Cop	-12149
▁Ruf	-12150
▁Ter	-12151
▁kop	-12152
▁rie	-12153
Etwas	-12154
aktor	-12155
itors	-12156
ogram	-12157
olate	-12158
tritt	-12159
▁Gulf	-12160
▁Hans	-12161
▁cave	-12162
▁dens	-12163
▁ears	-12164
▁hers	-12165
▁impl	-12166
▁lebe	-12167
▁vere	-12168
Sobald	-12169
bungen	-12170
fangen	-12171
usions	-12172
▁Erfol	-12173
▁Feind	-12174
▁Initi	-12175
▁embed	-12176
sprache	-12177
systeme	-12178
▁Square	-12179
▁Status	-12180
▁Symmet	-12181
▁border	-12182
▁dunkel	-12183
▁extens	-12184
▁intent	-12185
▁involv	-12186
▁tiefer	-12187
tausende	-12188
zukommen	-12189
▁Meister	-12190
▁Schaden	-12191
▁beliebt	-12192
▁nannten	-12193
▁solange	-12194
▁Antibiot	-12195
▁contrast	-12196
▁measured	-12197
▁Alexander	-12198
▁determine	-12199
▁gebrochen	-12200
▁kreativen	-12201
▁langsamer	-12202
▁spiritual	-12203
▁technique	-12204
▁Frankreich	-12205
▁Geburtstag	-12206
▁ausgesetzt	-12207
▁capitalism	-12208
▁verglichen	-12209
wissenschaft	-12210
▁exploration	-12211
▁entrepreneur	-12212
geschwindigkeit	-12213
tä	-12214
ato	-12215
rid	-12216
Ganz	-12217
ault	-12218
iser	-12219
izza	-12220
ouds	-12221
rets	-12222
▁Dör	-12223
▁Ram	-12224
ahara	-12225
iking	-12226
ormen	-12227
unruh	-12228
vable	-12229
üpfen	-12230
▁Beit	-12231
▁Mike	-12232
▁Sant	-12233
▁flew	-12234
▁gras	-12235
▁imit	-12236
▁thin	-12237
ervice	-12238
sunami	-12239
ätzung	-12240
ördert	-12241
▁Armee	-12242
▁Humor	-12243
▁Räume	-12244
▁Saudi	-12245
▁Viele	-12246
▁beige	-12247
▁memor	-12248
▁stere	-12249
▁uncom	-12250
▁weigh	-12251
▁weiße	-12252
bewusst	-12253
schicht	-12254
▁Bundes	-12255
▁Handys	-12256
▁Mangel	-12257
▁assume	-12258
▁gelang	-12259
▁heilen	-12260
▁limits	-12261
▁papers	-12262
▁suffer	-12263
▁whales	-12264
▁worauf	-12265
Deswegen	-12266
icherung	-12267
▁Krieges	-12268
▁combine	-12269
▁fiction	-12270
▁frequen	-12271
▁mosquit	-12272
▁mystery	-12273
▁neugier	-12274
▁nowhere	-12275
▁sensors	-12276
▁tatsäch	-12277
▁Männchen	-12278
▁Weisheit	-12279
▁administ	-12280
▁horrible	-12281
▁symptoms	-12282
▁untersch	-12283
▁betrieben	-12284
▁derselben	-12285
▁reduziert	-12286
legenheiten	-12287
▁Jahrzehnte	-12288
▁Restaurant	-12289
▁Unterricht	-12290
▁antwortete	-12291
▁appreciate	-12292
▁behavioral	-12293
▁Inspiration	-12294
▁Sonnenlicht	-12295
▁Wirtschafts	-12296
▁grundlegend	-12297
El	-12298
Ze	-12299
gu	-12300
öd	-12301
Dem	-12302
yon	-12303
▁Ah	-12304
Paul	-12305
alys	-12306
cean	-12307
ihen	-12308
pern	-12309
umer	-12310
▁Jac	-12311
▁dok	-12312
brech	-12313
lager	-12314
okuss	-12315
think	-12316
▁Blue	-12317
▁Chef	-12318
▁Grün	-12319
▁Prop	-12320
▁Voll	-12321
▁bike	-12322
▁busy	-12323
▁elev	-12324
▁grat	-12325
▁item	-12326
▁loud	-12327
▁melt	-12328
▁milk	-12329
▁suic	-12330
▁wash	-12331
anghai	-12332
astern	-12333
innern	-12334
istics	-12335
linien	-12336
▁Clint	-12337
▁angry	-12338
▁bones	-12339
▁curve	-12340
▁datab	-12341
▁plate	-12342
▁proto	-12343
▁resil	-12344
▁skept	-12345
▁taste	-12346
etische	-12347
plicity	-12348
rüstung	-12349
▁Aktion	-12350
▁Eigent	-12351
▁Märkte	-12352
▁Newton	-12353
▁ausger	-12354
▁genius	-12355
▁joined	-12356
▁nachts	-12357
▁puzzle	-12358
▁schock	-12359
▁script	-12360
▁Gemälde	-12361
▁Gericht	-12362
▁Quellen	-12363
▁Verkauf	-12364
▁doppelt	-12365
▁embrace	-12366
▁robotic	-12367
▁samples	-12368
▁Benjamin	-12369
▁bewirken	-12370
▁collapse	-12371
▁dokument	-12372
▁basierend	-12373
▁beteiligt	-12374
▁ernsthaft	-12375
▁teilweise	-12376
▁zunehmend	-12377
▁Entfernung	-12378
▁architects	-12379
▁economists	-12380
▁laboratory	-12381
▁challenging	-12382
▁nachgedacht	-12383
▁kontrolliert	-12384
jo	-12385
irl	-12386
kul	-12387
las	-12388
pat	-12389
sie	-12390
▁DV	-12391
▁ew	-12392
Only	-12393
iene	-12394
park	-12395
rist	-12396
ziel	-12397
älle	-12398
▁Box	-12399
▁Son	-12400
▁cha	-12401
eseit	-12402
▁Abra	-12403
▁Ford	-12404
▁mush	-12405
Global	-12406
iguren	-12407
onnect	-12408
sphäre	-12409
▁Brian	-12410
▁Cyber	-12411
▁Liber	-12412
▁Power	-12413
▁angel	-12414
▁logic	-12415
▁lying	-12416
▁stärk	-12417
▁walks	-12418
▁wirkt	-12419
ruments	-12420
uilding	-12421
▁Abfall	-12422
▁deploy	-12423
▁erneut	-12424
▁höhere	-12425
▁linked	-12426
▁relate	-12427
▁remove	-12428
▁überqu	-12429
ieinhalb	-12430
onnected	-12431
▁Schicht	-12432
▁evening	-12433
▁gründen	-12434
▁mittels	-12435
▁recover	-12436
▁weshalb	-12437
▁Krankenh	-12438
▁allowing	-12439
▁wherever	-12440
▁statement	-12441
▁storytell	-12442
▁Regierungs	-12443
▁Wettbewerb	-12444
▁mechanical	-12445
▁instruments	-12446
▁vergangenen	-12447
▁Bevölkerungs	-12448
OL	-12449
2."	-12450
ado	-12451
gly	-12452
kor	-12453
▁29	-12454
▁ah	-12455
▁wa	-12456
erie	-12457
förm	-12458
jahr	-12459
ming	-12460
rait	-12461
zten	-12462
züge	-12463
ärme	-12464
▁"20	-12465
▁Kra	-12466
▁Mig	-12467
▁Sus	-12468
▁ack	-12469
▁aim	-12470
fällt	-12471
läuft	-12472
orter	-12473
rated	-12474
weich	-12475
▁Drei	-12476
▁Kart	-12477
▁Lego	-12478
▁Schm	-12479
▁Song	-12480
▁Witz	-12481
▁acts	-12482
▁cord	-12483
▁nose	-12484
▁pool	-12485
▁root	-12486
Jemand	-12487
bilder	-12488
leiten	-12489
onders	-12490
▁Flüss	-12491
▁Story	-12492
▁Tiefe	-12493
▁appar	-12494
▁diver	-12495
▁faced	-12496
▁hotel	-12497
▁sight	-12498
reibung	-12499
▁Detail	-12500
▁Flügel	-12501
▁Stücke	-12502
▁latest	-12503
▁pollen	-12504
▁unterr	-12505
▁volume	-12506
▁100.000	-12507
▁Aspekte	-12508
▁Indones	-12509
▁Kameras	-12510
▁Mandela	-12511
▁Silicon	-12512
▁Spezial	-12513
▁aufgere	-12514
▁bestand	-12515
▁dancing	-12516
▁fingers	-12517
▁flowers	-12518
▁poorest	-12519
scheinend	-12520
▁Versuche	-12521
▁anschaut	-12522
▁besessen	-12523
▁engaging	-12524
▁paradigm	-12525
▁provided	-12526
▁unmittel	-12527
▁Christmas	-12528
▁bezüglich	-12529
▁disorders	-12530
▁footprint	-12531
▁gentlemen	-12532
▁standards	-12533
▁versorgen	-12534
▁Sichtweise	-12535
▁bezeichnet	-12536
▁irgendeine	-12537
▁Erwartungen	-12538
▁educational	-12539
▁Entdeckungen	-12540
▁insbesondere	-12541
▁Überraschung	-12542
wissenschaften	-12543
▁Klassenzimmer	-12544
▁veröffentlichen	-12545
öch	-12546
▁55	-12547
agte	-12548
allo	-12549
gelt	-12550
hour	-12551
ione	-12552
lass	-12553
oned	-12554
ämme	-12555
ätte	-12556
▁Sec	-12557
▁Tum	-12558
▁god	-12559
force	-12560
hängt	-12561
night	-12562
stage	-12563
stuhl	-12564
▁Klav	-12565
▁lets	-12566
▁obst	-12567
▁pink	-12568
heorie	-12569
jected	-12570
rucken	-12571
▁Parad	-12572
▁Scott	-12573
▁knapp	-12574
▁plays	-12575
▁stone	-12576
▁vital	-12577
▁Golden	-12578
▁Presse	-12579
▁Willen	-12580
▁corals	-12581
▁gigant	-12582
▁sensor	-12583
▁slides	-12584
▁spüren	-12585
▁William	-12586
▁beunruh	-12587
▁classes	-12588
▁corresp	-12589
▁ergeben	-12590
▁gekauft	-12591
▁metabol	-12592
▁musikal	-12593
▁respekt	-12594
▁verstär	-12595
iolumines	-12596
▁Brooklyn	-12597
▁Gebäuden	-12598
▁Zeitraum	-12599
▁floating	-12600
▁genießen	-12601
▁glaubten	-12602
▁mehreren	-12603
▁philosop	-12604
▁verblüff	-12605
▁verliert	-12606
▁wondered	-12607
▁Ingenieur	-12608
▁construct	-12609
▁economies	-12610
▁practices	-12611
▁Bibliothek	-12612
▁Erwachsene	-12613
▁Zerstörung	-12614
▁wenigstens	-12615
▁Dimensionen	-12616
▁application	-12617
Unfortunately	-12618
EM	-12619
cus	-12620
mot	-12621
▁Ep	-12622
AIDS	-12623
Groß	-12624
Soll	-12625
anzt	-12626
frau	-12627
greg	-12628
ifiz	-12629
ippe	-12630
iums	-12631
nütz	-12632
pers	-12633
▁Bre	-12634
▁Jud	-12635
▁Nur	-12636
▁Ära	-12637
agnet	-12638
aktiv	-12639
atson	-12640
comes	-12641
ipfel	-12642
kular	-12643
ynman	-12644
▁Hard	-12645
▁army	-12646
▁barr	-12647
▁loop	-12648
ereien	-12649
werken	-12650
▁Kateg	-12651
▁angen	-12652
▁boxes	-12653
▁fixed	-12654
▁rocks	-12655
▁thick	-12656
esented	-12657
ichtete	-12658
illance	-12659
schauen	-12660
▁Fläche	-12661
▁Schalt	-12662
▁dienen	-12663
▁extent	-12664
▁height	-12665
▁lebens	-12666
▁lehren	-12667
▁secure	-12668
▁severe	-12669
▁traged	-12670
▁unlike	-12671
handlung	-12672
ücksicht	-12673
▁Lincoln	-12674
▁causing	-12675
▁feeding	-12676
▁funding	-12677
▁library	-12678
▁pushing	-12679
▁solving	-12680
Basically	-12681
zuschauen	-12682
▁Schlacht	-12683
▁lebenden	-12684
▁lebendig	-12685
▁momentan	-12686
▁folgenden	-12687
▁folgendes	-12688
▁umzugehen	-12689
krankheiten	-12690
▁consistent	-12691
▁eingeladen	-12692
▁schwierige	-12693
▁Algorithmen	-12694
▁Instrumente	-12695
▁Psychologie	-12696
▁Verbreitung	-12697
▁verursachen	-12698
▁wunderbaren	-12699
▁ursprünglich	-12700
▁grundlegenden	-12701
eda	-12702
rok	-12703
sex	-12704
wis	-12705
ölk	-12706
▁zü	-12707
derm	-12708
▁Mer	-12709
▁Mur	-12710
▁Syn	-12711
▁aer	-12712
▁anb	-12713
acing	-12714
agger	-12715
attoo	-12716
esity	-12717
ignet	-12718
opath	-12719
ündet	-12720
▁Fert	-12721
▁Hong	-12722
▁Male	-12723
▁Robo	-12724
▁Zust	-12725
▁bene	-12726
▁gran	-12727
▁hilf	-12728
▁kons	-12729
▁nest	-12730
▁tent	-12731
▁trug	-12732
Gleich	-12733
iology	-12734
▁Party	-12735
▁dozen	-12736
▁dress	-12737
▁pitch	-12738
▁prize	-12739
▁veran	-12740
▁whale	-12741
mittelt	-12742
wartung	-12743
örtlich	-12744
▁Dieser	-12745
▁Hypoth	-12746
▁People	-12747
▁Schach	-12748
▁absorb	-12749
▁clouds	-12750
▁hängen	-12751
▁owners	-12752
▁spinal	-12753
bekommen	-12754
ubringen	-12755
▁Schwarz	-12756
▁careful	-12757
▁diverse	-12758
▁elegant	-12759
▁fluores	-12760
▁gezogen	-12761
▁harvest	-12762
▁letzter	-12763
▁parking	-12764
▁surgeon	-12765
▁vaccine	-12766
▁violent	-12767
▁younger	-12768
arbeitung	-12769
▁Kleidung	-12770
▁Proteine	-12771
▁Zwischen	-12772
▁infinite	-12773
▁policies	-12774
▁schauten	-12775
▁breathing	-12776
▁identical	-12777
▁intellekt	-12778
▁inequality	-12779
▁wahrnehmen	-12780
gesellschaft	-12781
▁entscheidend	-12782
▁hinterlassen	-12783
▁interactions	-12784
Up	-12785
fäh	-12786
mma	-12787
uno	-12788
aken	-12789
otes	-12790
roit	-12791
ucks	-12792
walk	-12793
▁Ann	-12794
▁Cra	-12795
▁Nat	-12796
hagen	-12797
insel	-12798
istet	-12799
lings	-12800
▁Akte	-12801
▁Josh	-12802
▁Mosk	-12803
▁News	-12804
▁dign	-12805
▁hieß	-12806
▁reco	-12807
▁zuzu	-12808
uchtet	-12809
winkel	-12810
▁Decke	-12811
▁Latin	-12812
▁alltä	-12813
▁grain	-12814
▁grüne	-12815
▁woran	-12816
artment	-12817
rittens	-12818
sondern	-12819
▁Futter	-12820
▁angeht	-12821
▁deiner	-12822
▁interc	-12823
▁nervös	-12824
▁offers	-12825
▁repair	-12826
▁spider	-12827
▁survey	-12828
funktion	-12829
▁Muslims	-12830
▁Zweifel	-12831
▁classic	-12832
▁earthqu	-12833
▁frankly	-12834
▁zurecht	-12835
▁asteroid	-12836
▁drinking	-12837
▁erfassen	-12838
▁gerettet	-12839
▁gewisser	-12840
▁obsessed	-12841
▁occasion	-12842
▁psychiat	-12843
▁studiert	-12844
▁synchron	-12845
▁wechseln	-12846
▁Christian	-12847
▁definiert	-12848
▁measuring	-12849
▁reference	-12850
▁selection	-12851
▁unterwegs	-12852
▁hinzufügen	-12853
▁Herstellung	-12854
▁interactive	-12855
MT	-12856
gro	-12857
▁2:	-12858
▁9/	-12859
urer	-12860
▁Eff	-12861
▁Ehr	-12862
▁Hey	-12863
▁Sud	-12864
▁pin	-12865
▁une	-12866
ipher	-12867
▁Ehem	-12868
▁Look	-12869
▁Rout	-12870
▁chip	-12871
▁choc	-12872
▁phil	-12873
decken	-12874
ichtum	-12875
ilemma	-12876
onomie	-12877
▁Arzne	-12878
▁Dynam	-12879
▁McDon	-12880
▁Optim	-12881
▁flood	-12882
▁teams	-12883
fliegen	-12884
nerhalb	-12885
▁Chirur	-12886
▁Leiter	-12887
▁Metall	-12888
▁agreed	-12889
▁orient	-12890
▁robust	-12891
▁stands	-12892
▁struck	-12893
abilität	-12894
ervative	-12895
▁Beijing	-12896
▁Designs	-12897
▁anticip	-12898
▁command	-12899
▁diagram	-12900
▁mammals	-12901
▁monkeys	-12902
▁windows	-12903
▁Carolina	-12904
▁Faktoren	-12905
▁Shanghai	-12906
▁equation	-12907
▁illusion	-12908
▁instruct	-12909
ussendlich	-12910
▁Computers	-12911
▁Denkweise	-12912
▁aufgeregt	-12913
▁bedeutete	-12914
▁begreifen	-12915
▁celebrate	-12916
▁consumers	-12917
▁continued	-12918
▁increases	-12919
▁niemanden	-12920
technologie	-12921
zeichnungen	-12922
▁Reaktionen	-12923
▁journalist	-12924
▁philosophy	-12925
▁unsichtbar	-12926
▁elektrische	-12927
▁inspirieren	-12928
▁recognition	-12929
▁vorbereitet	-12930
▁wiederholen	-12931
eds	-12932
sst	-12933
zig	-12934
zum	-12935
▁Av	-12936
▁ow	-12937
kont	-12938
pfel	-12939
rein	-12940
▁20,	-12941
▁30-	-12942
▁Roy	-12943
▁mim	-12944
▁rum	-12945
Darum	-12946
ansas	-12947
rimin	-12948
vater	-12949
while	-12950
▁2020	-12951
▁seas	-12952
modell	-12953
▁1.000	-12954
▁Außer	-12955
▁Kurve	-12956
▁Teams	-12957
▁Toten	-12958
▁Würde	-12959
▁alarm	-12960
▁imper	-12961
▁mobil	-12962
▁phase	-12963
▁shell	-12964
▁sport	-12965
▁wovon	-12966
▁Faktor	-12967
▁Können	-12968
▁Schnee	-12969
▁Schuhe	-12970
▁ausser	-12971
▁column	-12972
▁garant	-12973
▁hunger	-12974
▁placed	-12975
▁rechte	-12976
aufnahme	-12977
▁Systems	-12978
▁carried	-12979
▁erwarte	-12980
▁existed	-12981
▁offered	-12982
▁Business	-12983
▁Erdbeben	-12984
▁distinct	-12985
▁domestic	-12986
▁grateful	-12987
▁organism	-12988
▁overcome	-12989
▁penguins	-12990
▁Projekten	-12991
▁Schmerzen	-12992
▁arguments	-12993
▁lifestyle	-12994
▁telephone	-12995
▁Richtungen	-12996
▁connecting	-12997
▁greenhouse	-12998
▁performing	-12999
▁Änderungen	-13000
▁cooperation	-13001
▁distributed	-13002
▁automatically	-13003
AA	-13004
ETI	-13005
obs	-13006
▁4,	-13007
▁lö	-13008
Vers	-13009
etti	-13010
etts	-13011
uity	-13012
ückt	-13013
üter	-13014
▁-",	-13015
▁20-	-13016
▁350	-13017
▁DVD	-13018
▁Moz	-13019
▁Off	-13020
▁ren	-13021
▁zit	-13022
gespr	-13023
ognit	-13024
onien	-13025
otter	-13026
rance	-13027
seher	-13028
▁2003	-13029
▁Bord	-13030
▁Dsch	-13031
▁Live	-13032
▁Ungl	-13033
▁Vors	-13034
▁boom	-13035
▁cand	-13036
▁dict	-13037
▁ours	-13038
▁plug	-13039
▁stol	-13040
System	-13041
fische	-13042
irgend	-13043
▁Angeb	-13044
▁Anruf	-13045
▁Asien	-13046
▁Autom	-13047
▁Henry	-13048
▁Wicht	-13049
▁bombs	-13050
▁mikro	-13051
▁polio	-13052
▁style	-13053
▁zählt	-13054
prozess	-13055
▁Ganzen	-13056
▁Gemüse	-13057
▁Hacker	-13058
▁Rezept	-13059
▁beherr	-13060
▁dauern	-13061
▁devast	-13062
▁mainly	-13063
▁murder	-13064
▁prepar	-13065
▁sphere	-13066
▁unwahr	-13067
▁Detroit	-13068
▁Verlauf	-13069
▁Verteid	-13070
▁obesity	-13071
▁raising	-13072
▁schmerz	-13073
operation	-13074
▁Dokument	-13075
▁Gegenden	-13076
▁Theorien	-13077
▁ausgeben	-13078
▁ernähren	-13079
▁outcomes	-13080
▁printing	-13081
▁transmit	-13082
▁zurückge	-13083
▁Geschäfte	-13084
▁component	-13085
▁recording	-13086
▁spreading	-13087
▁Mobiltelef	-13088
▁directions	-13089
▁eingeführt	-13090
▁investiert	-13091
▁resistance	-13092
ormalerweise	-13093
▁eigentliche	-13094
BA	-13095
CO	-13096
Gr	-13097
IS	-13098
100	-13099
Kom	-13100
bir	-13101
bum	-13102
eli	-13103
oca	-13104
▁id	-13105
afel	-13106
bern	-13107
klin	-13108
okol	-13109
real	-13110
rump	-13111
uste	-13112
▁BIP	-13113
▁Vie	-13114
▁twe	-13115
iolet	-13116
lesen	-13117
ortet	-13118
▁Knie	-13119
▁Vert	-13120
▁cash	-13121
▁desk	-13122
▁excl	-13123
▁jail	-13124
▁lung	-13125
▁mice	-13126
▁prem	-13127
▁seht	-13128
▁verz	-13129
▁zone	-13130
called	-13131
▁Meere	-13132
▁abuse	-13133
▁decre	-13134
▁dreid	-13135
▁fried	-13136
▁grows	-13137
▁paras	-13138
▁rufen	-13139
ektiven	-13140
station	-13141
▁Berlin	-13142
▁Nelson	-13143
▁Wahlen	-13144
▁deinem	-13145
▁fokuss	-13146
▁liebte	-13147
▁späten	-13148
▁toilet	-13149
▁zufäll	-13150
American	-13151
pendence	-13152
▁Ausgang	-13153
▁Erfolgs	-13154
▁Kapitel	-13155
▁borders	-13156
▁channel	-13157
▁constra	-13158
▁niedrig	-13159
▁starken	-13160
▁unbelie	-13161
▁Ägypten	-13162
Something	-13163
▁Chinesen	-13164
▁Problems	-13165
▁Schweden	-13166
▁Training	-13167
▁Ursprung	-13168
▁anhalten	-13169
▁anpassen	-13170
▁besuchte	-13171
▁wünschte	-13172
▁Bedrohung	-13173
▁Parkinson	-13174
▁Verbrauch	-13175
▁Weltkrieg	-13176
▁corporate	-13177
▁exploring	-13178
▁sculpture	-13179
▁Dunkelheit	-13180
▁Geographic	-13181
▁Teilnehmer	-13182
▁genetische	-13183
▁beigebracht	-13184
▁berücksicht	-13185
▁grandfather	-13186
▁populations	-13187
▁represented	-13188
▁dramatically	-13189
▁fantastische	-13190
▁surveillance	-13191
▁zurückkehren	-13192
▁Weltbevölkerung	-13193
ila	-13194
iße	-13195
mod	-13196
ärt	-13197
▁cm	-13198
Drei	-13199
Entw	-13200
ague	-13201
aint	-13202
anes	-13203
dach	-13204
gewe	-13205
imps	-13206
kord	-13207
lers	-13208
älte	-13209
▁sed	-13210
Immer	-13211
▁2004	-13212
▁Biom	-13213
▁Blau	-13214
▁Ment	-13215
▁Nick	-13216
▁Nähr	-13217
▁bold	-13218
▁scar	-13219
▁stun	-13220
auften	-13221
cisely	-13222
ederal	-13223
gnügen	-13224
wiesen	-13225
würdig	-13226
ündung	-13227
▁Chile	-13228
▁Congo	-13229
▁Rwand	-13230
▁enemy	-13231
▁harte	-13232
▁highl	-13233
▁persu	-13234
Richard	-13235
aughing	-13236
brochen	-13237
iveness	-13238
▁County	-13239
▁Flagge	-13240
▁Konsum	-13241
▁ausges	-13242
▁househ	-13243
▁proced	-13244
▁tanzen	-13245
▁vorhin	-13246
▁worker	-13247
stellten	-13248
▁Inneren	-13249
▁Taschen	-13250
▁angehen	-13251
▁awesome	-13252
▁besucht	-13253
▁collaps	-13254
▁extinct	-13255
▁receive	-13256
▁savings	-13257
▁stretch	-13258
▁traurig	-13259
▁November	-13260
▁Systemen	-13261
▁brothers	-13262
▁eingehen	-13263
▁elephant	-13264
▁gesunden	-13265
▁getrennt	-13266
▁hardware	-13267
▁particle	-13268
▁properly	-13269
▁romantic	-13270
▁treating	-13271
▁animation	-13272
▁paintings	-13273
▁presented	-13274
▁prototype	-13275
Technologie	-13276
▁Brustkrebs	-13277
▁Ingenieure	-13278
▁fascinated	-13279
▁kulturelle	-13280
▁ländlichen	-13281
▁Eigenschaft	-13282
▁Wasserstoff	-13283
▁antibiotics	-13284
▁moralischen	-13285
▁präsentiert	-13286
▁sogenannten	-13287
▁conventional	-13288
▁expectations	-13289
▁konfrontiert	-13290
▁verschiedener	-13291
▁Lebenserwartung	-13292
▁außergewöhnlich	-13293
99	-13294
Hi	-13295
hof	-13296
ype	-13297
▁31	-13298
Fast	-13299
Schl	-13300
amed	-13301
ampe	-13302
eral	-13303
ocke	-13304
onna	-13305
opes	-13306
yers	-13307
▁Dig	-13308
▁Uni	-13309
▁ast	-13310
▁cas	-13311
▁fan	-13312
▁raw	-13313
Bevor	-13314
aches	-13315
folgt	-13316
isses	-13317
legte	-13318
llung	-13319
ohlen	-13320
teils	-13321
using	-13322
▁Bern	-13323
▁Kohl	-13324
▁Verm	-13325
▁guar	-13326
▁poly	-13327
▁tube	-13328
arency	-13329
bringt	-13330
utzend	-13331
öntgen	-13332
▁Berge	-13333
▁Brand	-13334
▁Kongo	-13335
▁Misch	-13336
▁explo	-13337
▁scary	-13338
▁spark	-13339
▁stack	-13340
▁weißt	-13341
Anstatt	-13342
Finally	-13343
aktoren	-13344
gemacht	-13345
related	-13346
stehung	-13347
▁Kredit	-13348
▁Tasman	-13349
▁acknow	-13350
▁behave	-13351
▁candid	-13352
▁geheim	-13353
▁kaufte	-13354
▁konsum	-13355
▁machst	-13356
▁planen	-13357
▁plenty	-13358
▁prices	-13359
▁schlug	-13360
▁wütend	-13361
ineering	-13362
▁Analyse	-13363
▁Italien	-13364
▁Stephen	-13365
▁grossen	-13366
▁herself	-13367
▁license	-13368
▁liefert	-13369
▁neither	-13370
▁orchest	-13371
▁schlägt	-13372
▁vessels	-13373
▁Epidemie	-13374
▁Erfinder	-13375
▁berühren	-13376
▁involves	-13377
▁maintain	-13378
▁recommen	-13379
▁traveled	-13380
▁vielmehr	-13381
▁visuelle	-13382
▁Konflikte	-13383
▁anzusehen	-13384
▁conflicts	-13385
▁denselben	-13386
▁spezielle	-13387
▁uncertain	-13388
▁Funktionen	-13389
▁Verwendung	-13390
▁besonderen	-13391
▁vorsichtig	-13392
▁wundervoll	-13393
▁astonishing	-13394
▁technischen	-13395
▁leidenschaft	-13396
▁interessanten	-13397
zz	-13398
oen	-13399
rin	-13400
▁42	-13401
Mart	-13402
pril	-13403
quis	-13404
rome	-13405
sely	-13406
ubes	-13407
▁Cor	-13408
▁Tib	-13409
▁prü	-13410
▁tea	-13411
Lasst	-13412
angle	-13413
eters	-13414
grade	-13415
viele	-13416
▁Dame	-13417
▁Haar	-13418
▁June	-13419
▁läng	-13420
▁sexy	-13421
Kinder	-13422
gänger	-13423
lernen	-13424
örtern	-13425
▁Block	-13426
▁Buddh	-13427
▁Delhi	-13428
▁Immun	-13429
▁Zähne	-13430
▁atmen	-13431
▁honey	-13432
▁males	-13433
▁sales	-13434
osphere	-13435
▁Andrew	-13436
▁Schild	-13437
▁Schwer	-13438
▁Watson	-13439
▁clinic	-13440
▁fabric	-13441
▁immune	-13442
▁lebend	-13443
▁neigen	-13444
▁oberen	-13445
▁pandem	-13446
▁phrase	-13447
▁rising	-13448
▁spoken	-13449
anischen	-13450
computer	-13451
▁Anstieg	-13452
▁Islamic	-13453
▁Nations	-13454
▁dankbar	-13455
▁erneuer	-13456
▁geteilt	-13457
▁intense	-13458
▁painful	-13459
▁schwere	-13460
▁Research	-13461
▁Schulter	-13462
▁Symptome	-13463
▁concepts	-13464
▁erklärte	-13465
▁höchsten	-13466
▁kreative	-13467
▁seltsame	-13468
produktion	-13469
riedenheit	-13470
▁Afrikaner	-13471
▁Geschmack	-13472
▁beitragen	-13473
▁chemische	-13474
▁destroyed	-13475
▁emergency	-13476
▁precisely	-13477
▁primitive	-13478
▁weltweite	-13479
▁exhibition	-13480
▁controlling	-13481
▁entsprechen	-13482
▁genetischen	-13483
▁Privatsphäre	-13484
▁productivity	-13485
▁Investitionen	-13486
▁Nachbarschaft	-13487
HA	-13488
Spe	-13489
reu	-13490
▁0,	-13491
Come	-13492
Ohne	-13493
Wann	-13494
plik	-13495
plom	-13496
prim	-13497
utch	-13498
wass	-13499
▁Dad	-13500
▁Mir	-13501
▁Paz	-13502
▁irr	-13503
anzös	-13504
estet	-13505
ikale	-13506
meter	-13507
quent	-13508
ämpft	-13509
▁2001	-13510
▁Glet	-13511
▁Mamm	-13512
▁Matt	-13513
▁Ross	-13514
▁Shir	-13515
▁gray	-13516
▁naja	-13517
▁pour	-13518
▁scan	-13519
▁seek	-13520
anlage	-13521
cepted	-13522
stücke	-13523
yright	-13524
▁Kevin	-13525
▁Level	-13526
▁Moore	-13527
▁Proto	-13528
▁accum	-13529
▁femin	-13530
▁jenen	-13531
▁tries	-13532
▁usual	-13533
▁worum	-13534
▁Ethiop	-13535
▁Rechen	-13536
▁Reihen	-13537
▁Sprung	-13538
▁Sweden	-13539
▁escape	-13540
▁extend	-13541
▁fliegt	-13542
▁hearts	-13543
▁herein	-13544
▁narrow	-13545
▁rescue	-13546
▁soweit	-13547
Zunächst	-13548
äuschung	-13549
▁January	-13550
▁appears	-13551
▁bizarre	-13552
▁efforts	-13553
▁entered	-13554
▁französ	-13555
▁habitat	-13556
▁muscles	-13557
ianischen	-13558
▁Atlantic	-13559
▁Richtige	-13560
▁Weibchen	-13561
▁academic	-13562
▁befreien	-13563
▁breaking	-13564
▁diabetes	-13565
▁disorder	-13566
▁download	-13567
▁flexible	-13568
▁laughing	-13569
▁recovery	-13570
▁verfolgt	-13571
▁winzigen	-13572
ungssystem	-13573
▁Gespräche	-13574
▁Internets	-13575
▁Umständen	-13576
▁curiosity	-13577
▁furniture	-13578
▁gestartet	-13579
▁gezwungen	-13580
▁accessible	-13581
▁commitment	-13582
▁Antibiotika	-13583
▁personality	-13584
▁Kapitalismus	-13585
▁biologischen	-13586
RN	-13587
üd	-13588
App	-13589
Dad	-13590
Sim	-13591
mat	-13592
äck	-13593
änz	-13594
▁Wi	-13595
Kurz	-13596
Prof	-13597
phas	-13598
zero	-13599
▁IBM	-13600
▁Kuh	-13601
▁Lee	-13602
▁Nar	-13603
▁Rem	-13604
▁Ted	-13605
▁Wel	-13606
▁adm	-13607
▁hug	-13608
▁ärm	-13609
cence	-13610
fähig	-13611
ioxid	-13612
ralen	-13613
range	-13614
▁Base	-13615
▁Dist	-13616
▁Tony	-13617
▁brow	-13618
▁denk	-13619
▁diox	-13620
▁limb	-13621
▁prev	-13622
Before	-13623
Nichts	-13624
acular	-13625
ienste	-13626
melzen	-13627
ptions	-13628
ziplin	-13629
zählen	-13630
▁Griff	-13631
▁Katze	-13632
▁Scham	-13633
▁liver	-13634
▁schüt	-13635
▁tasks	-13636
▁title	-13637
▁unvor	-13638
▁utter	-13639
▁öfter	-13640
izabeth	-13641
▁Columb	-13642
▁Laufen	-13643
▁Niveau	-13644
▁Umgang	-13645
▁colony	-13646
▁einzuf	-13647
▁gewann	-13648
▁heroes	-13649
▁legisl	-13650
▁lovely	-13651
▁pocket	-13652
▁surely	-13653
▁winzig	-13654
▁Clinton	-13655
▁Klavier	-13656
▁Neugier	-13657
▁concert	-13658
▁divided	-13659
▁finance	-13660
▁stimmen	-13661
▁wieviel	-13662
▁Hinblick	-13663
▁appeared	-13664
▁attached	-13665
▁erfüllen	-13666
▁gelassen	-13667
▁gemessen	-13668
▁imagined	-13669
▁manifest	-13670
▁reaching	-13671
▁Überwach	-13672
▁Vorschlag	-13673
▁berechnen	-13674
▁customers	-13675
▁inspiring	-13676
▁translate	-13677
Schließlich	-13678
ischerweise	-13679
▁optimistic	-13680
▁Neuigkeiten	-13681
▁Terroristen	-13682
▁entertainment	-13683
▁Kommunikations	-13684
▁identifizieren	-13685
ela	-13686
lan	-13687
tät	-13688
zur	-13689
ürt	-13690
▁Et	-13691
▁Ku	-13692
▁Lu	-13693
abin	-13694
ackt	-13695
appt	-13696
brid	-13697
iday	-13698
onic	-13699
rins	-13700
yrus	-13701
ühen	-13702
▁Ast	-13703
▁Geh	-13704
▁His	-13705
▁Zum	-13706
▁lin	-13707
▁pip	-13708
▁woo	-13709
▁wär	-13710
acted	-13711
class	-13712
oiden	-13713
thiop	-13714
ätten	-13715
▁Anti	-13716
▁Hung	-13717
▁Nutz	-13718
▁Rick	-13719
▁Saal	-13720
▁appe	-13721
▁dumm	-13722
▁ehem	-13723
▁inkl	-13724
▁refr	-13725
▁tech	-13726
▁wing	-13727
auchen	-13728
gender	-13729
ikatur	-13730
lichem	-13731
messer	-13732
▁Enkel	-13733
▁Franz	-13734
▁orbit	-13735
▁ruhig	-13736
▁shake	-13737
▁smoke	-13738
▁units	-13739
century	-13740
gebiete	-13741
osphäre	-13742
problem	-13743
▁Aufbau	-13744
▁Metern	-13745
▁Shakes	-13746
▁agenda	-13747
▁kaputt	-13748
▁lächer	-13749
▁powers	-13750
▁repeat	-13751
▁schlau	-13752
▁thrown	-13753
Remember	-13754
romagnet	-13755
▁Bericht	-13756
▁Vorgang	-13757
▁brechen	-13758
▁density	-13759
▁dignity	-13760
▁dunklen	-13761
▁positiv	-13762
▁protest	-13763
ränkungen	-13764
▁Diabetes	-13765
▁Diagnose	-13766
▁Leonardo	-13767
▁leuchten	-13768
▁magnetic	-13769
▁shoulder	-13770
▁sinnvoll	-13771
▁vernünft	-13772
geschlagen	-13773
▁Verfahren	-13774
▁chocolate	-13775
▁committed	-13776
▁depending	-13777
▁mitnehmen	-13778
▁dazwischen	-13779
▁department	-13780
▁regelmäßig	-13781
▁Alternative	-13782
▁Katastrophe	-13783
▁chinesische	-13784
▁interacting	-13785
▁organisiert	-13786
▁Mathematiker	-13787
HC	-13788
aze	-13789
kra	-13790
▁37	-13791
▁Gi	-13792
Dank	-13793
amie	-13794
▁Seh	-13795
▁ate	-13796
▁bon	-13797
▁enh	-13798
aders	-13799
aumen	-13800
gehör	-13801
iente	-13802
oppel	-13803
peare	-13804
riebs	-13805
usted	-13806
▁disg	-13807
▁gefl	-13808
▁rush	-13809
▁till	-13810
▁ugly	-13811
Frauen	-13812
folgen	-13813
iratet	-13814
ktoren	-13815
uition	-13816
▁Bibel	-13817
▁Erste	-13818
▁Smart	-13819
▁Sorge	-13820
▁Szene	-13821
▁Tauch	-13822
▁bewir	-13823
▁hoher	-13824
▁korre	-13825
▁könne	-13826
▁pyram	-13827
▁resol	-13828
▁therm	-13829
▁yield	-13830
▁youth	-13831
quently	-13832
uchtung	-13833
▁Gandhi	-13834
▁Januar	-13835
▁Marken	-13836
▁Widers	-13837
▁divide	-13838
▁eradic	-13839
▁linear	-13840
▁stirbt	-13841
▁verlor	-13842
▁wenden	-13843
gelassen	-13844
▁Protein	-13845
▁Treffen	-13846
▁aspects	-13847
▁ceiling	-13848
▁cheaper	-13849
▁dioxide	-13850
▁gesetzt	-13851
▁höheren	-13852
▁militär	-13853
▁monitor	-13854
▁whereas	-13855
▁Autismus	-13856
▁Fahrzeug	-13857
▁achieved	-13858
▁dominant	-13859
▁embedded	-13860
▁gründete	-13861
▁hierarch	-13862
▁hindurch	-13863
▁riesiges	-13864
▁sandwich	-13865
▁Fundament	-13866
▁Plattform	-13867
▁Vergnügen	-13868
▁ausmachen	-13869
▁gesammelt	-13870
▁virtually	-13871
▁Geschäftsm	-13872
▁Mitglieder	-13873
▁angemessen	-13874
▁reparieren	-13875
▁volunteers	-13876
▁Einfachheit	-13877
▁glücklicher	-13878
▁wunderschöne	-13879
▁Einrichtungen	-13880
▁Gleichgewicht	-13881
bi	-13882
▁/	-13883
Cor	-13884
lor	-13885
via	-13886
äut	-13887
▁är	-13888
Gibt	-13889
Part	-13890
bart	-13891
eins	-13892
erey	-13893
lies	-13894
ockt	-13895
that	-13896
▁CEO	-13897
▁Lux	-13898
▁Sea	-13899
▁tip	-13900
▁wem	-13901
▁Ähn	-13902
iller	-13903
riffe	-13904
▁Euch	-13905
▁Kond	-13906
▁Pole	-13907
▁Stir	-13908
▁Wolf	-13909
▁ausb	-13910
▁axis	-13911
▁cute	-13912
▁flip	-13913
▁glac	-13914
▁warf	-13915
Wieder	-13916
edback	-13917
klasse	-13918
kultur	-13919
wählen	-13920
▁Beton	-13921
▁Gebur	-13922
▁Hawai	-13923
▁Knopf	-13924
▁Küche	-13925
▁Polio	-13926
▁Stone	-13927
▁Subst	-13928
▁aband	-13929
▁advoc	-13930
▁alien	-13931
▁brach	-13932
▁dense	-13933
▁expos	-13934
▁schol	-13935
▁sheep	-13936
▁verur	-13937
gencies	-13938
▁50,000	-13939
▁Großen	-13940
▁Teufel	-13941
▁Wright	-13942
▁bildet	-13943
▁conven	-13944
▁hassen	-13945
▁ignore	-13946
▁kommer	-13947
Interess	-13948
▁Feynman	-13949
▁Skelett	-13950
▁bicycle	-13951
▁distant	-13952
▁erinner	-13953
▁footage	-13954
▁reflekt	-13955
▁section	-13956
▁Ausnahme	-13957
▁Behinder	-13958
▁Hunderte	-13959
▁Prozesse	-13960
▁anstelle	-13961
▁guarante	-13962
▁heiraten	-13963
▁reported	-13964
▁shooting	-13965
▁veränder	-13966
▁Belohnung	-13967
▁Schreiben	-13968
▁apartment	-13969
▁colleague	-13970
▁insurance	-13971
▁physische	-13972
▁Strategien	-13973
▁incentives	-13974
▁langweilig	-13975
▁recognized	-13976
▁Komponenten	-13977
▁Präsidenten	-13978
▁analysieren	-13979
▁zurückgehen	-13980
▁photographer	-13981
▁neighborhoods	-13982
New	-13983
Par	-13984
hew	-13985
top	-13986
ahar	-13987
arry	-13988
beln	-13989
orry	-13990
ppen	-13991
▁Bef	-13992
▁Kos	-13993
▁Rel	-13994
About	-13995
Hallo	-13996
Letzt	-13997
ading	-13998
athon	-13999
fined	-14000
oenix	-14001
ronen	-14002
ruppe	-14003
ürzen	-14004
▁1900	-14005
▁Brut	-14006
▁Gute	-14007
▁SETI	-14008
▁Term	-14009
▁cens	-14010
▁fulf	-14011
▁lieb	-14012
▁shar	-14013
▁sink	-14014
▁spin	-14015
▁toys	-14016
▁triv	-14017
ailand	-14018
ighted	-14019
▁Arist	-14020
▁Front	-14021
▁Trend	-14022
▁brown	-14023
▁chest	-14024
▁einzu	-14025
▁elder	-14026
▁knock	-14027
▁meter	-14028
▁purch	-14029
▁route	-14030
▁saßen	-14031
▁schme	-14032
Projekt	-14033
ichtung	-14034
lechter	-14035
▁20,000	-14036
▁Bedarf	-14037
▁Geruch	-14038
▁Höhlen	-14039
▁Organe	-14040
▁Portug	-14041
▁Proben	-14042
▁Wälder	-14043
▁frozen	-14044
▁keines	-14045
▁ladies	-14046
▁neural	-14047
▁qualif	-14048
▁schaue	-14049
▁signed	-14050
▁silent	-14051
▁wahren	-14052
▁Blätter	-14053
▁Deshalb	-14054
▁Dutzend	-14055
▁Flächen	-14056
▁Konstru	-14057
▁Redwood	-14058
▁Röntgen	-14059
▁Ursache	-14060
▁balloon	-14061
▁crucial	-14062
▁entfern	-14063
▁lernten	-14064
▁mächtig	-14065
▁opposed	-14066
imulation	-14067
▁Aufstieg	-14068
▁Gefangen	-14069
▁Sensoren	-14070
▁accepted	-14071
▁criminal	-14072
▁dolphins	-14073
▁equality	-14074
▁erwähnen	-14075
▁estimate	-14076
▁horizont	-14077
▁provides	-14078
▁spannend	-14079
▁verzweif	-14080
Heutzutage	-14081
▁Verlangen	-14082
▁describes	-14083
▁elsewhere	-14084
▁mittleren	-14085
▁privilege	-14086
▁weibliche	-14087
▁Schwestern	-14088
▁collecting	-14089
▁ignorieren	-14090
▁motivation	-14091
▁electronics	-14092
▁irgendeinem	-14093
▁elektrischen	-14094
▁mittlerweile	-14095
▁traditionelle	-14096
DR	-14097
Fi	-14098
IN	-14099
lag	-14100
züg	-14101
▁Rö	-14102
ahen	-14103
atts	-14104
idet	-14105
ktis	-14106
rest	-14107
ürzt	-14108
▁Dir	-14109
▁Ohr	-14110
▁Prü	-14111
▁les	-14112
▁lit	-14113
Dafür	-14114
geord	-14115
habil	-14116
keley	-14117
küste	-14118
ouver	-14119
worth	-14120
▁Bell	-14121
▁Dick	-14122
▁Fing	-14123
▁Füße	-14124
▁Some	-14125
▁adop	-14126
▁klug	-14127
action	-14128
annter	-14129
dollar	-14130
fältig	-14131
geräte	-14132
usalem	-14133
▁Logik	-14134
▁Ocean	-14135
▁Poliz	-14136
▁finds	-14137
▁illeg	-14138
▁jenem	-14139
▁likes	-14140
▁stieg	-14141
▁tired	-14142
▁womit	-14143
spieler	-14144
▁Atomen	-14145
▁Church	-14146
▁Daniel	-14147
▁Medium	-14148
▁Reisen	-14149
▁Spring	-14150
▁Vortra	-14151
▁billig	-14152
▁distra	-14153
▁evolve	-14154
▁freund	-14155
▁legacy	-14156
▁oldest	-14157
▁prosth	-14158
▁retire	-14159
▁reveal	-14160
▁shadow	-14161
▁öffnet	-14162
aufgaben	-14163
▁Muskeln	-14164
▁Neander	-14165
▁Schauen	-14166
▁Wurzeln	-14167
▁beliefs	-14168
▁kreiert	-14169
▁scratch	-14170
▁suicide	-14171
▁trigger	-14172
▁wanting	-14173
▁Gebieten	-14174
▁Virginia	-14175
▁begrenzt	-14176
▁captured	-14177
▁contains	-14178
▁meetings	-14179
▁Übergang	-14180
handlungen	-14181
▁Weihnacht	-14182
▁backwards	-14183
▁berichtet	-14184
▁continues	-14185
▁dedicated	-14186
▁generated	-14187
▁telescope	-14188
▁arabischen	-14189
▁contribute	-14190
▁emotionale	-14191
▁engagement	-14192
▁simplicity	-14193
▁strategies	-14194
▁Philosophie	-14195
▁disappeared	-14196
▁spectacular	-14197
▁wundervolle	-14198
▁Ungleichheit	-14199
▁Verbesserung	-14200
▁Universitäten	-14201
wa	-14202
Ele	-14203
Get	-14204
lem	-14205
oup	-14206
Wahr	-14207
achs	-14208
groß	-14209
utan	-14210
vier	-14211
äude	-14212
▁Bor	-14213
▁Nam	-14214
▁cup	-14215
▁nit	-14216
amine	-14217
arenz	-14218
athed	-14219
gebra	-14220
iance	-14221
ikely	-14222
kohol	-14223
rückt	-14224
spect	-14225
▁"[\"	-14226
▁Chip	-14227
▁Glüh	-14228
▁Grie	-14229
▁Haie	-14230
▁Juni	-14231
▁Laut	-14232
▁NGOs	-14233
▁Ruhe	-14234
▁ages	-14235
▁fung	-14236
▁halt	-14237
▁häss	-14238
Nobody	-14239
ersten	-14240
graben	-14241
handel	-14242
mensch	-14243
ropfen	-14244
▁Betra	-14245
▁Hitze	-14246
▁abund	-14247
▁breit	-14248
▁dicht	-14249
▁drove	-14250
▁exakt	-14251
▁fluid	-14252
▁gelie	-14253
▁islam	-14254
▁japan	-14255
▁judge	-14256
▁laser	-14257
▁lokal	-14258
▁verpf	-14259
▁wirft	-14260
erkrank	-14261
schafft	-14262
staaten	-14263
wandeln	-14264
▁Besitz	-14265
▁Fahrer	-14266
▁Glücks	-14267
▁Leiden	-14268
▁beseit	-14269
▁dialog	-14270
▁drehte	-14271
▁hardly	-14272
▁hungry	-14273
▁paraly	-14274
▁scales	-14275
▁sonder	-14276
▁tricks	-14277
▁vierte	-14278
Erinnern	-14279
Trotzdem	-14280
inkommen	-14281
▁Abraham	-14282
▁Handeln	-14283
▁Verschw	-14284
▁benutze	-14285
▁exposed	-14286
▁instant	-14287
▁pretend	-14288
▁reflect	-14289
▁removed	-14290
▁stammen	-14291
▁tragedy	-14292
▁ausgesch	-14293
▁confront	-14294
▁controls	-14295
▁darkness	-14296
▁frighten	-14297
▁globally	-14298
▁minister	-14299
▁produces	-14300
▁schickte	-14301
▁sozialer	-14302
▁theories	-14303
▁vertical	-14304
▁Höhepunkt	-14305
▁Toiletten	-14306
▁Treibhaus	-14307
▁authentic	-14308
▁neugierig	-14309
▁reduction	-14310
▁searching	-14311
▁Prototypen	-14312
▁boundaries	-14313
▁functional	-14314
▁gemeinnütz	-14315
▁historical	-14316
▁Anwendungen	-14317
▁anscheinend	-14318
▁innovations	-14319
▁schizophren	-14320
▁schlimmsten	-14321
▁unternehmen	-14322
▁Unternehmens	-14323
▁neuroscience	-14324
▁Menschlichkeit	-14325
lu	-14326
yo	-14327
Ben	-14328
isa	-14329
pal	-14330
Eins	-14331
azin	-14332
case	-14333
fehl	-14334
ilit	-14335
miss	-14336
olas	-14337
städ	-14338
uana	-14339
▁Fro	-14340
▁Lad	-14341
▁Vin	-14342
▁ink	-14343
going	-14344
gänge	-14345
▁Ehre	-14346
▁Koch	-14347
▁aust	-14348
▁dump	-14349
▁leap	-14350
▁rely	-14351
Anders	-14352
etball	-14353
sprach	-14354
▁April	-14355
▁Fried	-14356
▁Serie	-14357
▁Stick	-14358
▁Wände	-14359
▁angle	-14360
▁aside	-14361
▁begrü	-14362
▁crack	-14363
▁fruit	-14364
▁geöff	-14365
▁leist	-14366
▁recyc	-14367
▁reefs	-14368
▁seeds	-14369
▁veter	-14370
Darüber	-14371
forward	-14372
ospiele	-14373
projekt	-14374
▁Dialog	-14375
▁Pollen	-14376
▁Singap	-14377
▁Tränen	-14378
▁actors	-14379
▁chosen	-14380
▁crying	-14381
▁echtes	-14382
▁facial	-14383
▁feiern	-14384
▁formal	-14385
▁inject	-14386
▁innere	-14387
▁intuit	-14388
▁nahezu	-14389
▁rating	-14390
▁trends	-14391
▁weapon	-14392
children	-14393
▁Büchern	-14394
▁Eastern	-14395
▁Stewart	-14396
▁anthrop	-14397
▁charity	-14398
▁destroy	-14399
▁implant	-14400
▁lebende	-14401
▁lecture	-14402
▁letting	-14403
▁methods	-14404
▁radikal	-14405
▁richten	-14406
▁touched	-14407
▁änderte	-14408
▁Batterie	-14409
▁Gedichte	-14410
▁eröffnet	-14411
▁football	-14412
▁laughter	-14413
▁northern	-14414
▁organize	-14415
▁stations	-14416
▁unlikely	-14417
▁verletzt	-14418
▁Effizienz	-14419
▁Karikatur	-14420
▁abgesehen	-14421
▁gegenwärt	-14422
▁indischen	-14423
▁insgesamt	-14424
▁politisch	-14425
▁Motivation	-14426
▁Organismus	-14427
▁Wichtigste	-14428
▁earthquake	-14429
▁governance	-14430
▁microscope	-14431
▁nachhaltig	-14432
▁Oberflächen	-14433
▁advertising	-14434
▁ingredients	-14435
▁philanthrop	-14436
▁photography	-14437
▁Medikamenten	-14438
▁universities	-14439
Fe	-14440
JH	-14441
Nar	-14442
▁UC	-14443
▁kg	-14444
kopf	-14445
reme	-14446
rons	-14447
wenn	-14448
äger	-14449
▁Lev	-14450
▁Mem	-14451
▁Nic	-14452
▁Ron	-14453
▁Sav	-14454
▁Wow	-14455
▁wet	-14456
Mails	-14457
athol	-14458
ringe	-14459
ttern	-14460
▁Bier	-14461
▁Myth	-14462
▁Your	-14463
▁beer	-14464
▁choo	-14465
▁dish	-14466
▁eval	-14467
▁hing	-14468
▁mail	-14469
▁umso	-14470
etzung	-14471
▁Gramm	-14472
▁Wärme	-14473
▁blank	-14474
▁dient	-14475
▁minor	-14476
▁views	-14477
▁übern	-14478
angehen	-14479
brigens	-14480
quellen	-14481
unclear	-14482
▁Extrem	-14483
▁Katzen	-14484
▁Palest	-14485
▁Rollen	-14486
▁aufzus	-14487
▁auszud	-14488
▁beides	-14489
▁bother	-14490
▁degrad	-14491
▁durchd	-14492
▁locked	-14493
▁missed	-14494
▁muslim	-14495
▁underg	-14496
▁verlei	-14497
ierendes	-14498
mögliche	-14499
▁Depress	-14500
▁Lächeln	-14501
▁Schokol	-14502
▁Spinnen	-14503
▁attract	-14504
▁essence	-14505
▁gewöhnt	-14506
▁graphic	-14507
▁inspire	-14508
▁suspect	-14509
▁symbols	-14510
▁unsicht	-14511
▁verletz	-14512
▁Berkeley	-14513
▁Besonder	-14514
▁Fantasie	-14515
▁Feedback	-14516
▁Monterey	-14517
▁Schlagze	-14518
▁Teleskop	-14519
▁Umstände	-14520
▁aircraft	-14521
▁aktuelle	-14522
▁ausmacht	-14523
▁früheren	-14524
▁schwerer	-14525
▁wahrhaft	-14526
▁überlebt	-14527
▁Architekt	-14528
▁Bedürfnis	-14529
▁Nachfrage	-14530
▁Techniken	-14531
▁mechanics	-14532
▁Handlungen	-14533
▁inzwischen	-14534
▁protecting	-14535
▁probability	-14536
▁underground	-14537
Gu	-14538
vol	-14539
▁BM	-14540
Gott	-14541
Inde	-14542
lime	-14543
rich	-14544
uper	-14545
äher	-14546
▁15-	-14547
▁192	-14548
▁193	-14549
▁Ara	-14550
▁Göt	-14551
▁MRI	-14552
▁Sow	-14553
▁ham	-14554
iefer	-14555
rence	-14556
▁Gall	-14557
▁Mahl	-14558
▁Muse	-14559
▁anfü	-14560
▁batt	-14561
▁debt	-14562
▁dick	-14563
▁eind	-14564
▁flog	-14565
▁golf	-14566
▁mold	-14567
enness	-14568
fahrer	-14569
istern	-14570
körper	-14571
rition	-14572
tempor	-14573
uelles	-14574
zenten	-14575
▁First	-14576
▁Pferd	-14577
▁Prior	-14578
▁Risik	-14579
▁Sarah	-14580
▁Staub	-14581
▁chief	-14582
▁march	-14583
▁skull	-14584
▁stets	-14585
Michael	-14586
xytocin	-14587
äuschen	-14588
▁Arthur	-14589
▁Gipfel	-14590
▁Klinik	-14591
▁Mannes	-14592
▁Muskel	-14593
▁barely	-14594
▁borrow	-14595
▁enthus	-14596
▁interf	-14597
▁offene	-14598
▁poster	-14599
▁tenden	-14600
▁transc	-14601
gleichen	-14602
▁Everest	-14603
▁amongst	-14604
▁constru	-14605
▁enormen	-14606
▁ethical	-14607
▁höchste	-14608
▁jeweils	-14609
▁origami	-14610
▁setzten	-14611
▁trocken	-14612
▁unglück	-14613
▁Africans	-14614
▁Einblick	-14615
▁Fotograf	-14616
▁Hinweise	-14617
▁ausgehen	-14618
▁getestet	-14619
▁hingehen	-14620
▁nebenbei	-14621
▁benutzten	-14622
▁infiziert	-14623
▁musicians	-14624
▁nachdenkt	-14625
▁Versorgung	-14626
▁affordable	-14627
▁resolution	-14628
▁treatments	-14629
▁Konsumenten	-14630
▁demonstrate	-14631
▁Katastrophen	-14632
War	-14633
iva	-14634
oie	-14635
▁Hu	-14636
Life	-14637
akul	-14638
fäll	-14639
gnor	-14640
innt	-14641
male	-14642
zone	-14643
▁Mov	-14644
▁Wut	-14645
▁obl	-14646
▁rub	-14647
▁ört	-14648
deten	-14649
embly	-14650
lösen	-14651
romos	-14652
stern	-14653
wohnt	-14654
ziell	-14655
▁Farm	-14656
▁Held	-14657
▁Jord	-14658
▁Kühl	-14659
▁Näch	-14660
▁Pink	-14661
▁Time	-14662
▁bias	-14663
▁boss	-14664
▁dust	-14665
▁east	-14666
▁fram	-14667
▁glad	-14668
▁quer	-14669
▁vorn	-14670
Darauf	-14671
archie	-14672
iellen	-14673
lessly	-14674
schild	-14675
school	-14676
straße	-14677
wellen	-14678
▁Harry	-14679
▁Indus	-14680
▁Leber	-14681
▁Louis	-14682
▁Marke	-14683
▁anste	-14684
▁beruh	-14685
▁craft	-14686
▁crops	-14687
▁dirty	-14688
▁fifth	-14689
▁guide	-14690
▁pione	-14691
▁realm	-14692
▁stops	-14693
▁tears	-14694
▁wings	-14695
bleiben	-14696
▁Abhäng	-14697
▁Jewish	-14698
▁achiev	-14699
▁adding	-14700
▁ehemal	-14701
▁intrig	-14702
▁invite	-14703
▁layers	-14704
▁simult	-14705
▁smooth	-14706
▁stages	-14707
▁tribes	-14708
gefallen	-14709
jähriger	-14710
▁Fremden	-14711
▁bedeckt	-14712
▁geraten	-14713
▁heutige	-14714
▁liberal	-14715
▁tauchen	-14716
▁verließ	-14717
▁widersp	-14718
Innerhalb	-14719
akthrough	-14720
aktivität	-14721
▁Personal	-14722
▁Vermögen	-14723
▁aufrecht	-14724
▁contract	-14725
▁einziges	-14726
▁kleinere	-14727
▁lighting	-14728
▁pregnant	-14729
▁privaten	-14730
▁symmetry	-14731
▁Ökonomen	-14732
▁Ansichten	-14733
▁Maßnahmen	-14734
▁accidents	-14735
▁antworten	-14736
▁empfinden	-14737
▁implement	-14738
▁nationale	-14739
▁physicist	-14740
▁ähnlichen	-14741
▁apparently	-14742
▁verstecken	-14743
▁wiederholt	-14744
▁wirklichen	-14745
▁Shakespeare	-14746
▁vorgestellt	-14747
Normalerweise	-14748
▁chinesischen	-14749
▁festgestellt	-14750
RM	-14751
Lie	-14752
idi	-14753
urd	-14754
öne	-14755
agan	-14756
lter	-14757
mass	-14758
meid	-14759
strö	-14760
ulum	-14761
viet	-14762
üten	-14763
▁Fer	-14764
▁Hör	-14765
▁hip	-14766
▁lap	-14767
▁liv	-14768
▁ras	-14769
▁sle	-14770
Gehen	-14771
Masch	-14772
durch	-14773
eiden	-14774
liest	-14775
äufer	-14776
▁Brad	-14777
▁Mumb	-14778
▁Pitt	-14779
▁Stil	-14780
▁dive	-14781
▁gefr	-14782
▁hire	-14783
Machen	-14784
räumen	-14785
▁2000,	-14786
▁2009,	-14787
▁Bible	-14788
▁Democ	-14789
▁Figur	-14790
▁Santa	-14791
▁Waffe	-14792
▁Wasch	-14793
▁Werke	-14794
▁altes	-14795
▁conce	-14796
▁drill	-14797
▁freie	-14798
▁heben	-14799
▁miser	-14800
▁verbr	-14801
▁wound	-14802
cellent	-14803
politik	-14804
ylinder	-14805
▁Rwanda	-14806
▁Tasche	-14807
▁Varian	-14808
▁commod	-14809
▁emphas	-14810
▁fertil	-14811
▁fließt	-14812
▁keinem	-14813
▁legend	-14814
▁poison	-14815
▁stable	-14816
▁umwelt	-14817
▁untern	-14818
▁verbre	-14819
▁waters	-14820
▁ältere	-14821
▁Alkohol	-14822
▁Betrieb	-14823
▁Kinders	-14824
▁Seattle	-14825
▁Sequenz	-14826
▁advance	-14827
▁airport	-14828
▁consume	-14829
▁defense	-14830
▁extract	-14831
▁granted	-14832
▁indigen	-14833
▁interse	-14834
▁paradox	-14835
▁prosper	-14836
▁shelter	-14837
▁suspend	-14838
▁visited	-14839
▁wheelch	-14840
▁zuhören	-14841
▁Arbeitsk	-14842
▁Gebäudes	-14843
▁isolated	-14844
▁official	-14845
▁textbook	-14846
▁Änderung	-14847
▁Jerusalem	-14848
▁Resultate	-14849
▁aktuellen	-14850
▁gestaltet	-14851
▁letztlich	-14852
▁passwords	-14853
▁strangers	-14854
▁uncomfort	-14855
schuldigung	-14856
▁Rückenmark	-14857
▁mechanisms	-14858
▁mysterious	-14859
▁terrorists	-14860
▁vereinfach	-14861
▁übersetzen	-14862
imensionalen	-14863
▁diskutieren	-14864
▁kulturellen	-14865
▁breakthrough	-14866
▁transparency	-14867
organisationen	-14868
▁Geschichtener	-14869
▁communications	-14870
AM	-14871
▁+	-14872
▁:	-14873
Bes	-14874
Tra	-14875
awa	-14876
aws	-14877
eid	-14878
nik	-14879
ozi	-14880
pox	-14881
▁0.	-14882
▁48	-14883
▁72	-14884
▁Wa	-14885
Bahn	-14886
Bill	-14887
Dazu	-14888
Four	-14889
bast	-14890
hirn	-14891
itis	-14892
oole	-14893
oots	-14894
ourt	-14895
phys	-14896
roke	-14897
▁130	-14898
▁190	-14899
▁Bür	-14900
▁Fal	-14901
▁Kok	-14902
▁Neg	-14903
▁Tri	-14904
▁dum	-14905
▁fed	-14906
▁lux	-14907
▁mic	-14908
▁wed	-14909
cular	-14910
dauer	-14911
größe	-14912
olera	-14913
▁Fels	-14914
▁Kann	-14915
▁Sher	-14916
▁Thun	-14917
▁Wirk	-14918
▁anst	-14919
▁entt	-14920
▁lift	-14921
▁peer	-14922
▁trat	-14923
▁tuna	-14924
▁unin	-14925
breite	-14926
enschw	-14927
odelle	-14928
▁Hyper	-14929
▁Italy	-14930
▁Künst	-14931
▁Robot	-14932
▁balls	-14933
▁disag	-14934
▁enthü	-14935
▁legte	-14936
▁minus	-14937
▁recru	-14938
▁relax	-14939
▁seats	-14940
▁unpre	-14941
▁yours	-14942
gemeine	-14943
version	-14944
▁Anweis	-14945
▁Preise	-14946
▁erlaub	-14947
▁mochte	-14948
▁output	-14949
▁shrimp	-14950
▁strand	-14951
▁wartet	-14952
Wirklich	-14953
▁Atlanta	-14954
▁Brother	-14955
▁Lehrern	-14956
▁Pflanze	-14957
▁gesunde	-14958
▁initial	-14959
▁passing	-14960
▁pointed	-14961
Plötzlich	-14962
leuchtung	-14963
▁Diplomat	-14964
▁Erschein	-14965
▁Gebrauch	-14966
▁Gefahren	-14967
▁Mitglied	-14968
▁Pinguine	-14969
▁Schweine	-14970
▁Therapie	-14971
▁anbieten	-14972
▁bekannte	-14973
▁bewahren	-14974
▁database	-14975
▁external	-14976
▁geworfen	-14977
▁geöffnet	-14978
▁jährlich	-14979
▁surfaces	-14980
▁vorwärts	-14981
▁announced	-14982
[...]
